#version: 0.2
e n
e r
Ġ d
a n
Ġ v
i n
e t
e l
i j
Ġ o
Ġ h
Ġd e
a a
o r
Ġ m
s t
Ġ b
Ġ w
Ġ g
i e
c h
Ġ e
Ġ t
a t
Ġ a
Ġ z
i s
Ġv an
Ġ k
Ġ en
o or
i t
Ġ n
Ġe en
aa r
Ġ in
o n
in g
l e
Ġh et
Ġ s
Ġg e
Ġ p
d e
d er
r e
o e
d en
j e
g e
r o
Ġo p
Ġt e
ij k
Ġv er
Ġv oor
ch t
Ġb e
a l
Ġ is
g en
Ġ u
k en
a r
ij n
Ġo n
Ġ D
Ġ l
e e
o m
Ġa l
Ġm et
e er
u r
Ġ je
v er
Ġa an
i k
i l
i g
Ġ st
r a
o l
u n
Ġd at
i et
o t
an d
â Ģ
i d
a s
t e
Ġ c
a m
u w
v en
Ġo m
Ġz ijn
z e
Ġ H
o o
c t
Ġ er
el ijk
aa t
s ch
r u
Ġd ie
o k
Ġ f
Ġu it
Ġn iet
Ġh e
en t
o u
o g
Ġ j
Ġw or
Ġ M
er s
r ij
Ġ B
st e
Ġ S
k t
Ġ A
Ġw e
f t
el e
h e
Ġ E
Ġo f
Ġb ij
ĠD e
i er
Ġ re
i en
u s
a an
at ie
Ġ le
a g
an t
s en
o p
aa l
Ġ 1
Ġo ver
el d
Ġo ok
Ġ V
n en
l en
Ġ W
Ġ I
an g
a k
u l
e s
Ġal s
Ġ (
er k
Ġk un
er en
i m
ing en
Ġ N
Ġ ik
Ġ 2
Ġ O
Ġd oor
Ġs e
s e
d t
Ġhe b
Ġz o
t en
is ch
Ġd an
s p
b e
a d
a p
Ġ G
u ur
i c
i cht
Ġw aar
Ġz e
v e
Ġ âĢ
Ġm aar
Ġon der
Ġ T
Ġ P
i ge
Ġs p
Ġ C
e m
Ġn aar
Ġk an
Ġs ch
Ġa f
on d
Ġg r
Ġp ro
Ġwor den
e el
u t
Ġde ze
o et
l ijk
el en
k e
Ġ L
oe d
i st
Ġge b
ee ft
Ġ Z
Ġal le
o en
Ġw at
it e
Ġh eeft
Ġ r
ij d
an der
Ġ K
Ġon t
Ġse x
oe k
âĢ Ļ
p en
he id
t er
Ġ R
u it
ro uw
Ġw er
Ġm eer
ĠH et
isch e
or m
Ġw el
a st
Ġwor dt
o d
aa g
Ġt ot
el f
on t
as s
b en
Ġn og
a cht
in d
z en
Ġ J
. .
Ġv ol
Ġd it
a ge
or t
s l
k er
om en
u m
Ġheb ben
0 0
o on
D e
ie s
e en
ar t
Ġ ander
Ġm a
ie uw
i gen
je s
Ġm e
Ã ©
Ġp l
aa k
i ch
Ã «
Ġb et
Ġw as
ĠI n
o s
o uw
er e
u is
i a
Ġg ro
Ġd aar
d at
Ġkun nen
l and
Ġ F
r i
Ġb l
on der
Ġw il
Ġm oet
Ġk l
Ġm ee
in e
st en
Ġm en
i on
w e
Ġv rouw
Ġgeb ru
e u
f f
p l
Ġv eel
Ġt oe
Ġge m
at is
st el
at en
g el
elijk e
w ee
Ġu w
Ġg oed
a ct
m en
Ġge v
ar en
Ġh ier
Ġ2 0
Ġge en
Ġbe d
k s
Ġw ij
Ġt er
Ġj aar
a f
Ġh ij
am en
ĠA l
Ġn ieuw
Ġm an
ite it
o c
d u
Ġz ich
Ġon ze
v oor
a b
Ġe er
a le
in der
ie k
aa kt
a c
or g
aa m
Ġon s
ass age
ra cht
e der
Ġh oe
w ij
Ġ 3
Ġb el
er d
Ġw erk
ie f
h ou
oor d
Ġs l
oo p
in nen
Ġk le
p er
o el
i de
Ġge z
ĠâĢ ĺ
Ġc om
Ġma ken
Ġz elf
Ġm assage
i Ã«
u k
al s
i r
ing s
Ġander e
Ġgebru ik
aar d
al en
Ġm ijn
Ġgr atis
ge v
m a
Ġn a
Ġge w
Ġkun t
Ġw eer
w erk
Ġh un
cht er
el s
Ġ el
Ġh aar
r en
b aar
eer d
Ġ U
e c
Ġ ro
Ġg en
Ġe igen
Ġbe g
ĠE n
u g
ur en
i p
Ġp er
w er
an n
Ġbe st
u id
re s
e g
o er
b er
oo g
e d
Ġ ru
at uur
et en
Ġn u
op en
og elijk
Ġs n
u i
Ġver sch
Ġg aan
sch ap
ge ven
eder land
g t
ĠE en
o f
u b
Ġt ijd
Ġc ont
Ġb en
Ġ -
r an
a gen
Ġd i
Ġv r
uit en
Ġa r
Ġte gen
ĠI k
Ġe x
id d
âĢ Ŀ
b ij
ct ie
Ġt wee
t ijd
Ġm ogelijk
Ġt o
m er
H et
f orm
Ġbe h
Ġg aat
us sen
ij den
Ġz ou
k ken
Ġd us
or en
k el
Ġnieuw e
v an
Ġd r
v ol
r ijk
h uis
Ġz al
Ġmen sen
n em
o cht
Ġh ou
i den
Ġs amen
Ġp ers
n e
a re
Ġbe sch
m e
o ven
Ġm oo
Ġver k
ĠS t
Ġk w
Ġk om
Ġ ie
at er
Ġpl aat
ge b
ĠD it
Ġge d
Ġd oen
ak k
Ġ 4
d s
Ġk rij
) .
v ang
z elf
Ġ20 1
Ġe ven
Ġo u
il len
Ġwer d
g er
Ġver b
Ġbe z
Ġd en
Ġ 5
i v
p p
gen s
Ġv in
oe p
Ġd ag
eu ken
Ġk omen
Ġa d
st er
el l
Ġh ad
.. .
ĠN ederland
il m
Ġl ang
Ġc on
ra gen
Ġst aat
Ġalle en
ee m
b s
Ġg el
Ġb innen
iet s
i o
es s
Ġz oe
r on
ĠD at
Ġhe el
d ig
der s
ul t
an k
rij f
Ġeer ste
ĠâĢ ľ
ĠW e
Ġzo als
Ġbel ang
p t
Ġ ch
d ien
on den
Ġk o
Ġh and
be eld
ĠJ e
m aal
m ent
I n
Ġo r
aa d
k om
er t
Ġin ter
Ġbl ij
Ã© n
Ġvrouw en
Ġn atuur
he den
atie s
s c
Ġh el
Ġpro du
re e
aa st
u st
c e
Ġl aat
Ġgro te
it ie
Ġh uis
ĠD aar
Ġel k
ijk en
Ġle ven
Ġver t
Ġm oe
Ġz it
lijk e
ĠM aar
Ġkom t
ken d
l ie
oe g
Ġversch illen
Ġe cht
Ġv rij
Ġal tijd
Ġz w
Ġm in
s s
ĠDe ze
Ġz ien
i f
ct en
Ġh ele
Ġsn el
in t
el ing
Ġ1 9
oo f
t al
er g
st and
Ġer ot
Ġp r
od ig
l ing
k omen
ie d
Ġt ussen
et ten
o w
en s
Ġz org
a v
ijden s
Ġgro ot
Ġa ut
u ro
el t
ĠO p
der e
am er
ar d
ĠâĢ ĵ
el len
re k
an den
g r
d oor
ĠAl s
ĠO n
e st
Ġk inder
ul len
Ġverschillen de
Ġv ia
a u
er m
ĠV oor
Ġz ij
Ġter ug
Ġt ra
is s
Ġ '
un t
oo d
Ġg ele
an is
Ġge sch
al l
âĢ ¦
Ġwe bs
z oek
Ġm ij
Ġp ri
oe de
l ine
z ien
n o
al len
o ol
e b
Ġm o
ee k
in k
w ik
form atie
Ġmoet en
k ker
ĠE r
Ġbe ste
a de
Ġcont act
p ro
c o
Ġbelang rijk
w el
Ġzoe kt
2 0
ann eer
Ġ Ã©
b l
ĠO ok
am e
Ġa chter
er v
aar t
e ft
at ion
p e
Ġ iets
Ġre cht
d ing
Ġh oog
id ing
Ġpro b
Ġl aten
Ġn euken
z icht
Ġk en
ent en
Ġz onder
eer t
ot en
Ġ 6
ra m
ant en
ar k
Ġver h
Ġhe m
Ġto ch
or gen
Ġplaat s
Ġf ilm
Ġh er
Ġv l
d ag
i ken
eer de
Ġver g
al iteit
Ġb uiten
ie den
ĠM et
ru k
m ee
w oord
Ġom dat
Ġn odig
ik t
Ġj ouw
Ġbe p
Ġru im
Ġeen s
A l
as sen
de el
ĠÃ© Ã©n
il l
u d
Ġpers oon
i el
Ġwe g
Ġbed rijf
am p
Ġ ra
ier en
der en
Ġde el
ar m
Ġn et
geven s
n l
Ġl ig
Ġgem aakt
t ra
Ġop en
rij ven
ĠZ o
o st
Ġse ks
oor t
Ġin formatie
voor beeld
Ġg oede
ur g
Ġelk aar
Ġbe v
o ver
Ġst ee
in a
Ġs u
e x
Ġw eten
Ġsp ec
E en
Ġheb t
g gen
e ct
c l
Ġaan tal
Ġu ur
Ġd er
Ġwer eld
Ġar t
Ġst aan
Ġge ven
pl aat
Ġalle s
Ġj on
ĠB e
Ġvin den
m an
ĠV an
oo k
ff en
b are
Ġz oek
uur t
iÃ« n
re cht
on en
Ġerot ische
m at
vang st
Ġa ct
c es
ol le
ij f
Ġaan ge
a y
Ġor g
Ġont wik
oe m
i re
Ġt en
Ġver l
v l
Ġt ijdens
Ġstee ds
Ġt huis
Ġwer ken
Ġver z
Ġkinder en
Ġvol gen
rij s
p le
ĠZ e
Ġm aakt
Ġge k
Ġd ien
ar i
Ġk ut
an c
Ġp art
Ġv aak
n is
st aan
oe ken
Ġon line
Ġl u
Ġge h
I k
Ġie der
Ġv ak
ĠB ij
o ot
ĠA n
ig heid
ĠV er
ie ke
) ,
' s
Ġwebs ite
Ġb ent
om m
q u
Ġ1 0
em en
Ġer v
Ġp le
i le
m idd
Ġf ot
Ġg eld
et t
Ġ "
Ġ 7
Ġv orm
Ġver der
icht ing
w aar
t u
Ġwil len
Ġle kker
al is
a ken
ĠH ier
Ġgr aag
ĠC h
oof d
c ent
Ġ rij
e f
Ġbij voorbeeld
Ġl and
je ct
o b
Ã ¯
Ġmoo ie
e il
aa s
Ġj ij
Ġb oven
Ġer g
ĠH ij
u re
Ġze ker
acht en
Ġ 8
Ġz eer
a der
Ġk eer
Ġj aren
Ġb er
ch n
Ġver m
Ġver w
Ġp re
ig ing
ĠW ij
sc ort
Ġm ag
we g
Ġre g
ee s
ur s
ĠS p
Ġwat er
ant ie
ve el
Ġm is
Ġg l
Ġdi re
Ġm inder
ar kt
Ġm aat
Ġv ast
r aag
Ġg er
en d
ver s
n a
o eren
i aal
Ġp or
Ġw aren
Ġvol le
Ġman ier
Ġmoo i
hou den
k ing
Ġorg anis
r ie
oo s
ig d
Ġr ond
Ġw in
stel ling
Ġkrij gen
Ġv ragen
Ġvr aag
Ġb ere
Ġa c
Ġs le
Ġle ver
u in
g aan
Ġst r
ar ing
a ch
Ġmee st
i ve
Ġnatuur lijk
b urg
Ġo or
z aam
on ing
ĠS ch
Ġb as
ien d
d oen
m and
h and
i z
Ġbe sl
Ġaan b
Ġ â
Ġhou den
Ġa pp
Ġm il
akk elijk
Ġn emen
Ġw ant
Ġwel ke
Ġgebruik t
z onder
v oer
Ġbe w
e ken
Ġ2 00
Ġpri ve
iet en
Ġver d
Ġge sp
an s
le s
g d
gev ing
el den
Ġt he
Ġop t
ic e
Ġv ind
et je
Ġp ol
m m
Ġwe et
Ġme d
ra g
ge m
z ij
un d
Ġz ullen
Ġm om
Ġre gel
Ġe scort
zelf de
be d
Ġb oek
u z
g ele
Ġ ide
Ġge eft
Ġzo dat
a il
z et
Ġre s
m st
r aak
y st
Ġgew oon
Ġb ren
Ġdr ie
Ġg ere
Ġgebru iken
Ġh uid
Ġad v
Ġb r
Ġprob le
Ĥ ¬
os s
ol og
g ang
Ġk ijken
Ġpro f
erd am
re ken
Ġ 9
Ġh oofd
aal d
k l
Al s
c on
Ġl icht
Ġk n
Ġw anneer
Ġbet er
Ġh eer
et er
on e
Ġb uurt
mst erdam
Ġe ind
Ġ 0
Ġex tra
ou d
b o
st r
am elijk
Ġt oen
or d
kom st
Ġ &
Ġs m
Ġdat ing
Ġaut o
e ur
ĠO m
Ġlaat ste
Ġart ik
Ġbas is
Ġvoor al
Ġ1 8
ijn en
hou d
Ġzelf s
Ġander s
Ġonder zoek
ak ken
it u
Ġg et
Ġfot o
Ġj ul
b in
Ġst ad
Ġst e
ĠD oor
Ġm idd
ge st
ul p
h a
Ġwil t
u ist
l er
Ġel ke
Ġkle ine
Ġin st
O p
in s
stel len
o ge
ĠD an
Ġt ele
n aast
Ġ im
om s
Ġst uk
Ġblij ven
Ġop l
g ram
b ouw
Ġme de
Ġv eil
ia le
sch e
Ġge st
Ġd agen
Ġmom ent
Ġbesch ik
ap p
Ġw eek
Ġâ Ĥ¬
wij s
ĠW at
re ven
ar te
n et
an nen
ĠG e
r it
Ġgem een
o de
an ge
n er
00 0
g a
ant woord
ĠL e
Ġ [
i b
ĠE uro
ra s
Ġz on
o gen
c om
Ġkw aliteit
Ġvin dt
Ġbeh and
d racht
Ġdire ct
iv iteit
Ġj ou
Ġ1 5
Ġsle cht
k ele
Ġk ie
l ingen
Ġ1 2
Ġvan af
h er
Ġaan v
ve st
oor den
Ġp aar
ag ina
Ġt re
i um
Ġz orgen
at e
Ġc l
Ġr el
Ġb ouw
oo it
ra f
Ġhele maal
Ġk on
sl ag
yst eem
n ieuw
ï ¼
ĠG r
. âĢĿ
ee st
ru m
Ġl ief
ken de
ijk t
werk ing
Ġkrij gt
Ġko sten
Ġgev al
re d
ro t
Ġd oel
p a
Ġge be
Ġge gevens
Ġbe k
Ġe ff
Ġz ie
Ġ ele
aan se
Ġprodu cten
h op
Ġf un
Ġhel pen
y s
ist en
Ġkle in
Ġvolgen de
Ġsp eel
ĠB el
Ġu n
g et
Ġd uid
al ing
o elen
erg ie
al t
v ing
Ġd oet
Ġontwik kel
e k
atie f
ent ie
Ġlig t
aal de
Ġzit ten
oe f
m b
Ġp racht
Ġwaar door
Ġv ier
Ġalle maal
an gen
p r
i al
Ġpor no
Ġbet eken
a den
sch ien
Ġk op
Ġieder een
Ġte chn
Ġp rijs
Ġgr oe
Ġc olle
Ġin d
Ġd uur
t je
Ġkl aar
van gen
ru ik
s k
Ġle uk
Ġen kele
ï¼ ļ
sp raak
Ġg a
ver t
o ur
Ġe chter
Ġken nis
Ġ ,
ze ker
Ġk ant
ind s
s b
eu ze
Ã« n
Ġwaar in
er ie
res s
Ġcom p
Ġvoor zien
Ġv ide
Ġf l
Ġle er
ie dt
ra kt
ĠM ar
ĠH oe
Ġn ooit
ĠA r
V oor
Ġe uro
Ġgr ond
Ġuit ge
Ġc or
schap p
s el
ui zen
Ġma and
ui ste
d elen
Ġwer kt
Ġruim te
gram ma
Ġ an
ĠP ro
Ġch at
aak te
Ġin ge
Ġop ge
Ġver ander
le iding
iÃ« le
Ġkle ur
Ġeer st
el de
Ġst and
ĠR e
ro om
um mer
p akk
Ġblij ft
dat e
Ġst ap
nem ers
Ġj uiste
wij l
ub l
Ġge he
k amer
Ġn amelijk
Ġst erk
Ġwer den
r ik
a ire
ig n
d am
Ġzo wel
Ġaf ge
Ġbe kend
Ġb ieden
Ġwaar bij
Ġre st
am il
Ġk euze
u te
Ġou de
Ġk ind
Ġtwee de
Ġc ent
ac k
Ġl ich
ĠF ran
Ġre ken
id s
wer p
Ġsch ool
Ġme is
icht en
r is
Ġprodu ct
Ġartik el
W e
oop t
Ġgr oep
p ass
Ġont vangst
v al
O n
Ġf in
o den
Ġeen v
m et
Ġt op
ou t
m ber
Ġb iedt
Ġn aam
Ġn eem
a ir
Ġte am
u p
Ġbij zonder
erv ice
Ġa v
b el
le g
aar s
am es
ver se
ijn a
Ġro l
re g
ur t
Ġie mand
rouw en
Ġvan uit
De ze
ĠB l
Ġle u
Ġkw am
ro kken
ij en
Ġge ile
re den
d aag
ĠW il
1 9
ĠN a
Ġm od
Ġgev ol
in ig
Ġb ele
Ġb re
atie ve
Ġ /
Ġof f
Ġs oc
Ġc re
Ġv oet
ĠS ex
m p
Ġvr iend
cl us
Ġm ater
et ail
m in
Ġres ult
ver en
ĠAl le
et s
Ġh en
v in
Ġver s
rij d
Ġduid elijk
Ġbez oek
wer ken
Ġjul lie
Ġw ie
er de
Ġbren gen
Ġtele f
ĠO f
on g
Ġniet s
Ġtra in
Ġzorg t
Ã¯ n
ĠNederland se
o sten
g oed
Ġt uin
Ġgeb ied
Ġvol doen
if ic
Ġgemeen te
Ġm arkt
Ġru st
a x
ic k
Ġv ele
ere cht
ĠD ie
Ġver wij
en te
Ġ Y
ij l
d acht
5 0
Ġze ggen
Ġer voor
Ġin t
gen omen
Ġen ergie
ro l
el ingen
Ġerv aring
u cht
Ġcom bin
Ġd ik
c k
Ġs c
Ġsp elen
Ġz etten
Ġdaar om
Ġk ort
Ġ .
o v
y n
or te
Ġom geving
Ġm uz
or den
en en
Ġp at
Ġver st
m ers
ess ion
ol en
Ġbest aat
Ġp rakt
ol land
or p
sp ro
Ġ3 0
a z
gel open
on de
le den
k elijk
Ġ1 00
nem en
at or
er ing
u ten
p te
Ġkl anten
Ġvol gens
Ġonder ste
Ġ1 6
J e
ont vangst
ij st
Ġkie zen
Ġst ellen
ou dig
Ġzoe ken
Ġlich aam
Ġbest aan
ĠT e
vol gens
Ġg ing
an te
it es
B ij
Ġw oning
2 1
ĠDaar naast
Ġsp el
ce pt
Ġm aan
aa f
eren de
Ġb ijna
Ġlu cht
Ġd ruk
ter dam
Ġk racht
o ch
Ġk er
ig er
Ġdi verse
Ġs ite
Ġb ro
Ġged aan
ist er
ank elijk
he m
im aal
Ġb lijk
Ġz om
Ġf amil
we z
Ġgez ond
Ġvolle dig
ĠA msterdam
om st
Ġp as
Ġt ran
Ġl oc
ĠD en
it s
ĠP l
Ġv or
Ġbet re
io de
Ġw it
ĠE l
Ġver v
Ġ1 4
Ġeigen lijk
Ġn e
Ġhad den
Ġz iet
ĠG ro
Ġm ot
Ġze gt
1 0
Ġkun st
Ġden ken
un ten
Ġ eten
Ġple k
Ġw oon
Ġv is
Ġbed rijven
Ġop dracht
Ġst u
o ft
ge gevens
Ġh art
Ġh ard
Ġper f
Ġ |
Ġte k
âĢĻ .
Ġbe etje
D it
Ġ1 7
Ġp os
or ie
Ġf ijn
Ġgev oel
Ġw and
Ġvide o
Ġk re
Ġjon g
Ġ i
plaat s
Ġplaat sen
Ġv oed
Ġgesch ikt
Ġn l
at eg
Ġde s
Ġkan s
is c
ie ve
ic o
r y
M et
wee st
Ġmis schien
Ġde c
Ġl ast
E R
ol l
at t
on s
Ġide e
Ġgen oeg
c ont
Ġl eren
Ġv oel
u ele
a uw
Ġh oge
Ġ ï¼ļ
Ġh al
Ġon gev
w w
Ġl ater
Ġverh aal
Ġcom m
at ten
Ã ¨
Ġl ijkt
Ġopl oss
aa p
Ġge weest
Ġleu ke
om e
Ġs oort
Ã ³
Ġsp ort
Ġl id
o erd
wer pen
3 0
Ġs oms
a ur
Ġvak antie
Ġkl ant
Ġg elijk
r atie
Ġwe inig
in n
ru ct
ĠK l
Ġmaan den
ig heden
Ġ ant
E r
Ġter wijl
ĠV ol
Ġvoor t
Ġaan dacht
Ġd ingen
ig h
aal t
Ġuit er
es e
in de
o om
im burg
ĠU it
Ġlang s
Ġmee ste
Ġpri v
as e
ma il
is e
Ġge p
een komst
Ġc o
Ġre den
Ġver pakk
Ġh ulp
Ġmil j
c ces
ip s
Ġt oek
Ġeenv oudig
or e
le i
e uw
Ġmogelijk heden
ver d
Ġvoor komen
Ġen ige
d st
Ġdien st
Ġb ru
Ġm akkelijk
Ġhoog te
ic atie
gest eld
z ak
d ige
Ġw en
Ġaan wez
ĠT he
ch e
ar a
Ġst art
Ġl ange
Ġman nen
ab el
sl oten
elijk s
Ġf e
i x
Ġ5 0
p jes
mat ig
Ġorganis atie
Ġwe ken
Ġmeer dere
ĠBel g
Ġz at
Ġj uist
re kken
Ġele kt
E N
Ġw arm
Ġbe eld
k oop
sl and
se x
Ġontwik k
Ġfin anc
ri ft
Ġ et
Ġuit geb
Ġbeteken t
t s
Ġp agina
Ġpro ject
ar is
u il
oor ten
Ġsu per
il ijk
Ġd etail
Ġbeschik baar
iÃ«n ten
oe men
Ġbeg in
Ġgeb ouw
der d
Ġin sp
Ġprof ession
ot el
v is
Ġmen s
Ġ ...
y p
Ġmede werk
z org
Ġd icht
nem er
o ff
ĠV l
Ġs itu
Ġk open
a ut
f ilm
Ġeer der
Ġwe b
af el
Ġpracht ige
Ġtoe pass
Ġp ar
Ġp op
Ġb le
Ġin f
Ġal ler
w aard
s y
b r
Ġl os
ke ur
Ġproble em
Ġtoek omst
Ġsch oon
Ġt ien
Ġact iviteit
a ste
g ing
ĠI s
âĢ ľ
Ġmidd el
Ġbe sp
W ij
Ġslecht s
Ġd ro
Ġmoe ilijk
olog ie
Ġmin uten
Ġ1 1
p h
Ġmo gen
ĠOn der
on nen
Ġsu cces
c ies
s m
Ġl open
Ġou d
Ġ2 5
Ġs h
Ġon ge
c te
id den
uk k
stel lingen
Ġtelef oon
p unt
Ġp assen
z etten
mer ik
Ġverpakk ing
Ġp ij
Ġden k
Ġverg elijk
Ġmuz iek
Ġ20 20
Ġn orm
Ġ :
p el
Ġcon s
Ġle zen
sp ron
Ġvan daag
ven s
Ġ x
Ġp ast
ĠD uit
ĠA f
k k
Ġz aken
s h
Ġreken ing
Ġb or
ĠZ ij
i an
oen en
mm ing
Ġt erecht
Ġg ar
Ġwaar de
act ie
l o
ĠA an
ra b
ment en
Ġa p
Ġ Â
Ġav ond
m erk
ee d
an u
Ġpol itie
ct ion
ĠN ieuw
k le
k ant
Ġzo veel
Ġb i
v el
Ġbep aalde
Ġgem akkelijk
it t
Ġre is
ĠO ver
Ġlig gen
schap pen
Ġver antwoord
Ġen orm
Ġ2 4
gel s
Ġgez ien
Ġaf gelopen
Ġo og
Ġma x
Ġp ark
Ġm erk
Ġgele gen
ul d
oe pen
Ġongev eer
Ġn aast
Ġde zelfde
ĠG od
t recht
ij s
l og
Ġs inds
Ġz ak
waar den
Ġon be
y pe
in o
w on
Ġgele den
ie p
f in
ĠL ees
ru im
Ġs y
k op
Ġhou dt
sl uit
S t
iden t
st of
d an
staan de
Ġn eg
ation ale
Ġl ok
ig it
ul ier
ast ing
o h
r ist
Ġd elen
Ġge Ã¯n
Ġk euken
Ġzou den
Ġont vangen
oem d
Ġac c
Ġn ederland
d r
ge ver
E n
Ġc m
Ġmoe st
b al
Ġgew eld
Ġp ubl
p ers
ĠGr atis
j aar
Ġg ra
Ġwin kel
rij zen
ind elijk
sp ra
acht e
Ġst em
ĠW aar
Ġw et
ag er
Ġgehe el
ig de
f ort
it y
Ġn ood
Ġgroot ste
Ġbest uur
heid s
o ve
it ter
Ġ1 3
we ge
um ent
Ġgen ieten
Ġbek ijken
ast en
Ġont de
Ġecht e
Ġv ijf
Ġpro gramma
Ġt h
Ġo b
Ġf orm
Ġgro ter
Ġr is
t h
h ankelijk
Ġh og
m ot
omm ige
i ele
Ġadv ies
le x
Ġad vert
od y
st uk
Ġkle uren
vol le
v orm
ct or
Ġpersoon lijke
Ġre d
Ġont vang
Ġfamil ie
us s
Ġper iode
Ġproble men
sch ijn
O m
Ġn at
Ġ X
hand el
Ġheer lijk
Ġbet alen
Ġ aard
le m
Ġou ders
Ġz in
Ġe euw
ri p
et te
Ġonderste un
op t
pl icht
w ijk
ive au
ro le
Â Ń
u e
us e
o ber
en e
Ġver volgens
h al
wer kt
Ġbeg ele
Ġbez ig
eren d
ee uw
o it
Ġaf spraak
cht en
Ġhoe veel
ukk ig
ĠU n
u le
im ent
Ġb ad
ĠEuro p
en de
Ġblijk t
Ġle eft
Ġb al
Ġfe it
res ent
i ers
gem een
Ġcom ple
W at
ger icht
Ġneem t
Ġf eest
Ġpre cies
Ġcon c
anu ari
iÃ«n t
Ġgez ocht
p ort
ve il
Ġad res
V an
ven t
Ġje zelf
Ġd o
Ġmet er
elijk heid
Ġbesch erm
Ġcor on
Ġpers onen
Ġinter net
Ġmoe der
Ġeff ect
at h
je cten
gev oerd
z er
i vers
Ġge geven
Ġs ervice
Ġuitgeb re
Ġf il
ĠM e
reg elen
op pen
Ġtoe ge
Ġpl an
Ġhet zelfde
Ġkrij g
o ffen
midd els
iz oen
Ġwaar om
t jes
Ġwaar mee
w are
Ġmet een
Ġl aag
ter n
Ġoor spron
Ġbeg innen
Ġle s
Ġen kel
Ġhoe ft
. âĢĻ
in den
Ġz ee
Ġdr aa
Ġcomm un
t re
Ġsex date
Ġj anuari
Ġv re
Ġpro ces
ie u
k elijke
ĠN iet
Ġander en
v ie
w or
org anis
Ġie dere
Ġbehand eling
iss ie
Ġop nieuw
Ġlang er
m ak
1 2
l icht
Ġn acht
a in
ĠOn ze
sch rij
Ġwaar op
de eld
Ġk ru
her ap
f eer
Ġuit v
im a
ss el
Ġw ee
d el
Ġs ub
gr ond
be h
Ġd oe
Ġl oop
Ġontwikkel ing
Ġs ysteem
Ġh anden
Ġfilm s
Ġbelangrijk e
Ġvoldoen de
v rij
Ġhe en
Ġjon ge
ĠA merik
Ġwe dst
n ing
Ġuit voer
Ġbet rokken
Ġro t
ma ken
m arkt
b et
Ġst ud
te s
ree k
ĠW anneer
Ġn ad
Ġsch ade
con om
f l
Ġl imburg
Ġa mb
Ġk orte
Ġk aart
âĢĻ ,
Ġverw acht
et e
Ġko ff
Ġa ss
gr oep
m per
Ġbr and
Ġk ijk
Ġh alen
ber g
Ã ¶
r ing
1 8
ra k
r icht
Ġver zeker
er ken
Ġhuid ige
Ġb oeken
Ġuit e
Ġc am
av ond
sl uiten
Ġd oc
oe gen
Ġv alt
un i
Ġdik ke
Ġl og
Ġreg io
u im
ang er
! !
ĠâĢ ¦
Ġf iets
Ġv ond
Ġwil de
ĠC l
Ġa cht
Ġbe ide
Ġsl ag
Ġz iek
it er
Ġc ult
r aad
Ġkre eg
Ġd on
st aat
Ġactiviteit en
Ġsch il
Ġmaar t
Ġd igit
Ġaut om
ann ing
ent ies
Ġcombin atie
plaat st
Ġmedewerk ers
Ġa ctie
Ġo gen
g elijk
p s
Ġin dien
z ing
ic a
Ġmo b
an en
am ers
Ġover zicht
Ġdan k
t t
in es
ij ven
Ġgez ell
Ġaf stand
o x
âĢĿ ,
bed rijf
Ġtoepass ing
Ġinter n
Ġwij ze
s gegevens
Ġd ames
m ijn
Ġlief de
Ġar be
le ven
D at
Ġprakt ijk
clus ief
Ġmogelijk heid
ĠW el
a h
pro du
Ġre c
o zen
Ġsch e
Ġv lie
Ġsl aap
Ġv le
ru s
Ġris ico
midd el
om p
ĠDaar om
Ġle den
Ġg ang
w in
Ġgew orden
Ġsitu atie
ĠA d
Ġpers on
Ġs erie
Ġw oord
ik ken
it ion
Ġsamen werking
sl agen
m aat
ĠB en
aur ant
on ingen
z ame
Ġgeld t
Ġeven tu
Ġmeis jes
we gen
ien den
Ġnieuw s
Ġmo der
v rouw
Ġte ken
Ġstu den
ĠB r
Ġ201 9
ab y
oo i
Ġvolle dige
aar de
ĠN u
Ġdaar na
Ġvorm en
Ġveil igheid
Ġh oor
i oen
Ġs oorten
vl oed
ie ken
a us
schijn lijk
p ar
w assen
Ġder de
Ġoploss ing
c am
Ġf or
j ar
Ġd ak
ul dig
et jes
Ġwaar van
Ġtot aal
it ies
Ġmooi ste
b ere
Ġdat e
Ġloc atie
Ġz et
a and
erd ag
b oek
re in
Ġaanwez ig
ĠM ijn
ĠB ru
Ġpop ul
pte mber
de m
Ġdaar bij
Ġd ru
Ġverz am
z ijn
oem de
d ra
Ġspec if
Ġ4 0
Ġz icht
Ġonder wijs
ig ingen
Ġna uw
og raf
Ġaan p
Ġ Ã©n
ĠT h
o eld
Ġm on
kom t
ĠZ w
m oet
Ġc as
Ġ Q
Ġthuis ontvangst
Ġ y
d ruk
Ġdien sten
em ber
ur k
Ġzich zelf
Ġp ijn
ch ine
Ġmed ia
sy ch
Ġko st
A N
ĠR ot
b ele
O ok
Ġv oer
Ġp rijzen
e ctie
Ġbl oed
Ġdi ent
ĠH e
Ġop v
Ġaan geb
Ġw ijn
Ġcom fort
Ġgev allen
Ġd ieren
ĠD us
i zen
str aat
Ġp ap
1 5
Ġex per
Ġbeg int
Ġ19 9
Ġwerk zaam
Ġlever en
Ġf ab
pp ort
Ġh ar
Ġgeh ad
ste mming
ark et
Ġapp ar
Ġrel atie
een s
Ġpos itie
op er
z ier
ond ag
vie w
z el
ig t
Ġm at
ure au
l oop
Ġpro cent
ut er
Ġe inde
ĠE x
Ġresult aat
Ġregel matig
Ġb ody
N a
we zen
ver b
ge men
z o
Ġ201 8
Ġma il
ĠN oord
Ġonder deel
Ġbedrijf s
Ġverb et
Ġm aak
W il
Ġv ing
ĠZ ijn
Ã ¼
x e
Ġmeis je
u ik
Ġelekt r
Ġse ptember
w eer
Ġbetre ft
Ġk il
Ġverk l
Ġaanb od
Ġb ank
ct ies
Ġk erk
ot h
Ġmilj oen
b ren
Ġber oep
Ġh oop
ieden is
eb ru
oog le
ĠS te
Ġk ap
Ġbl og
Ġme i
baar heid
Ġtek st
Ġbev at
Ġl ie
Ġw oorden
gemen e
Ġver plicht
n ummer
Ġrij den
Ġa msterdam
Ġh oren
h oven
im e
um enten
Ġk r
Ġzw em
ĠJ an
l open
Ġo kt
ro ken
V er
Ġinst all
Ġerv aren
ĠG el
Ġleven s
l ang
gen de
Ġ2 1
ĠM eer
Ġmeest al
alis eren
Ġh otel
Ġverk rij
Ġon ver
. "
i ft
ap t
Ġl in
Ġst il
sp re
ig ers
rij den
Ġj uni
ist ische
geb ouw
i alen
oe der
Ġs feer
Ġsoc iale
ir c
Ġle ggen
Ġm idden
k w
Ġver oor
Ġt al
co unt
ten s
Ġmater iaal
Ġt w
Ġl anden
Ġinter ess
Ġgen omen
Ġp ost
n el
M aar
âĢĿ .
Ġp ot
uren de
Ġn ummer
Ġst ond
pr il
Ġm ond
Ġn eu
ap en
Ġgem idd
Ġo oit
Ġleeft ijd
v r
id t
Ġont werp
ĠB oven
B e
Ġperf ect
Ġtoe gang
Ġstand aard
in st
ri ve
Ġhel pt
i der
Ġn eer
ie el
Ġveil ig
geb ied
ug d
Ġf act
u de
Ġokt ober
Ġ20 21
Ġen t
ĠEurop ese
Ġob ject
1 1
Ġr ijk
u ut
Ġact ief
ot s
er men
l ijn
Ġl ijst
ĠS h
Ġse izoen
k un
ge w
oe s
Ġsch rijven
Ġzom er
o i
Ġdec ember
Ġer van
Ġgl as
ebru ari
Ġgen oemd
ak e
Ġst ijl
Ġh or
Ġpl at
ee f
Ġgesp rek
Ġuite indelijk
sch ool
Ġbeg rij
Ġlok ale
ge d
ĠW ant
re gen
b ank
Ġin zicht
Ġdr aag
Ġdaar mee
rot ische
Ġh olland
I N
Ġbijzonder e
ver len
Ġwen sen
ol f
w ater
g eld
Ġont staan
Ġvr ienden
ell er
ĠN eem
Ġst of
ĉ Ċ
Ġgev onden
sp ort
h ol
Ġhou t
Ġ qu
oc k
Ġversch il
Ġd isc
o y
b re
ove mber
ĠâĢ Ļ
Ġsm aak
Ġle iden
Ġaan t
ac y
z ie
is sen
ĠAn t
Ġbelangrijk ste
ar s
r aal
gele gd
Ġs im
Ġvr oeg
Ġuit ste
ut t
Ġken nen
rek king
z oeken
Ġt ips
ĠZ uid
oe ien
ant ra
is en
Ġ2 2
Ġv ader
Ġhal f
or ten
Ġr ichting
b on
as se
Ġe conom
oe den
el k
Ġaller lei
ĠN e
p art
Ġcolle ga
Ġt rouw
il iteit
Ġpersoon lijk
Ġp unt
Ġb and
Ġvoor dat
Ġd orp
ra le
Ġf iet
ĠS l
Ġa pril
Ġb ur
ĠM en
Ġk amer
âĢ ĺ
v eld
Ġrest aurant
Ġf ebruari
d agen
Ġpersoon sgegevens
Ġhog er
Ġge s
Ġk oop
Ġc urs
Ġte v
Ġd ragen
mat eur
ap pen
Ġber icht
Ġrecht s
Ġbe vest
Ġde fin
de s
Ġc amp
H oe
ru it
p ast
Ġsp ra
m al
Ġont moet
Ġv allen
ĠRot terdam
Ġun ieke
Ġm aakte
sp el
Ġvan wege
n ame
use um
Ġp ass
Ġge houden
D oor
Ġin middels
Ġin houd
Ġd ood
Ġaanb ied
Ġprob eren
as h
Ġnatuur lijke
im ale
ist eren
Ġgevol g
rab ant
ra ct
Ġspec iale
h et
Ġpart ijen
Ġal gemeen
Ġkoff ie
Ġverz org
Ġn ovember
Ġh ond
Ġc ar
Ġs ommige
1 6
Ġgem e
ec te
z aak
i rus
oeg d
vin c
is me
dien st
Ġmee ster
Ġ and
Ġop le
st ad
Ġh uur
Ġgebe ur
Ġl ul
Ġz uid
Ġde ur
ge sch
Ġst er
Ġan al
ĠEuro pa
Ġl oopt
k ijk
Ġze i
Ġou der
he b
Ġst elt
Ġbe weg
Ġmod el
Ġt ri
Ġb us
Ġvol wassen
Ġb os
ĠS e
Ġin g
k osten
Ġzat erdag
no v
Ġmaat regelen
Ġop leiding
Ġoorspron kelijke
Ġfun ctie
Ġoff er
Ġmaat schapp
an de
Ġt aal
ĠG oogle
Ġh y
hem ale
b le
Ġver en
Ġl en
ok ken
ist ratie
er kt
Ġontvang t
h alen
Ġwij z
Ġvl oer
ind ing
Ġontwikk elen
Ġt afel
w ill
ken s
cont act
w agen
ree kt
d eling
Ġtra d
ateg orie
stand igheden
Ġvoel t
Ġbren gt
midd elen
Ġcre Ã«
Ġuit gevoerd
u igen
Ġz es
1 7
Ġpr ima
oft ware
ĠP ar
t o
Ġbed rag
w oorden
Ġgez icht
Ġkut je
t oe
Ġ201 7
it i
art s
wij f
Ġspec iaal
z ijd
i ent
ĠM an
Ġz ondag
Ġkl im
Ġbe per
Ġhier voor
Ġn iveau
b ad
Ġme iden
und ige
ĠT er
Ġpart ner
Ġbre ed
Ġdaar van
Ġrot terdam
g ro
G e
ow nl
Ġp resent
ie m
Ġmot or
Ġinsp ir
Ġfun ction
Ġv oeren
raag d
/ /
amer a
iv id
.. ..
Ġbere iken
ig in
ver zeker
ownl o
et ter
uur d
Ġpart ij
sch rift
Ġb ron
Ġv ac
Ġgeb racht
Ġge ze
be st
Ġ at
Ġm ocht
Ġple zier
Ġzw arte
te gen
ĠH eb
olog ische
i alis
Ġl ive
waar de
arket ing
r et
Ġ201 6
un g
Ġwedst rijd
Ġverk oop
Ġb aby
Ġj a
Ġo ef
Ġvoor waarden
sch erm
Ġst el
Ġcolle ctie
Ġgebe urt
Ġvl ak
Ġged rag
4 0
Ġge sl
Ġpracht ig
kom sten
Ġ antwoord
Ġm erken
ol ie
Ġbesl uit
Ġbed oeld
Ġwaar schijnlijk
Ġverb l
Ġr icht
Ġtoe v
ar ingen
Ġgezond heid
Ġover eenkomst
Ġs al
: //
Ġk onden
vl ak
Ġsch rij
Ġw achten
Ġstr aat
stel de
ist or
Ġbew ust
Ġp sych
y l
at isch
ĠU trecht
an ken
Ġk m
a kt
Ġbep aald
igh t
Ġdat a
Ġwin ter
ĠHier door
ic ro
w iss
Ġz aak
Ġdon ker
Ġin vloed
Ġspec ial
Ġp an
Ġle es
Ġadv is
Ġge plaatst
in c
Ġver vangen
ĠL aat
ot e
o le
Ġre ed
zij de
w it
gen d
ĠF l
ĠB er
in ken
Ġkomen de
m d
ĠN atuur
ell ing
ĠBoven dien
j a
Ġover heid
Ġc ook
inder en
Ġkle ding
Ġhier bij
Ġspeel t
Ġgest eld
Ġcl ub
it ief
ruim te
l oos
Ġzon ne
Ġle g
Ġthe ma
ĠT ijdens
Ġge g
Ġv oelen
pa kt
Ġprodu ctie
E D
Ġz ag
A R
ĠZ ie
dan ks
ĠI tal
Ġu p
Ġst ij
Ġoff ic
Ġvert ellen
Ġf ys
il le
a zen
Ġfinanc iÃ«le
sp l
Ġ2 3
st al
jar ige
Ġv aste
Ġbestaan de
d o
ak el
Ġpubl iek
k aart
Ġfilm pjes
Ġ Ã
ul l
i elen
, -
der ing
Ġb ar
Ġger icht
ot o
n ers
ot te
oth eek
re gel
Ġzw art
hou s
spra ken
bl ijven
ĠC or
Ġbouw en
Ġbe stellen
Ġste v
Ġleer lingen
ac eb
Ġuiter aard
Ġheer lijke
ruct uur
ie mand
ĠT wee
Ġzw aar
Ġin v
Ġru g
age ment
Ġzie ken
a ro
oe st
oe kt
Ġker st
Ġcon st
ĠP r
Ġdire cte
s ysteem
Ġh a
Ġind ivid
Ġm ass
Ġgek ozen
n st
Ġge komen
ĠJ oh
Ġdag elijks
Ġont sp
ĠH el
Ġvoor bij
Ġwit te
Ġgel uid
Ġstap pen
ivers iteit
aar ten
em ent
Ġop genomen
Ġt ro
Ġstr and
Ġbe kende
ug ust
Ġv ij
Ġter mijn
won ers
Ġom a
Ġm eld
Ġvol gt
Ġs ele
Ġw onen
ĠNederland s
ĠV eel
Ġvoor beeld
ste men
6 0
Ġkant oor
Ġal l
Ġb ak
ĠC ent
Ġjul i
Ġbet aal
ĠBelg iÃ«
av or
D aar
Ġw ind
ie ur
Ġgebruik ers
Ġbezoek ers
1 4
Ġa s
Ġou dere
Ġnet werk
Ġlekker e
Ġre sp
Ġte mper
Ġbep alen
Ġaf hankelijk
Ġcont role
o ze
Ġf ant
Ġmater ialen
at ische
Ġverwij deren
Ġr aad
sluit ing
in dt
ree f
Ġd ub
Ġresult aten
Ġziek te
ort iment
Ġa mateur
Ġtrain ing
Ġ6 0
Ġde ed
ui den
Ġvoor af
ffen de
Ġse c
Z o
Ġcent rum
act ies
2 5
Ġp e
en k
te el
de k
Ġgen er
i ste
Ġgoed kop
ĠFran k
ast ic
Ġte st
Ġje ugd
he en
Ġgesch iedenis
Ġt oer
ik s
Ġtran s
Ġkw amen
Ġover een
be elden
Ġtre kken
aceb ook
Ġra d
Ġveroor z
Ġbeg on
Ġvor ige
Ġkl achten
Ġduur zaam
ut ie
Ġregel s
Ġk at
it el
Ġonder nem
Ġneg er
spro ken
Ġstuden ten
woord ig
Ġe et
Ġlief st
ĠG een
g l
Ġpre st
Ġwaar onder
Ġnood zak
Ġt ype
Ġim p
hou der
Ġbeh eer
oed ing
ar ten
du st
id ingen
Ġs k
Ġim mers
Ġbe stelling
u eel
h ode
Ġdetail s
Ġw ar
Ġk e
Ġspra ke
b ang
og elijke
Ġm m
ĠOm dat
ran k
Ġpol it
ĠN aast
Ġuitvoer ing
ac e
z ingen
Ġdie p
Ġverantwoord elijk
Ġvrij dag
Ġverbet eren
E L
Ġst uren
Ġn ot
Ġ #
ĠK amer
k ast
Ġonder delen
v ast
ge z
Ġre gen
1 3
ip pen
ks hop
d us
Ġonder houd
Ġspecif ieke
Ġp unten
Ġ201 5
Ġmoe ite
Ġdo chter
Ġs hemale
Ġdaar door
Ġvert rouwen
ar ie
an e
Ġte vens
el le
Ġvoor bere
Ġgel oof
Ġcom pl
ĠN et
u c
Ġdes ign
Ġver zoek
ras sen
Ġt ieten
ver ing
iet e
Ġent hous
Ġd erg
Ġass ortiment
Ġgeze gd
Ġbed oel
Ġp akk
ers e
Ġh ang
Ġvr oe
Ġmoder ne
h uizen
ander s
Ġverd w
Ġpriv acy
Ġf avor
ĠIn dien
Ġbere ik
Ġind ruk
ĠBe kijk
Ġar ch
ĠC on
Ġverh alen
ara kt
an ce
Ġbe veil
Ġperson eel
ĠT ot
ĠM in
te ken
Ġt antra
ett ing
u ff
l y
cent rum
Ġl ink
ad res
ugust us
ĠT och
zen d
Ġw ist
d aan
s n
Ġs ites
e cten
Ġl ijn
Ġdaar voor
in en
o se
ĠH aag
Ġjong eren
Ġkl ass
Ġher ken
Ġpro vinc
W anneer
Ġv al
Ġk ent
ris is
Ġv ocht
f er
Ġb aan
Ġor igin
Ġgew en
m on
hou ding
h oek
our n
d ragen
g baar
Ġdigit ale
vr iend
am b
w et
Ġ2 8
Ġte gelijk
Ġd oos
Ġsp reken
Ġn amen
Ġste un
Ġvoor deel
ĠC O
ĠOn t
p an
Ġinf o
ĠH eer
p rijs
aa i
in ter
Ġarbe ids
ĠVer der
geb ruik
ĠE rotische
Ġgez et
re pen
r ent
ĠG eb
Ġbep erk
Ġac count
der land
Ġperf ecte
ĠâĢ ŀ
o ont
Ġj ur
Ġg ast
ĠAmerik aanse
Ġbuiten land
Ġgele verd
Ġkil om
Ġontwikk eld
ond s
Ġa bs
Ġpro jecten
Ġvrij will
Ġw acht
Ġn ame
ĠO r
Ġo lie
ro m
Ġbet rekking
Ġwee kend
Ġvraag t
Ġbl auw
Ġin nov
Ġ ang
Ġwerkzaam heden
Ġop er
Ġl ag
k ort
z itter
Ġd ou
ĠIn d
Ġal gemene
ert ific
Ġvoor n
Ġt r
am s
ĠH aar
Ġre actie
ĠW ie
Ġbel asting
k racht
Ġvl ucht
Ġ2 7
Ġover al
Ġaangeb oden
ouw en
am pen
Ġin clusief
Ġsl uiten
b ru
ĠG en
Ġmax imaal
ĠC ar
Ġn oord
is schien
un st
Ġt ab
Ġbet rouw
Ġ +
le ggen
Ġgesch reven
est iv
stand ig
ĠS amen
Ġh tt
Ġn ou
Ġvol g
Ġpl anten
derd aad
Ġen e
Ġz acht
ol d
hou t
Ġtev reden
Ġuit dag
at s
gem aakt
Ġvers ie
ĠV eren
Ġcas ino
ĠWe st
gen aam
Ġover tu
igen s
Ġm ogelijke
Ġd ier
ij t
herap ie
Ġet c
ink els
ĠT oen
Ġwarm te
Ġprofession ele
ma chine
Ġverb and
wor pen
ð Ł
Ġverk eer
Ġcult uur
Ġble ek
Ġorganis aties
Ġf r
Ġro ute
On ze
le ur
ĠS c
Ġk arakt
Ġbet ere
m eer
Ġcomple et
Ġgel ukkig
Ġwor d
ĠI eder
E T
Ġge ef
âĢ¦ ]
ve en
aag d
wik kel
Ġbe oord
Ġbesch ikt
ij me
' .
ra st
Ġgeb oren
S T
Ġa ugustus
Ġop per
Ġondersteun ing
u ig
Ġhand ig
Ġuitgebre id
Ġgevol gen
Ġschil der
am a
Ġw ww
Ġb ood
Ġvak er
ijme gen
Ġverk open
Ġenorm e
Ġle sb
omen teel
ke ken
Ġsch er
ĠCh rist
p je
Ġlie ver
Ġvert elt
Ġs oftware
Ġreed s
Ġhel aas
Ġs er
Ġuitv oeren
Ġe il
Ġlever t
m ogelijk
Ġgek regen
Ġartik elen
Ġgev aar
Ġsn eller
p ark
Ġbeg onnen
in kt
bl ad
Ġcommun icatie
Ġin iti
ĠA c
s dag
Ġgroe ien
" ,
r oep
Ġgro en
Ġh oeren
el and
p unten
es l
Ġ2 6
oor n
eder l
Ġlin ks
Ġst at
elijk se
Ġpl ant
re kt
Ġk oel
Ġge est
Ġcomp uter
Ġkut jes
Ġintern ationale
ou de
ader ing
8 0
ĠA ut
Ġapp arte
Ġwerk ing
den ken
Ġzo on
h oog
ver l
Ġonder sche
Ġtri o
o ond
Ġvoor delen
Ġn oemen
ic s
Ġm acht
Ġver dien
Ġpij pen
b y
ĠA pp
Ġweb cam
Ġsp uiten
Ġv ari
Ġcook ies
Ġ ?
ĠP er
b aan
Ġuit str
A f
ĠG em
k ers
is h
Ġpl annen
Ġpat iÃ«nten
Ġc ade
oe i
Ġboven dien
ation aal
r im
Ġin dust
on a
ĠZ elf
m aar
Ġ it
ĠP a
ĠS u
st offen
ĠEn gel
ĠM ed
Ġ201 4
Ġc amera
Ġf lex
s er
Ġaan zien
qu e
ist r
Ġm ar
Ġvre em
t ussen
Ġlu xe
Ġverm eld
k n
Ġgez in
Ġverb onden
plaat sen
Ġruim e
ĠG a
Ġjaar lijk
le ment
du c
ĠP h
Ġg af
Ġdeel nemers
Ġhel ft
ple eg
Ġver len
ik e
Ġro de
Ġstud ie
re erd
Ġrond om
schrij ving
k an
Ġduur zame
Ġn iemand
Ġadvert enties
Ġd ownlo
Ġre chter
Ġnorm aal
Ġont b
ĠB ar
mee ster
Ġom standigheden
ĠVol gens
Ġo l
B en
er st
ro on
y t
Ġco ach
s id
Ġsterk e
c in
Ġbad kamer
Ġmil ieu
v aart
Ġden kt
ĠIn st
Ġged urende
Ġsl uit
Ġnad at
age s
n iet
ĠE U
ĠZ org
2 00
Ġdank zij
gen t
ĠS int
p os
Ġmin ister
Ġle ef
Ġv it
Ġpl astic
l et
Ġer nst
we st
Ġnat te
Ġverkrij gbaar
Ġc irc
R O
v ak
Ġc ond
Ġsl ot
Ġ[ âĢ¦]
Ġin zet
r ichting
ver k
Ġb ot
oc ol
Ġop nemen
ĠB o
or n
Ġst rijd
Ġwor kshop
Ġgeh ele
Ġverander en
Ġver f
Ġge de
g ere
Ġon af
Ġh oort
Ġm arketing
Ġv est
Ġfijn e
win kel
Ġaanv raag
oef te
Ġge c
Ġe mot
or st
pro gramma
Ġd u
Ġl iter
om in
Ġal tern
Ġcurs us
Ġer op
ren d
Ġbe elden
vis ie
Ġhou ten
Ġuit zicht
Ġtoe stemming
Ġpart ic
Ġgro ene
Ġfab rik
ak ker
ater iaal
Ġbro od
Ġpor n
Ġver lie
gaan de
Ġk amp
Ġfiet sen
od ige
Ġten zij
Ġrij pe
g te
d ro
Ġp en
ce du
Ġgroter e
Ġbew on
a i
Ġgebe uren
p ress
Ġsm art
Ġin derdaad
Ġ ident
Ġge gaan
Ġle iding
oe ven
Ġautom atisch
Ġst room
un ch
Ġprovinc ie
ul ling
in er
Ġbor sten
n aar
Ġo ut
ga ve
inc ip
ijn t
Ġn iks
Ġg ingen
re st
Ġinter ieur
Ġkarakt er
Ġbescherm ing
A n
Ġv e
b and
sch ak
Ġz ul
Ġw ijk
Ġmaand ag
Ġbez oeken
ĠVl aam
Ġin woners
Ġz ult
Ġre ger
ĠT ra
Ġnoodzak elijk
onder dag
as eerd
z w
Ġhier van
Ġaan m
Ġw ett
Ġbeh ulp
ge geven
Ġh istor
Ġhier onder
ĠK on
Ġonder nemers
Ġbeper kt
ĠcreÃ« ren
Ġf ree
ĠS m
H eb
Ġsl im
Ġdro og
Ġc ategorie
oen sdag
Ġad min
Ġs ol
i eld
Ġge vest
Ġover l
ur f
ĠC omm
Ġmeester es
in ess
Ġbr ief
ĠG ron
Ġk ader
O R
H ier
Ġh onden
Ġn am
ade m
o ster
Ġb uur
Ġwebs ites
Ġt ha
Ġer gens
Ġver e
beh eer
i ot
m od
Ġf ruit
ĠDuit sland
ĠH er
Ġvoed sel
Ġra pport
Ġdetail handel
deel te
Ġide aal
ste en
Ġg asten
M ijn
e eld
is se
and aag
Ġwebs hop
Ġr ele
r ic
Ġe isen
ar ch
Ġdien en
x t
ou ten
Ġlast ig
Ġvoed ing
n og
um mers
oe id
f un
7 0
Ġd w
ĠDen k
Ġtechn ische
Ġt ent
al ist
Ġgang bang
Ġze ven
S ex
Ġs ens
es se
V ol
Ġvoor uit
Ġoor log
2 4
ĠW er
Ġger ust
ĠVan af
Ġon gel
re en
Ġvrij blijven
Ġpr ett
Ġbele id
v allen
Ġ8 0
Ġorganis eren
Ġklim aat
n hem
ĠNe w
Ġzw anger
Ġp ad
ver m
Ġerv aringen
Ġter ras
Ġi P
Ġgroe i
Ġver leden
Ġsex film
Ġvle es
Ġr en
Ġver spre
Ġf ra
Ġf ris
estiv al
Ġw ens
i us
Ġwar me
ĠV rouw
Ġvrij e
Ġbeh oor
Ġor de
Ġge sloten
ik te
ast er
rijk e
ĠT w
Ġe ss
ĠT en
Ġeff ic
Ġtechn ologie
ow n
ĠF acebook
Ġtemper atuur
Ġg as
Ġv uur
Ġuitstr aling
Ġgev raagd
Ġflex ib
ul eren
ijf ers
Ġ2 9
eer den
Ġwe der
a w
ĠC om
Ġwel kom
Ġverm ogen
Ġderg elijke
Ġsp annen
ĠK ijk
Ġge il
le ving
co de
c omm
Ġro od
zen ding
n es
Ġopt ie
sluiten d
Ġgew icht
ĠH ar
A T
acht off
Ġeventu ele
Ġv og
Ġd acht
Ġaan ra
g aat
st ra
Ġp akken
Ġ19 8
Ġkw art
Ġp ort
Ġverw achten
or iteit
in ner
Ġpriv Ã©
Ġeventu eel
Ġin tens
Ġv ar
Ġal len
on ie
Ã ¡
Ġwaar d
Ġh yp
Ġ *
t ie
Ġr et
Ġin form
m men
l ijst
Ġv en
Ġu trecht
A L
Ġbesl oten
vin den
mer ken
Ġpark eer
Ġal dus
Ġ aarde
elen de
Ġkilom eter
Ġweten schapp
Ġp ens
Ġv et
Ġpositie ve
Ġste den
Ġbesl iss
Ġst ra
Ġhoeveel heid
me de
aat s
Ġ201 3
u x
Ġspel ers
te gr
rie sland
Ġman ieren
Ġsnel le
Ġmod ellen
Ġgesp ec
Ġgez onde
Ġbeweg ing
T ijdens
Ġ ij
ge zet
" .
Ġh om
Ġge f
Ġgoed koop
4 5
p pen
we kken
Ġh onder
Ġst arten
Ġaf beeld
w ijd
Ġplat form
w at
Ġre cept
Ġdr inken
Ġover leg
ĠC ont
ĠD ank
Ġt rot
Ġb ode
Ġbet aling
Ġst im
Ġw iss
er tijd
Ġvoet bal
aan deren
Ġgr oningen
ill a
be urt
Ġt oet
Ġoploss ingen
2 2
p agina
Ġa ft
Ġbesch ermen
- ,
Ġe d
Ġc a
ĠDuit se
op p
Ġd aad
Ġbl oemen
Ġpre m
Ġide ale
Ġgere cht
C H
Ġrust ig
Ġstr ateg
Ġa sp
Ġelektr ische
on es
Ġ !
Ġwerk nemers
Ġmen ing
Ġre par
it ten
u ze
ins dag
Ġabs ol
v aard
ree ks
Ġgroe pen
ĠR aad
Ġl iet
Ġl age
oi res
Ġm ult
ĠI I
Ġsh ow
ĠIn ter
Ġw innen
Ġ3 5
Ġinst ru
oud ige
Ġzicht baar
Ġre izen
Ġonder werp
y se
Ġgeb aseerd
d om
ou den
ud get
Ġ ðŁ
Ġkie st
Ġaanbied ing
k amers
Ġstuk je
oo ien
pro ces
Ġenthous i
Ġh oek
Ġgemidd elde
Ġt ijden
ve ster
st ijl
Ġsim pel
Ġp od
Ġverk ocht
Ġg oe
Ġontde kken
re et
Ġprodu c
s sen
e iden
Ġdat um
Ġjon gens
ir l
Ġst uur
Ġcent raal
il et
Ġb erg
Ġont worpen
Ġbet aald
Ġr onde
Ġaan be
Ġzieken huis
al le
Ġang st
Ġverb eter
G r
Ġra den
ber t
Ġpr aten
ir t
Ġdoor dat
ri v
Ġwel k
Ġcont rol
Ġg oud
Ġopt reden
bo x
Ġs et
A M
ĠQ u
ĠAlle en
waard ige
Ġaf le
Ġuitgebre ide
i ders
Ġvergelijk en
Ġwin st
Ġtrad ition
Ġzo ver
. ,
Ġidee Ã«n
I D
A an
O S
Ġz oo
Ġbegrij pen
s be
Ġvoor raad
Al le
Ġachter grond
Ġbij dra
m el
z us
Ġm uur
Ġfant ast
Ġbijdra ge
Ġbewon ers
Ġgezell ig
Ġtoe gev
Ġsch reef
aan s
Ġerot isch
O N
aa ien
anc ier
Ġgew erkt
ĠL and
Ġh uw
E S
Ġvoor l
stuk ken
Ġp ak
tegen woord
open d
Ġt v
Ġverg eten
ar den
ver g
y c
i aanse
Ġtegen woordig
u res
Ġaanp ak
ag ne
ru st
ĠM on
Ġbegele iding
Ġl etter
Ġeigen aar
Ġbeh oefte
ĠM aak
n eem
ĠN ederl
ess oires
ran den
ĠB innen
Ġuit zonder
oor te
Ġcor re
Ã¨ re
Ġk wij
cl ub
pl an
Ġaant rek
ru kt
Ġst ress
verlen ing
Ġprof iel
Ã³ Ã³
g ist
en n
am mer
Ġbetre ffende
Ġt itel
ust r
Ġoef en
Ġover w
9 0
I S
sch reven
Ġver vol
Ġadv oc
Ġop zicht
Ġc ap
ite ct
b um
ĠG l
Ġen erg
On der
Ġverk oper
Ġkun sten
Ġsch erm
Ġbev indt
ĠH olland
Ġdraag t
elen d
ct ief
Ġonder zoeken
Ġ201 2
i pl
te chn
ĠDaar na
Ġgespec ialis
ĠP ol
g ra
Ġbel len
Ġvert rouw
Ġs ign
w acht
Ġt wijf
Ġjon gen
O ver
Ġgebouw d
Ġbe vol
Ġhoog ste
Ġle idt
Ġst oppen
Ġinteress ant
Ġer f
ĠW or
Ġbeh oe
Ġw oningen
Ġz en
Ġb oot
Ġont staat
Ġre aliseren
Ġk ab
pl ic
Ġwel licht
Ġgel derland
Ġtien er
Ġgevest igd
z a
ĠFrank rijk
hou dt
gele gen
Ġpr incip
Ġpap ier
Ġopt imaal
Ġk rit
Ġ7 0
v ies
Ġu ren
Ġen z
Ġgel den
te st
at ter
Ġme ub
man s
ww w
Ġst rak
un ning
Ġker n
Ġmin imaal
Ġaf spraken
Ġv eld
ĠP rive
' ,
Ġle ert
Ġreger ing
r ingen
ree p
ieuw d
Ġvor ig
A S
9 5
Ġn ab
im um
Ġter rein
ĠSp ort
ĠC o
Ġcont in
Ġm aal
Ġpolitie ke
ograf ie
Ġge organis
ĠM isschien
raag t
ĠâĢ Ķ
ĠV ia
zetten d
spra kelijk
ĠBelg ische
Ġex tre
al ingen
Ġmidd elen
be g
Ġver voer
ĠK ort
Ġm omenteel
Ġing red
ic i
Ġf ac
ĠB ed
Ġt el
Ġk ast
gen e
Ġeil and
Ġde b
ĠG er
acht ig
Ġde m
v uldig
b ers
p ut
ĠSt ichting
Ġfavor iete
B O
Ġver ster
Ġgeweld ig
Ġver nieuw
Ġsch olen
Ġple kken
Ġa bon
red a
Ġvoed ings
Ġpij p
Ġt oon
Â °
Ġgelegen heid
ĠA m
Ġaan koop
Ġtoe g
Ġverbl ijf
ĠW et
ĠO ost
Ġmoe sten
Ġhar de
Ġfl ink
Ġbode m
Ġar m
Ġr and
Ġsch rift
onder zoek
ge vers
bed rijven
Ġpakk et
Ġf oc
Ġsamen leving
Ġbl oem
ĠGeb ruik
Ġkop p
e den
ĠPa ul
Ġd onderdag
ĠNatuur lijk
Ġkwij t
ran s
Ġdaar naast
h el
Ġst raf
racht en
Ġvriend in
Ġpopul air
ĠGron ingen
Ġh angen
il burg
o wer
Ġsub sid
Ġver le
or s
Ġver werkt
Ġop merk
Ġw oensdag
Ġun iek
Ġontsp annen
d oet
w arm
Ġmed ic
uw e
W aar
ig ings
Ġcont ract
Ġhe et
Ġvol k
ĠC an
ha ven
ge s
Ġoffer te
Ġdag elijkse
I T
Ġa ute
Ġsex y
Ġover igens
S p
Ġbl ad
wer eld
Ġtegen over
E l
Ġzwem bad
Ġ9 0
Ġl ab
Ġneger in
ud io
k ap
r aaf
ij e
ch ines
dat um
Ġpr oef
Ġvroe ger
m aak
Ġsex contact
Ġnederland se
Ġgeme enten
Ġze g
st ers
m ere
C T
Ġconc ur
Ġw inkels
ur a
ch en
Ġgeweld ige
Ġ3 1
n ess
ic it
Ġk ijkt
ĠDaar bij
Ġd re
Ġpos itief
r el
Ġfabrik ant
Ġpolit iek
Ã« l
Ġadvert entie
v at
Ġverb inding
Ġondersteun en
Ġver j
Ġhang t
ui f
app y
ĠH and
Ġrecht en
ĠBru ssel
Ġonder nemer
Ġh aag
ĠK le
in ten
Ġs oep
sch rijven
verzeker ing
Ġbl ok
ĠZo als
2 3
Ġhoe f
sche de
r and
aar den
Ġhier mee
ĠB rit
re m
ie gel
r ichten
Ġkre gen
b ak
Ġtrot s
Ġwerk gever
. )
Ġals of
g ers
Ġont zettend
h ang
Ġbeg rip
pers oon
ru kken
Ġver werken
Ġz and
Ġgewen ste
et ers
Ġm ont
Ġbed ien
ge en
Ġopen baar
Ġescort s
ri b
Ġvrij wel
e ks
Ġgesp roken
Ġgezell ige
ad igd
ĠFran se
Ġsch ad
Ġaan sch
Ġst offen
al k
Ġkw al
Ġontwikkel ingen
Ġt yp
Ġin vester
al m
Ġsu ik
Ġb o
Ġg raf
ĠL a
f eest
Ġvoor keur
er ij
kun de
Ġhou d
Ġverg ro
der t
em enten
Ġdisc uss
Ġd room
ap an
Ġb ord
Ġf out
h eer
Ġreden en
ĠH uis
Ġt onen
Ġvrij heid
Ġsmart ph
P ro
Ġondernem ing
sp ec
in ke
Ġbere ikt
ge komen
Ġvoet en
d in
Ġdaar in
f r
bele id
Ġexper t
Ġsl achtoff
ver h
Ġgen iet
Ġorigin ele
Ġb oer
a deren
S ch
N aast
ĠK om
ĠTwee de
Ġst op
t on
l d
Ġder den
ĠSt aten
hal ve
h aald
Ġover leden
m ond
Ġd uizen
b oven
Ġde sk
Ġt on
Ġvrijblijven d
ĠR eg
ac te
Ġgr ens
ĠS n
mer c
du id
Ġtechn iek
Ġn odige
ĠâĢ ¢
9 9
Ġvoorn amelijk
h y
Ġmob iele
res ident
d ie
Ġf les
Ġse ctor
ĠI J
le es
and id
Ġb ier
Ġgoedkop e
Ġopper vlak
c el
Ġaan get
Ġaan sprakelijk
Ġappar aat
Ġverz orgen
Ġeen maal
Ġe i
Ġ19 7
ĠJe zus
b ureau
Ġhel der
Ġh ot
Ġst een
Ġsch oenen
iet er
Ġtot ale
Ġb oom
Ġs ier
mer kt
Ġk ont
Ġm ate
Ġk amers
Ġvrijwill igers
Ġles sen
Ġbl ik
ĠO pen
Z e
ĠD el
Ġinstall atie
g ar
Ġge deelte
ĠE ind
Ġmet hode
Ġop gericht
Ġbez org
l ijnen
oo ie
Ġgar antie
lo ze
Ġaan leiding
Ġnieuw ste
doen de
Ġn ag
ide o
Ġiniti atief
em a
Ġsoc ial
Ġuitdag ing
um in
ĠS oms
Ġd insdag
Ġpens ioen
mal ige
6 5
Ġm as
Ġvlie gt
ĠP ers
ĠEl ke
ĠV r
ĠAr t
at ing
Ġw int
Ġt and
Ġble ef
n aam
âĢ ĭ
Ã© l
int ig
bren gen
Ġwaar voor
Ġmidd ag
ĠGel ukkig
Ġhtt ps
ĠAl les
ĠM ich
z aken
Ġge ur
ĠM il
ĠB ra
oor de
ble men
Ġin c
in f
Ġgere geld
Ġ4 5
ĠNieuw e
Ġbe houden
Ġth ee
Ġ201 0
Ġaf val
Ġb on
Ġonder staande
R e
as is
ĠWer eld
Ġsn eeuw
ess ie
Ġw h
Ġin vest
Ġh uren
Ġpat iÃ«nt
il ver
ĠGro te
ĠC ol
Ġuitste kende
Ġv oren
Ġvoer tu
acht ige
p ten
Ġeer lijk
k undige
ocht en
kt en
m is
Ġdraa ien
ĠM ag
Ġres er
ĠU w
3 5
der ij
Ġveroorz aakt
p ot
y m
Ġuit sluitend
Ġged achten
Ġ >
rik a
Ġschrij ft
Ġher inner
it te
Ġgez amen
ge sp
Ġer bij
Ġ201 1
ri Ã«
Ġont bij
ĠJ a
ĠR ijk
Ġgere gist
Ġd uurt
Gr atis
Ġdownlo aden
r iek
co hol
Ġverl oren
ĠK an
Ġm elk
ol atie
Ġvan zelf
h of
Ġgemidd eld
wij z
Ġdoc ument
i ct
Ġwand el
sch uw
ĠM er
Ġgeb oorte
Ġbor st
Ġveren iging
Ġart s
os sen
wij ze
Ġb y
Ġw are
T e
or k
Ġver tegenwoord
U it
yn am
i h
Ġk eur
Ġmed ische
ation al
Ġl a
Ġst ab
Ġme zelf
Ġb rabant
Ġst ro
Ġcombin eren
ken nen
hand eling
Ġ ;
J a
e ut
Ġgeorganis eerd
ĠP ark
Ġbez it
Ġqu a
Ġmassage s
ow s
Ġz achte
Ġbe wegen
h one
Ġverh oog
Ġstuk ken
g o
ĠWaar om
an kt
el oos
Ġbesch ouw
Ġv aard
Ġveil ige
c m
Ġcompl ete
st reeks
Â ®
ou der
Ġhog ere
ĠIs ra
p ol
in et
cedu re
Ġzw are
es p
Ġto ilet
nem ent
Ġa dem
cht end
Ġhier door
g de
Ġk ies
Ġk eren
v raag
Ġbur ger
Ġle eg
ĠKl ik
Ġsele ctie
Ġuit ger
al d
Ġopdracht gever
Ġb omen
Ġgra den
ac iteit
ru c
rim in
Ġfun cties
Ġr it
ker ing
alis eerd
Ġb udget
ĠS inds
Ġzo genaam
Ġzo et
Ġ5 00
o un
p assen
Ġon danks
op l
ur ele
k te
Ġred elijk
ij ssel
aut o
kle ur
ĠP art
m ed
Ġsle ut
Ġeenv oudige
ĠW h
Ġg ay
ĠF in
wij zen
Ġsoc iaal
ĠL eu
Ġm orgen
Ġeind hoven
w en
mat ige
Ġl ijken
ĠM art
ĠSt aat
Ġle gt
Ġc ijfers
Ġh eren
Ġdr aad
im s
Ġingred iÃ«nten
Ġtre in
ĠV rouwen
g ie
ĠS oc
Ġresp ect
Ġgebruik te
Ġlicht e
ĠE ven
elt jes
Ã¶ r
. '
al a
ran je
Ġklass ieke
Ġaf komst
Ġl ager
Ġover ige
Ġl unch
Ġm icro
Ġte mp
b ar
Ġme et
Ġpart ners
Ġverw arm
Ġin komen
ien s
Ġaanb ieden
olog isch
Ġr iv
Ġhe den
Ġb ang
hou ders
ist erie
Ġsl apen
Ġadvis eren
om a
Ġav ont
Ġh uizen
Ġv irus
Ġk or
Ġgek ocht
Ġn oem
ele ct
Ġaanv ragen
Ġaange past
ber gen
ĠW ater
Ġvoor zitter
Ġbeste md
Ġacc essoires
Ġaange geven
Ġbal ans
Ġbe ffen
app ar
Ġsp ullen
Ġcomp et
ulier e
Ġre acties
Ġv ullen
Ġgr en
ag eren
C h
Ġdaar op
Ġcoron a
I J
ĠK ies
Ġd is
Ġrecht bank
Ġverl ies
af Ã©
Ġd rank
ĠU S
Ġeind elijk
Ġo chtend
an je
Ġuit leg
Ġbesch rij
Ġgev angen
sl aan
Ġdaad werk
6 6
Ġde uren
aard ag
Ġkort ing
alis atie
Ġzom aar
Ġbest and
an a
Ġlen gte
am ine
Ġaange zien
Ġgoe deren
ome in
ĠH oog
ĠE d
ĠA b
ank elijke
Ġver pakt
N u
y e
Ġver de
A r
oo st
voer ing
umin ium
pl ant
midd ag
Ġtradition ele
Ġindivid uele
entie el
ann e
ru ctie
Ġneu k
ĠP e
Ġw agen
Ġh ers
Ġt oel
ĠS y
ont wikkel
ĠVoor al
gebouw d
Ġcon cept
ow el
Ġont werpen
Ġbeschik king
Ġbere id
am ent
ĠDank zij
ĠD r
Ġsnel heid
Ġbev atten
Ġimp act
Ġh aal
vl oer
Ã³Ã³ r
Ġvoor beelden
Ġvac at
Ġver rassen
z i
Ġbeschik ken
Ġpass ie
ĠKon ink
2 7
Ġv ro
re is
ĠE scort
og ing
s d
ĠHier bij
Ġinspir atie
Ġtrouw ens
Ġher stel
Ġverander ing
o ken
Ġstem men
D A
Ġkan sen
Ġra ken
Ġapparte ment
Ġn aakt
b i
Ġprive ontvangst
ĠE er
Ġk oning
z ocht
it air
h oe
ĠDe s
ĠHoe wel
Ġto ol
elt je
Ġgeme ent
Ġnauw elijks
Ġt aak
pro f
Ġ =
zo als
Ġa b
Ġbeteken is
Ġn aakte
Ġgel uk
Ġdoor gaan
Ġsch rijf
ĠG oed
Ġdat ings
Ġcont ent
Ġt rek
ft en
apt op
Ġn ummers
gele verd
Ġge con
Ġverk ie
ĠT op
ĠA ir
ĠVlaam se
ad at
Ġtre kt
ĠK n
Ġpubl ic
Ġmakkelijk er
Ġl as
Ġge com
Ġp and
Ġonder werpen
sp ar
Ġre view
Ġbehoor lijk
re erde
z ers
Ġen ig
c or
ĠWil lem
geb racht
I s
ant ies
Ġin stellingen
ui ven
ran che
ob by
L e
i que
ĠK oop
Ġspecial ist
Ġrel atief
ĠP ort
w and
ad s
ĠS k
Ġconcur r
urg ers
Ġonder houden
Ġaf deling
ĠN euken
ĠM assage
ĠV rij
un a
Ġeconom ische
kle ding
Ġinge zet
Ġverd iep
Ġdirecte ur
Ġsp reekt
daag se
Ġtoeg ankelijk
ou s
ĠK e
Ġlever ing
Ġtran sport
Ġgew one
ĠB uiten
u ste
ce pten
atie ven
iÃ« ren
ra an
Ġd oelen
form ulier
Ġbre de
it aire
Ġdraa it
l aag
u f
ĠM o
ĠUit er
Ġopt ies
act iviteit
te g
f il
Ġvorm t
lang s
ĠB et
Ġhand ige
Ġnorm ale
ol oog
Ġuiter lijk
Ġwe st
Ġreken en
Ġr ichten
Ġuit bre
Ġg ram
Ġbevol king
Ġg od
Ġcamp ing
y le
Ġbe stel
ubl ic
v oet
p at
Ġs ing
ol pen
Ġgesp eeld
Ġwoon kamer
Ġwe gen
Ġd el
ĠOn line
Ġgesl acht
u kt
Ġzou t
ent iÃ«le
sch il
Ġeven ement
Ġvis ie
Ġin tegr
Ġaf d
Ġhuw elijk
Ġgen ees
pen s
Ġtoegev oegd
Ġverantwoord elijkheid
Ġprakt ische
Ġuit st
le ed
ion ele
ĠB est
Ġben eden
l ig
Ġd ing
Ġge opend
Ġeconom ie
Ġprett ig
2 8
b ron
E O
Ġgen e
Ġte sten
zijd s
Ġv ru
ĠCh ina
Ġterug k
uz iek
be scherm
ĠV aak
Ġcomfort abel
ĠN og
Ġe sc
erv ic
Ġh open
ge meester
Ġhistor ische
u gen
Ġerot iek
Ġs yn
Ġver werking
ou ch
Ġn ijmegen
ĠW erk
Ġpopul aire
Ġm ix
Ġh um
Ġbeste mming
Ġmob iel
Ġverm inder
Ġindust rie
ĠP as
ĠO l
Ġu l
Ġinter esse
Ġm y
Ġland schap
ĠL et
ĠB re
Ġre cl
Ġz ol
ĠAl l
ĠSu per
Ġreg elen
Ġmom enten
Ġkl as
ĠH eeft
Ġgele id
Ġduid elijke
E M
al er
Ġcontact en
kw aliteit
ruk te
Ġv ent
b ack
ĠVer volgens
Ġg aten
a ffen
bo om
Ġbeh oren
Ġo ven
Ġgevol gd
Ġopt im
i at
Ġg ame
K l
a ven
Ġin gericht
ĠLe kker
Ġgespecialis eerd
Ġma chine
Ġn ationale
Ġcom merc
Ġm useum
ik el
Ġa kk
ot t
att ing
Ġdou che
Ġ200 9
Ġnog al
Ġaan gev
Ġal cohol
Ġpr int
f oon
ro w
ĠA p
Ġinter view
Ġ ann
Ġlang zaam
Ġsitu aties
ief de
7 5
aast richt
ar ief
Ġver dere
Ġl ied
Ġl at
2 6
Ġneu kt
Ġp ub
Ġne us
ver de
Ġopv allen
Ġd un
Ġk ook
Ġgeb ieden
Ġeigen schappen
Ġlesb ische
b us
Ġal bum
Ġaanv ullen
Ġop a
gr oepen
gev oel
waard ig
Ġc it
Ġslecht e
ag ram
Ġko ol
Ġlu isteren
Ġaf w
) :
Ġhoe ven
ĠZ od
organis atie
Ġre ageren
âĢ ĵ
ĠUiter aard
Ġal vast
Ġre in
Ġeffect ief
Ġst ructuur
k amp
ieu ze
hou ds
Ġge Ã¯
Ġb ureau
w ar
Ġgebouw en
Ġoor zaak
Ġvolwassen en
we dst
Ġsy mb
Ġgebruik er
veren iging
Ġdan s
Ġtek sten
Ġdefin ities
Ġbehand eld
Ġst ation
Ġeven eens
Ġontmoet en
Ġbere ken
it h
it or
om geving
Ġber ichten
Ġk andid
Ġkl inkt
Ġbesp reken
ĠP eter
Ġver vang
Ġuitste kend
ron ische
el aar
Ġre f
Ġvier de
Ġopen ing
Ġer uit
aan b
Ġhet e
Ġverj aardag
sten s
ĠJ ac
Ġv iel
Ġoor deel
on k
Ġsp oor
Ġsmartph one
I V
ĠR ob
Ġgel oven
Ġro b
ste m
Ġsp oed
Ġm een
Ġkl us
uw en
f oort
Ġmil f
H ij
Ġz ui
Ġaange sloten
re am
ro ffen
Ġb atter
in ing
Ġnab ij
Ġtelef on
pakk et
ĠgeÃ¯n ter
im mer
Ġf re
Vol gens
Ġopen bare
ur u
Ġt aken
Ġre eks
Ġuit spraak
Ġpijp beurt
Ġbev or
g if
ge stelde
m ateriaal
N ederland
Ġeven ementen
Ġmedewerk er
Ġtegelijk ertijd
Ġk ust
Ġf ig
Ġving eren
Ġvij ft
Ġp aard
Ġcent rale
Ġb oeren
u y
m aakt
Ġac cept
ĠJ apan
dien sten
Ġmuz ik
Ġzogenaam de
Ġ ijs
Ġm aten
ri pt
ĠL imburg
Ġarch itect
Ġch em
Ġon middel
Ġ200 8
Ġverl ichting
Ġl aptop
Ġchat ten
ion s
T he
Ġk aarten
Ġgebruik s
ro k
Ġcomple x
Ġele menten
Ġwe zen
Ġwett elijke
mak er
Ġd ame
Ġtoev oegen
Ġst oel
Ġstev ig
acht er
Ġprincip e
4 4
u be
ĠOn s
ĠAnt werpen
z on
ĠM ocht
Ġbe wijs
v rouwen
oor log
Ġle ek
E G
ip p
Ġbij dragen
Ġt ap
Ġ7 5
Ġontbij t
bren g
Ġsl aan
b ruik
t el
Ġben ieuwd
Ġopen en
P S
Ġcade au
ĠZe ker
Ġjur id
Ġtechn ieken
herap eut
Ġvoor stellen
du ctie
anc iers
Ġl amp
d a
Ġdub bel
ge k
ak ers
p ost
Ġvoor del
Ġc ode
Ġb uik
Ġfys ieke
pro b
ĠFran s
Ġtra p
r iet
ĠJoh n
Ġw oont
Ġcontrol eren
Ġbet aalt
Ġm elden
pan elen
Ġ15 0
Ġkn ap
ul den
Ġl iep
ĠK erk
Ġv eg
ik k
Ġv Ã³Ã³r
Ġwij ven
u ck
Ġgeb rek
sb r
3 3
Ġkl asse
Ġbesp aren
ic al
Ġs hop
Ġdonker e
sch oenen
ĠC as
Ġr aam
ro od
al ve
ag no
ij m
ĠS ur
il en
werk ers
ĠG ra
Ġont st
ec a
ĠM ax
g s
Ġde k
d ur
Ġc risis
ĠS im
Ġvergelijk ing
ak er
Ġhe il
Ġzw olle
Ġverdien en
ĠM a
Ġgebeur ten
ĠBr and
Ġ200 0
Ġaanbied ingen
ol len
ĠY ou
Ġ ill
Ġloc aties
Ġkru is
Ġuit een
Ġkl ik
ul aire
Ġopzicht e
Ġze eland
eu kt
aut om
Ġster ren
Ġnet jes
z ins
produ cten
Ġto ont
av irus
Ġop bouw
produ c
ĠTe vens
ab ele
Ġverzam elen
Ġmax imale
Ġou deren
Ġzon n
part ij
Ġt rend
Ġn utt
ĠHel aas
gend a
Ġc al
ĠT huis
st ation
ĠT V
ĠC olle
Ġg olf
t he
oeg de
Ġop gel
Ġwand elen
l am
Ġdec or
ch at
- -
ĠI S
Ġpaar den
Ġopt imale
c a
Ġal uminium
ĠD on
recht en
Ġoffer tes
Ġbood schap
Ġch ocol
Ġverwij derd
Ġjaarlijk s
ĠO osten
Ġbesliss ing
k erk
Ġin zetten
Ġint ro
Ġwedst rijden
ĠP at
Ġover st
un dig
ĠVeren igde
Ġabsol uut
Ġb ox
P l
Ġmilj ard
Ġte veel
Ġsy stemen
Ġvol doet
ĠL ED
Ġgehe im
Ġtw intig
p as
Ġtoe zicht
ĠH eel
ĠR es
Ġform ulier
Ġl ood
Ġinteress ante
Ġex ter
Ġhier over
Ġcommun ic
Ġdaadwerk elijk
Ġom zet
st oel
ĠIsra Ã«l
Ġdiscuss ie
Ġ12 3
al on
Ġf ase
Ġkn op
Ġlog o
Ġh appy
Ġbele ven
Ġl ach
cht e
Ġvoel de
Ġgezond heids
ĠVl aanderen
ĠEn gels
den k
ĠiP hone
over eenkomst
âĢ¦ .
in formatie
ink y
V V
Ġgeh olpen
if e
ĠGro ot
ĠD ag
Ġr aakt
rie ven
ĠM idd
a ft
Ġwaar na
Ġin gev
f ab
or no
Ġgem ak
Ġb urgers
ĠÂ »
res ult
m pt
Ġprob eert
sp reken
Ġlang ere
Ġvol op
Ġslaap kamer
2 9
h am
ale s
voor zien
In dien
r Ã¨
Ġbereik baar
st ijd
or a
ĠW ind
Ġonze ker
Ġgen oemde
Ġsch ak
in ese
ĠK ar
Ġn er
ic iteit
Ġbe Ã¯n
f oto
Ġeen e
Ġa m
Ġ3 00
Ġwereld wijd
Ġsuik er
Ġkl acht
Ġt as
Ġr ente
c y
Ġenthousi ast
Ġsch ip
br oek
cont role
Ġstra ks
Ġvaard igheden
Ġged acht
em pl
Ġaan pass
Ġvast gesteld
Ġsch uld
Ġkunst stof
ult uur
Ġmaatschapp ij
Ġbesch reven
Ġon vol
Ġverander ingen
s ver
in i
Ġit em
z ee
â Ĥ¬
ri Ã¨re
b ord
Ġvoor sp
Ġk ar
Ġdicht er
ie zen
oo ds
arie ven
Ġbehand elen
Ġer in
Ġstev ige
k maar
ĠV erk
ik ke
Ġant i
ĠV S
Ġzwanger schap
Ġkeuze s
Ġbel angen
0 1
Ġzelf standig
H olland
Ġaf sche
ĠEind hoven
ĠK en
w oning
os c
ec k
Ġgere chten
Ġaan doen
Ġrecht streeks
ier e
Ġl ook
z inn
Ġverlie zen
ĠUn iversiteit
Ġzorg vuldig
ĠMen sen
ell a
ĠHier mee
Ġblauw e
st aand
itu ut
n odig
schrift en
ut ten
Ġmaatschapp elijke
on y
Ġwerk elijk
Ġstrateg ie
v ingen
B l
Ġpassen de
Ġk oud
ĠV al
erk ant
mers foort
Ġk west
ist isch
b oeken
Ġd ert
Ġver deeld
Ġbedoel ing
Ġm el
Ġom hoog
Ġaanb ie
Ġm ent
ĠIeder een
ĠIn tern
Ġdienst verlening
dat ing
ge et
Ġuit druk
Ã© t
ĠD i
Ġ0 6
ĠF r
Ġfilm pje
H eeft
Ġtrain ingen
Ġkru iden
aa ds
we et
ĠBij voorbeeld
Ġsucces vol
Ġhand el
Ġgeh aald
aard oor
Ġtijd elijk
Ġver sl
Ġsch aal
ĠV en
ĠSp anje
ĠG ent
Ġverl aten
pos itie
Ġaan k
Ġom t
l in
Ġafge sloten
Ġfoc us
n am
Ġaan merk
Ġakk oord
lei der
Ġcon cent
Ġtent oon
Ġal weer
Ġger eed
ĠI T
Ġd ist
ĠPro f
Ġtijd je
Wil t
Ġsp orten
Ã¶r din
ĠT urk
ĠB eg
ĠC omp
Ġpl us
Ġin eens
V eel
Ġcons ument
Ġeff ecten
B S
Ġj ourn
Ġabon nement
ren g
Ġactie ve
D ie
ad a
Ġtoege past
ĠB os
R A
Ġteam s
bl i
Ġed itie
sp eel
Ġl oon
Ġneg atieve
Ġvoor komt
Ġber gen
Ġprest aties
Ġgesp rekken
Ġh oer
Ġaanp assen
Ġverg oeding
weg ing
sch en
v ragen
Ġaan sluit
Ġident iteit
P N
ĠJ ul
Ġbe se
erm eer
z iet
erv aring
omm od
Ġhoog waardige
Ġk ol
Ġzak elijke
Ġgeh oord
Ġwerk nemer
Ġg rij
ĠB ur
Ġst onden
per iode
heb bers
Ã ¤
ut ers
ĠF or
Ġst a
Ġtoege staan
Ġwerk te
Ġbinnen kort
oll icit
ĠN at
h ent
Ġt ax
d uur
Ġy og
Ġspecif iek
Ġwij f
Ġgemeen schap
ra ss
Ġf it
Ġvoor stel
ro p
ind ien
Ġdub bele
ĠâĢ ĭ
ĠJ on
Ġop slag
ĠS ommige
S inds
3 8
Ġgele zen
red iet
Ġbetrouw bare
ĠR ad
Ġw onder
ĠTe gen
Ġprofession eel
Ġopge slagen
n acht
d y
Ġvoort d
z in
ff e
Ġadmin istratie
ific atie
Ġwand eling
Ġrad io
Ġgen eukt
ch em
I eder
t ers
gif te
p ijn
z aal
Ġst aal
gen en
ĠH en
Ġf an
Ġtran spar
Ġvoorl op
geven de
gr atis
Ġoffic iÃ«le
bel asting
wee k
Ġsch r
Ġbel ast
Ġt ij
Ġrel ig
Ġafkomst ig
Ġbe ant
Ġhal ve
ĠR en
Ġb all
Ġland bouw
ak te
h ankelijke
Ġtelefoon nummer
Ġgest art
ĠZelf s
ĠNederl anders
Ġaltern atief
Ġals nog
Ġen schede
I E
W ie
Ġadres sen
C O
Ġle est
pl ay
kant oor
Ġre age
Ġoffic ieel
us h
ol a
fr ont
ĠWil t
ou ders
Ġf riesland
met ingen
Ġvers n
geb ieden
Ġha ven
Ġtel kens
tu in
Ġbeh oort
ĠApp le
mail adres
Ġ ir
se m
Ġverander d
Ġher stellen
Ġkw ets
Ġon bed
vrij e
Ġe c
gen oot
w icht
verm ogen
Ġact ies
Ġg isteren
ien de
ul atie
Ġhier in
p oort
ĠD oe
b eek
Ġaan deel
lopen de
werk er
ic us
Ġd Ã©
v o
u den
Ġv onden
Ġb racht
Ġbl ote
r ische
a ders
Ġacc ommod
spl an
ĠH oge
Ġfact oren
g erecht
ĠO ude
Ġvolgen d
film s
W el
gel aten
Ġweten schap
ĠWel ke
uren d
id ings
Ġgebeur d
Ġh igh
oelen s
Ġverzeker ing
Ġdoel groep
ĠV raag
c urs
Ġverkl aring
Ġgren zen
Ġy ou
s om
Ġb anden
Ġzo dra
Ġbeteken en
ste un
Ġcre atieve
Ġim m
Ġman agement
Ġhaar lem
Ġg ras
vl oeden
sch ade
Ġanal ys
act er
Ġbele g
ĠN aar
Ġch rist
l oge
Om dat
wiss eling
k et
en i
Ġst eken
ĠA t
no ot
Ġcons umenten
Ġfil ter
Ġprob eer
Ġro m
Ġexter ne
Ġu r
Ġbegele iden
Ġsuper markt
sbr ief
ĠM icro
ĠB ouw
v d
Ġgl azen
Ġh arte
ĠHier onder
Ġcontin u
1 00
Ġthe orie
er land
ĠSe ks
Ġvreem d
ple k
Ġscher p
Ġontde kt
Ġsch itt
Ġm or
Ġgev el
Ġonbe sch
ĠBl ack
Ġdigit aal
Ġonder weg
ĠPh il
beh oren
and a
k eren
Ġtot dat
Ġ200 7
ĠH ou
Ġcolle ge
regel ing
Ġrestaurant s
Ġadvoc aat
Van af
Ġbest eld
Ġprofession als
at form
Ġro ze
Â ²
Ġ19 6
ĠB V
Ġverm inderen
? ?
Ġop st
Ġthe ater
un n
Ġbev oegd
sen s
se ctor
Ġmin stens
be ste
Ġtele visie
ens ie
e p
Ġgener atie
Ġd os
ĠH em
ov atie
neem t
Ġh ant
Ġlu kt
ar de
Ġnauw keur
Ġaan sluiting
Ġklein ere
werk ingen
land se
gen oten
ĠS ol
Zo als
Ġplaats vinden
Ġw ol
Ġtoe stel
Ġverkrij gen
Ġregel ing
Ġg ok
N iet
Ġbus iness
ĠZ onder
ĠR ec
Ġspel er
Ġa genda
f st
Ġj ammer
âĢ ¢
Ġcon clus
Ġv oegen
Ġspeel de
ver kl
Ġ19 5
Ġondersche iden
i ber
Ġbez waar
ustr al
Ġp resident
Ġko ken
reken ing
ĠItal iÃ«
Ġbro w
Ġkab inet
ĠSp ec
ire ct
l a
IN G
Ġsubsid ie
i ze
le y
Ġonder ling
und igen
ite indelijk
z am
Ġar nhem
ĠGro en
Ġsleut el
e et
ĠgeÃ¯nter ess
Ġst ichting
Ġpr im
Ġhyp otheek
g ress
p els
Ġhand elen
ĠZ ee
Ġ3 6
ĠChrist us
Ġprof it
Ġland elijke
ĠH un
Ġzij de
Ġonmiddel lijk
Ġben odig
Ġn o
Ġgl ad
Ġs a
4 8
Ġfinanc ieel
ĠJ er
V D
Ġver stand
Ġ )
Ġwij zen
rij ding
Ġspecial isten
Ġvere ist
t w
Ġin b
Ġl uid
Ġv ul
ĠVol ks
Ġtek ort
Ġappar aten
Ġtha i
s u
eld oorn
sch ot
l ucht
s je
ĠE igen
zicht ig
o int
ĠCh ar
Ġlos sen
rie ken
Ġver standig
spec ial
Ġap art
Ġact uele
d orp
Ġbru g
um e
Ġver se
uk ken
Ġgel eerd
Ġz uur
Ġbeh alve
Ġpod ium
ret aris
mogelijk heden
inn ing
ĠI N
Ġuit gang
Ġge keken
Ġvoorzien ingen
3 1
Ġgew onnen
Ġst am
Ġcomp on
Ġz agen
r s
Ġinst antie
- )
ron en
Ġbew aren
Ġvide os
Ġpr aat
Ġserie us
Ġen d
Ġex empl
Ġbr oek
n ie
val u
Ġonder houds
Ġverh uur
Ġk ale
Ġro ok
ĠDaar mee
Daar naast
Ġverander t
or de
Ġbet aalde
Ġd ra
art sen
ĠG al
n iveau
ro ute
A C
b a
ru is
gew icht
Ġwil den
Ġverzeker d
ĠAmerik a
ĠO ff
pa ste
won gen
Ġsele ct
ĠS a
Ġdi vers
ir tu
Ġmag az
Ġhoe wel
ĠM useum
Ġhom o
e ven
! )
bli otheek
Ġonaf hankelijk
Ġmoder n
Ġop gev
Ġc ertific
Ġpro mot
as me
Ġvac cin
Ġsl aaf
Ġsp anning
rit er
i i
ĠT ele
Ġd ynam
Ġextre em
Ġw akker
Ġkwal it
p erk
Ġz us
ett ers
Ġletter lijk
voor waarden
Ġun iversiteit
et h
v a
ra d
ĠVan uit
Ġvari ant
it en
Ġlang dur
T oen
ĠD av
Ġk aas
N L
ind ingen
oc r
Ġex pl
Ġom gaan
g y
Ġin gang
or is
ĠH of
Ġv uil
ul ieren
Ġwerk elijkheid
x x
Ġzeker heid
Ġv agina
Ġanal yse
Ġant woorden
Ġbep aalt
Ġk anten
I P
Ġf isc
ĠGem een
ĠGod s
ĠR ed
Ġvlie gen
bescherm ing
Ġtegen st
Ġkracht ige
Ġgele gd
ruct ies
ple ment
Ġei wit
ĠTe chn
cent age
l oc
Ġb oet
m acht
ag s
Ġsy mpt
Ġriv ier
Ġvan avond
Ġverd achte
Ġh aalt
ach el
v ig
Ġopdracht en
Ġfeit en
im m
ne y
3 6
el at
Ġacc u
o bs
Ġblij f
ĠItal iaanse
Ġz aal
el der
mak ing
Ġw on
gr oeid
ijn s
Ġc ol
Ġverdiep ing
Ġrel aties
Ġgecom bin
Ġwaar heid
ĠB i
D E
Ġstad s
c ar
Ġgeregist reerd
k a
Ġaanwez igheid
Ġh ap
f it
il j
Ġr ing
Ġn r
ple in
Ġreg istratie
Ġ3 2
Ġner gens
de ur
Ġavont uur
Ġproces sen
ier ing
aag de
Ġvlie g
Ġreg ion
er n
b b
Ġver huis
Ġklaar komen
l amp
Ġver pleeg
Ġd ur
Ġverster ken
Ġcoron avirus
Ġver slag
Ġv ieren
be wijs
Ġeff ectie
Ġwaar schuw
3 4
Ġhonder d
o ers
A P
Ġrepar atie
ĠP ost
V andaag
Ġontde k
ab le
Ġarbe id
l ook
Ġbur gemeester
Ġb anken
atie k
Ġr oep
oor nis
Ġfl inke
Ġernst ige
Ġbel gie
sp unt
Ġv elen
c c
at oren
Ġd om
Ġgesch ikte
f act
Ġesc orte
van te
ro ss
h angen
se c
Ġwe gens
Ġdefin itie
Ġdoc umenten
m ar
Ġverst rekt
Ġinform eren
aste el
Ġl er
ĠZ owel
ste md
rakt ijk
fun ctie
Ġmo de
le cht
werk ings
h aar
ar ische
Ġlag ere
d ijk
es sen
ĠBrit se
3 2
Ġe m
M en
heb ben
il d
Ġis olatie
Ġduurzaam heid
Ġafbeeld ingen
Ġj as
0 5
Ġtal ent
Ġappar atuur
Ġter m
Ġv el
red it
Ġen g
ĠJ ong
Ġbe urt
ĠGe ile
Ġle ider
mal ig
te am
ot ische
l aat
Ġmin uut
Ġk atten
Ġken merken
ĠSt ad
Ġaanmerk ing
Ġh ield
Ġform aat
z els
Ġgep ublic
ren ds
maat schapp
Ġkop er
Ġdro ge
igen d
ĠL eg
Ġaf ger
0 2
3 9
Ġrec ente
Ġk oude
l ief
Ġschoon maak
Ġf a
Ġrijk e
Ġuitv aart
Ġsucces volle
b eer
ĠE chter
Ġbeperk ing
Ġaantrek kelijk
Ġvervol g
vak antie
Ġtelefon isch
Ġ200 6
Ġon mogelijk
ĠH ans
Ġtegen stelling
ĠD aardoor
ĠPro du
Ġben en
Ġt ip
i ver
Ġmaal tijd
Ġhuis arts
Ġversch ijnen
Ġin richting
ĠV andaag
p ad
Ġpresent atie
Ġkijk je
Ġko ers
ĠR o
of ilm
on gen
Ġdi am
ĠN o
Ġjaarlijk se
p ap
Ġpl ots
Ġavond s
sten en
is er
Ġeven als
Ġgroep s
Ġaan sluiten
Ġ, ,
or y
Ġmis sen
fer entie
Ġon langs
vorm ing
oef en
ĠM ac
Ġover ijssel
ell igen
Ġtwijf el
Ġpub lie
ele inden
Ġt af
Ġm ast
oo ster
ĠâĢĭ âĢĭ
bru g
Ġra men
Ġge Ã«
ĠZ oek
Ġspuiten de
Ġvog els
Ġkwest ie
Ġvert rek
f ect
Ġt ient
Ã ª
ken ning
ontwikkel ing
ĠKort om
Ġaanra der
ĠW al
ĠAl gemene
O f
5 00
Ġget rouw
Ġonder nemen
on om
Ġeffic iÃ«nt
ag ers
ĠGe z
ro ok
ĠW ord
Ġk ok
Ġslaap kamers
Ġs an
Ġontb reken
Ġbev inden
Ġvert elde
ĠH otel
Ġn ee
ar ande
Ġspannen d
Ġf as
Ġbesl oot
is je
Ġbet on
akel aar
ant s
Ġasp ecten
7 8
as ie
c ast
ur n
ten de
Ġd oll
c olle
b all
Ġaut hent
Ġcap aciteit
Ġge produc
Ġonbesch adigd
aa id
Ġonbed rukte
Ġbed re
Ġzonne panelen
Ġc y
ĠPar ijs
zaam heid
h t
ne den
z u
Ġbe urs
Ġg ouden
Ġintern ationaal
le erd
Ġonder tussen
Ġfris se
s oft
Ġal mere
Ġin komsten
G ro
Ġinzicht en
av ing
Ġgro enten
ĠN L
Ġindruk wekken
Ġn uru
ĠC he
w oon
vriend elijk
Ġverzam eld
Ġveroorz aken
Ġde els
I L
ĠS an
Ġbro er
Ġomt rent
Ġhou ding
im eter
Ġv racht
Ġspeel goed
Ġe p
Ġinter ne
h aal
pro ject
Ġinstall eren
r isten
Ġl ot
4 9
Ġsp ier
ou l
% .
ĠB us
les sen
oss ier
Ġtoekomst ige
c u
ĠH a
Ġged ragen
Ġk g
Ġvent il
Ġex amen
Ġverh ogen
Ġop vol
aal f
M eer
Ġcl iÃ«nten
ocht end
h ulp
Ġj ar
v ideo
Ġp ik
Ġd ui
ander en
nem ing
Ġcl iÃ«nt
Ġ ï
Ġg unst
Ġdi agno
Ġtab let
Ġwijz iging
Ġk abel
on iem
d aar
Ġl et
Ġde den
ind ust
Ġhe ft
I I
ĠT ijd
Ġcirc a
U S
Ġbesl uiten
Ġvoor malige
Ġwaar den
pe ctief
Ġver pl
Ġonvol doende
oeien de
h oofd
ra c
Ġp il
V O
Ġherken nen
Ġkl in
w ard
Ġapp s
k r
Ġ @
L aat
Ġorganis eert
Ġgev oelens
Ġrol len
Ġboven staande
Ġschrift elijk
best uur
Ġpl af
ĠS P
ver goed
U R
Ġduizen den
st anden
Ġuitger ust
Ġbeschouw d
I C
Ġb reda
ar men
op per
ĠS T
Ġf ol
Ġvoorbere iding
d heid
Ġdeel nemen
Ġap arte
ver e
Ġver niet
ron den
Ġv eert
ul de
ph en
ree dt
ga ven
og raaf
Ġtra ject
Ġs ollicit
Ġop gebouwd
w aliteit
ĠB as
Ġbeant woorden
3 7
ant ische
Ġhet geen
Ġslim me
Ġre p
V l
Ġn age
atuur lijk
Ġhuis houden
Ġbegrij p
Ġfact uur
os of
Ġverb oden
Ġschrij ver
ĠC ons
rÃ¨ me
ist iek
Ġvoer t
inst all
st at
ĠB erg
Ġhem el
ĠG u
activiteit en
Ġteken en
Ġprakt isch
8 5
ĠE m
ĠV erg
Ġk ussen
ĠN ee
Ġbesch ad
re gels
Ġelektr iciteit
lig gende
opl oss
Ġstim uleren
Ġbeh alen
ĠTer wijl
b asis
am in
O O
il t
d ier
br and
Ġdat en
Ġuitzonder ing
M S
ĠI P
ĠHaar lem
or f
Ġre cepten
Ġer aan
Ġwijz igingen
or ing
Ġbuitenland se
te ur
z uur
T er
Ġkn ie
Ġbal k
op vang
oo ft
Ġaf loop
mm el
Ġl ijf
et ische
Ġonaf hankelijke
Ġtrain en
u ster
i ro
Ġgez el
ĠE le
ĠL ang
Ġcond oom
Ġkw aad
Ġnoem t
Ġamb itie
ran ge
og el
Ġleer ling
Ġb ijk
0 3
Ġgroe it
Ġl ijnen
Ġb od
ut s
Ġgl oed
Ġz iel
he im
ĠPl ay
Ġver re
eel and
Ġt arieven
Ġsp ir
gele id
Ġ6 5
ĠA chter
Ġn och
Ġpro gram
Ġverk eerde
an o
Ġafle vering
ĠN ijmegen
Ġhor eca
Ġvergro ten
Ġsp ons
pt ie
an al
N A
Ġvriend elijk
Ġsamen werken
ĠB rabant
Ġerot ic
Ġdie et
Ġbevest igd
Ġfantast isch
Ġdie pe
ĠL eeuw
B el
Ġaute ur
ĠT om
Ġre m
Ġsens uele
Ġaard app
Ġmo sl
L ees
Ġ5 5
Ġaangeb racht
Â »
g ier
Ġ2 50
ĠC al
Ġmat ch
Ġwaar b
ĠA v
Ġbez orgen
ui zing
Ġproduc eren
ĠB al
Ġf estival
T ot
ĠI de
onder wijs
Ġl ikken
st room
Ġafsche id
ĠPl us
Ġlab els
Ġlos se
ij sten
w eten
Ġnieuw sbrief
Ġl ullen
Ġoefen ingen
20 20
ĠBo sch
ĠMar ia
ĠComm issie
N ieuw
sch illen
ĠSur in
Ġfantast ische
ĠA ss
ĠM ark
Ġz ilver
Ġb ranche
Ġhe u
dien d
Ġtha ise
d i
Ġg ames
A G
ĠLe iden
Ġafbeeld ing
Ġop gesteld
Ġoverl ijden
ĠH ol
ad ing
Ġwen st
Ġ4 8
b or
be sten
Ġv aat
at te
Ġklein er
Ġger aakt
Ġbuur vrouw
Ġâ Ĩ
Ġcon fl
ĠDat ing
spro ces
4 6
ĠG eef
Ġg ids
ge h
be w
Ġkat oen
Ġgroot te
Ġsch aam
te xt
Ġd uren
ĠðŁ ĺ
Ġte xt
Ġbez ocht
d re
Ġb ack
spre kend
ĠM aas
ip t
ee ds
Ġlever anciers
Ġwijz igen
ste in
it aal
Ġvoor jaar
ess ies
Ġh obby
ij ft
Ġbed raagt
r ig
Ġverb inden
een komsten
Ġinnov atie
il er
Ġcomm issie
iz er
ĠH y
Ġl agen
in stellingen
ĠS ams
ĠK oning
Ġverwacht ing
Ġkan ker
Ġslachtoff er
Ġman n
Ġd omin
sl otte
mod el
Ġbe denken
Ġinvest eren
u ken
Ġher fst
b elen
Ġaan delen
Ġmet aal
Ġfunction eren
ĠInst agram
ĠAr nhem
mak ers
ĠY ork
Ġk inky
dan ig
0 6
Ġf outen
ga and
Ġzelf stand
Ġhier boven
Ġinnov atieve
Ġverv aard
Ġd ia
ff ing
Ġa de
indust rie
Ġaard ig
Ġ ram
Ġo ost
Ġst ruct
at ch
Ġpro cedure
iek em
ĠWind ows
ĠHier voor
Ġis lam
Ġaanvullen de
m o
El ke
verkl aring
ar io
ĠN oor
Ġbe keken
Ġrij dt
ven ter
comm issie
Ġbeoord eling
Ġworkshop s
bl ik
schak eld
maal s
Ġscher pe
ist ieke
Ġges elect
organis aties
Ġmidd els
ks el
it a
Ġverg adering
Ġverb ouw
g ren
u a
Ġrele vante
ific aties
Ġmet alen
D an
Ġ3 8
Ġb oord
Ġver zending
Ġbesl ag
ĠDoor dat
Ġexpert ise
Ġ4 00
sch al
ĠD is
bo ard
ĠH R
B ent
Ġkoel kast
wee g
ĠH D
Ġgem aakte
Ġvit amine
Ġveiligheid s
op dracht
v re
Ġverbeter ing
on ne
Ġg it
Ġom vang
p akken
4 7
Ġtijd elijke
yst ad
Ġst reven
Ġmeld ing
ĠCl ub
t ime
erk l
met hode
op elijk
riÃ« le
Ġwe ig
Ġtoen emen
Ġreg istr
Ġaanb ren
Ġbehoe ften
Ġsp ellen
Ġdicht bij
ad vis
ent je
ĠS al
Ġuit k
ĠAut o
ri x
ĠEurop ees
Ġwerk dagen
oor deeld
Ġoef enen
el ystad
pr et
Ġvol t
Ġjaren lang
ĠCh inese
Ġpl anning
Ġmen u
Ġsex s
or der
ma chines
Ġm oed
m oeder
ion eel
r or
Ġmin isterie
Ġeeuw en
pen de
Ġverzorg ing
Ġmeer der
vriend elijke
Ġd ok
e kend
ĠDuit s
il de
Ġvan daan
Ġgecombin eerd
rast ructuur
ze g
Ġemot ies
Ġs j
Ġfot ograf
Ġver rass
Ġpij pt
Ġc ur
Ġk oopt
Ġbeste den
Ġoppervlak te
Ġar g
r ete
Ġgezamen lijk
ĠB T
Ġaanzien lijk
ĠC re
Ġchocol ade
Ġuiter st
ĠR ome
Ġdatings ite
Ġgeg arande
zak e
c ess
erm an
Ġbescherm d
oet s
Ġver richt
ot he
Ġmens elijke
om er
Ġin beg
w ay
ĠR em
ule erd
ing er
Ġbe wezen
Ġmaakt en
ĠR uss
ĠT im
ĠOn danks
vol utie
. [
Ġher inn
per t
o Ã«
Ġ1 000
Ġon e
Ġsec onden
ĠD E
Ġ Ġ
Ġp ed
ĠWe b
aa ie
Ġn on
clus ieve
ot a
Ġuit b
Ġweer gegeven
Ġcons ult
wedst rijd
Ġs o
Ġer mee
Ġzol ang
Ġsp ieren
l ange
Ġle ger
f ig
ass a
uil en
Ġe mail
Ġnad ruk
Ġr ende
min ste
p on
Ġcar riÃ¨re
Ġs ug
Ġt elt
ĠM idden
cte ur
Ġre cent
V S
ĠEngel se
On t
Ġver houding
Ġnieuw bouw
Ġeigen dom
ĠL uc
Ġgepublic eerd
Ġcamp agne
r aat
Ġtoepass ingen
Ġmin i
M A
Ġ200 5
Ġcomfort abele
ord recht
Ġvoertu ig
Ġbl oot
Ġlaat st
t ing
ĠB oek
op leiding
Ġhand els
ad vies
Ġver n
esl uit
Ġt ru
ĠOp dracht
d own
Ġge pl
ad o
vergoed ing
Ġovertu igd
Ġrij st
Ġdro men
int je
f onds
Ġgoedkop er
Ġlever ancier
on ken
Ġverde dig
E rotische
Ġhonder den
Ġoud ste
alen der
Ġverk eerd
ust itie
Ġstaat s
Ġf ull
if est
d ieren
orden ing
d oek
Ġgar anderen
l ok
Ġsympt omen
id de
f iets
iliteit en
Ġt om
Ġna der
ie ven
pp el
Ġberoep s
Ġvl ag
ĠâĨ Ĵ
Ġverplicht ingen
Ġmot iv
all ig
ervic es
! âĢĿ
Ġcult urele
Ġbot er
gesp rek
ĠC ap
Ġmet en
ĠM y
ĠA ustral
pro blemen
I G
Ġtemp o
ath ol
Ġhor loge
ur b
Ġz uiden
orm d
at iviteit
Ġdi pl
r id
Ġgeproduc eerd
ĠP riv
il do
Ġgezel schap
u gel
Ġadmin istr
Ġhot els
ou ter
z one
ĠJ ij
ĠH oofd
Ġh iel
Ġtw aalf
Ġvru cht
aag t
Ġgew end
Ġpre vent
Ġveel al
Ġbetrouw baar
mp el
ĠD u
a o
Ġh oof
ell etjes
Ġkl opt
Ġged achte
Ġapparte menten
ĠV is
ged rag
ĠM od
Ġbe sproken
Ġb uren
Ġhtt p
Ġrecl ame
Ġwas sen
r oe
ĠM ot
Ġdru kken
bed rag
Ġbed ragen
Ġtrain er
Ġflexib el
Ġb ra
schapp elijke
ang rijk
Ġstu ks
Ġsterk er
Ġvak man
Ġvoortd urend
Ġpublie ke
Ġmarkt plaats
Ġaan geven
ĠT ilburg
Ġbi ologische
Ġge controle
an ke
oren s
Ġvoor zichtig
Ġonderste unt
sy stemen
Ġmedic ijnen
ĠÃ© cht
Ġbed acht
ĠP et
Ġmin imum
Ġbeper ken
ĠH art
Ġjurid ische
warm ing
bl ok
Ġwel zijn
ĠEl k
Ġlok aal
5 5
ĠU iteindelijk
igen de
Ġbehand elingen
Ġh of
Ġconcurr entie
Ġle erk
Ġop roep
Ġbesl ist
v atten
m as
s on
Ġmet h
rum p
Ġtij de
Ġme ch
Ġvol ks
bs ite
Ġze st
Ġverg ader
Ġbeschik bare
oo id
Ġregel geving
Ġmin er
ĠM ad
ĠV eil
ĠM eest
co ach
wijf eld
Ġsexfilm s
ar y
Ġonder grond
Ġveel zijd
ann es
f ot
Ġcompet itie
m eld
Ġonder zocht
Ġvoor stelling
Ġvl oe
il is
ĠSp aanse
Ġess entieel
ies o
h aling
s ing
wagen s
gen oemde
Ġeffic iÃ«n
Ġbe en
Ġrust ige
Ġverdw ijnen
sp ire
Ġkr ant
or pen
Ġernst ig
ass er
Ġbest eed
Ġverwacht ingen
Ġopl ossen
Ġt ick
Ġpl oeg
v lees
Ġget est
Ġgar age
a ve
Ġpe per
Ġverd riet
ut te
Ġgev uld
Ġb und
ell ingen
af spraak
Ġsp iegel
ic ap
ier d
Ġdoll ar
ak antie
Ġsoep el
R E
voor t
L E
Ġfin ale
ver zorg
sch ikt
Ġj urk
Ġreg uliere
ir k
af stand
k ings
Ġverg unning
Ġsp e
Ġt anden
ĠNieuw s
Ġt ilburg
ow ieso
Ġtijd st
ĠS er
0 7
Ġaange k
Ġg irl
o ere
ĠI CT
Ġw iel
Ã¯ ne
ĠSt and
org d
Ġ3 3
Ġk rediet
Ġgede elt
a ver
Ġversch ijnt
Ġbron nen
Ġver zend
duid elijk
Ġaan leg
Ġruimte s
ĠW as
Ġving ert
an ks
op ers
ĠR us
ann er
Ġ1 20
Ġbe sm
Ġeen tje
ee sten
Ġaf zonder
Ġg rijs
te it
Ġzoekt ocht
8 8
ĠR ijn
ĠA lex
Ġin stelling
ĠW ill
Ġsp rak
Ġont ste
Ġsamen gesteld
i ra
ĠF e
ĠE Ã©n
wij de
0 9
ien st
Ġinvester ing
ĠAr ch
l aten
Ġbeoord elen
Ġma chines
E x
Ġne gen
ief d
Ġkind je
k ru
act ieve
Ġa ir
Ġb ol
Ġkl ikken
Ġber oemde
Ġonderzoek ers
Ġt arief
Ġverzorg d
g as
Ġwij s
Ġl ieve
Ġporn ofilm
hand s
Ġkop pel
Ġgek opp
Ġleuk ste
Ġop vang
G eb
Ġstat us
it co
Ġoper atie
l os
Ġz aten
kl asse
Ġben ad
ot er
Ġbe Ã«
ĠO u
kl achten
Ġblijk en
ag o
Ġgro ente
ĠD rie
Ġb v
ĠV el
Ġvrouw elijke
Ġtoet sen
Ġgewen st
Ġtechn isch
M e
Ġp uur
ĠA D
verl ies
n ooi
E uro
O P
Ġbatter ij
ĠEngel and
Ġtev oren
Ġzul ke
ĠS w
in ks
Ã Ń
Ġmis bruik
Ġt herapie
Ġbood schappen
an ische
Ġpassen d
Ġth erm
Ġv ette
0 4
gem oet
ĠP iet
Ġuitdag ingen
Ġst enen
ĠMidd el
ro s
Ġaccommod atie
Ġon recht
i veren
Ġele g
ke y
Ġbij behoren
Ġm issie
ee p
ij dt
Ġaan wij
ers port
Ġrec re
ac risis
O T
Ġexper iment
am ing
Ġra ce
um a
Ġgra pp
e igen
Ġmocht en
ĠN adat
Ġgloed nieuw
ĠM ooie
Ġ $
Ġkamp ioen
alis eerde
up s
ĠPers oon
Ġgegarande erd
ĠA s
Ġin gesteld
Ġsch ermen
ĠS ervice
Ġconst ructie
ct oren
Ġmoeilijk e
Ġz ingen
Ġin ch
Ġont h
Ġd oek
bl auw
ĠgeÃ¯nteress eerd
verb and
Ġkunsten aars
r ond
Ġom vat
Ġm ake
ĠP S
ĠIn middels
Ġbenodig de
a el
) ;
Ġaanbe v
âĢ Ķ
Ġim plement
Ġzw ak
aam d
Ġsal aris
ange zien
ade s
won ingen
O L
w aren
ar iteit
ure el
Ġvoorlop ig
Ġaf werking
Ġom gev
n ee
stal ige
Ġvreem de
Ġstud io
Ġkrit iek
Ġbew aard
ĠK inder
ĠK un
ĠMed ia
Ġm ist
Ġra c
Ġgebeurten issen
ent he
Ġople idingen
oot h
Ġkil o
ar n
Ġart ie
Ġs eni
omm igen
b ra
ing e
at es
Ġaanm elden
Ġer ger
ed ia
Ġto cht
l l
komen de
et isch
Ġbuiten sex
ie ks
Ġspannen de
Ġverd ient
Ġsch en
Ġd et
ĠB B
v oc
be i
ond heid
ens ervice
Ġvoorkomen de
ĠS am
Ġg ij
ĠK erst
at uren
ĠG ed
vers ie
Ġnamen s
Ġ <
Ġh ip
ĠP C
Ġbrow ser
met ing
c amp
ĠgeÃ¯n teg
Ġbeveil iging
Hoe wel
av a
ĠM arkt
Ġb aas
Ġk ip
0 8
ĠK unst
ĠF ilm
Ġeer dere
ĠZ aken
? âĢĿ
c ellen
Ġexper ts
Ġzwem men
ĠM aat
ĠSams ung
Ġaute urs
at al
ur ing
ĠDe el
ra p
M ar
Ġaanbren gen
Ġwe kelijk
get rokken
» ¿
Ġst elde
ber icht
aro kk
Ġgeb leven
Ġdr ingen
ĠZod ra
Ġret our
ap e
ĠN ationale
Ġf und
Ġbeperk te
eer st
ĠB on
ĠÃ ł
de sk
Ġpro m
Ġm uren
m eu
u les
Ġ3 4
Ġn ek
Ġdert ig
ĠK N
ĠÂ «
Ġv irtu
Ġmeld t
Ġsl ap
Ġte gemoet
ĠMicro soft
Ġmaat werk
Ġm aag
ĠC V
ib r
ĠCent rum
Ġbew onder
M W
ud i
N et
Ġmed i
ĠV i
ie erd
ann ingen
Ġb akken
zoek ers
sch er
Ġvert rekken
erm ate
Ġst eek
Ġsp aar
Ġwet geving
Ġnederland s
Ġdo eleinden
Ġconclus ie
sp elen
Ġachter af
M aak
Ġf eed
m es
gem aakte
ĠL onden
Ġeven wicht
dro id
h an
ĠC amp
Ġvol daan
ĠTw itter
Ġtijd ig
ien ce
le idingen
A D
Ġvoor op
zen den
Ġdoorgaan s
Ġgen oten
Ġconc ert
ĠG reen
Ġschak elen
Ġsl oten
all er
Ġover heids
Ã §
is ie
gl as
Ġbon us
Ġindust riÃ«le
Ġde gelijk
ĠO ud
N atuurlijk
Ġvro lijk
Ġl anc
Ġhel dere
Ġversch enen
Ġsche pen
Ġuit dagen
S amen
ple x
Ġverb orgen
Ġfeest je
Ġ200 4
Ġverl open
ĠF re
Ġsp reek
ig r
ant el
Ġst rip
Ġcommerc iÃ«le
sen d
Ġgez innen
n ames
Ġin z
Ġaft rekken
Ġc afÃ©
gen er
Ġtient allen
k ingen
!! !
Ġge el
w aart
rol l
ĠA B
le er
Ġtoev oeg
D ank
men s
pl aten
j aars
it is
au ze
Ġ3 7
j uist
ĠZw olle
a im
il ic
v oudig
in chem
Ġgeld ig
Ġbij eenkomst
Ġversch een
Ġbestuur s
Ġgehe ugen
Ġfra me
de kt
s zins
ĠM us
Ġsp ect
Ġl ijden
* *
Ġboer derij
Ġge ste
ĠSt el
van c
ĠH end
sch olen
Ġvliegt uig
Ġcomple xe
Ġb anen
ĠKoop handel
Ġaanm eld
ian o
Ġdr ink
ĠL es
? âĢĻ
van kelijk
y pen
ĠA V
m assage
gest uurd
Ġbe m
p omp
uist er
ra ft
Ġbehand el
al f
re chter
Ġv illa
Ġfor um
ra ven
Ġin zake
Ġle zer
Ġvast goed
Ġinstru ment
ĠRijk s
Ġblijk baar
i ff
ĠJ aar
Ġc ou
Ġn oorden
Ġstrak ke
Ġkwaliteit s
ĠB art
Ġap pl
Ġrein igen
ĠH or
v oeding
iv eerd
ik kel
Ġkon ink
stijd s
Ġup date
prob eerd
ĠBij bel
gev allen
Ġgl im
verl ichting
be c
Ġeffectie ve
press ie
Ġre iz
Ġgek leur
Ġricht lijnen
voer der
ain er
ut ch
Ġint elligen
Ġex clusief
gev onden
Ġlog isch
Ġbest anden
Ġhoofd stad
Ġst age
Ġw Ã©l
Ġw ijnen
Ġar men
ĠEer ste
Ġbe iden
kk ers
Ġmax imum
Ġmee genomen
Ġbij ge
Ġontmoet ing
b ond
Ġbere iden
z ijnen
Ġtoe passen
ĠM ont
ik elen
Ġwil d
Ġro man
Ġh aak
man agement
ĠA N
alis me
ĠM al
V ia
Ġgec ertific
bl og
A B
, âĢĿ
g elijke
Ġwij st
Ġverl oop
alis ering
Ġlevens duur
Ġel ast
ing t
Ġsp uit
ĠN ou
Ġb acter
stel sel
Ġw al
Ġan aal
4 2
Ġal arm
e ff
Ġgest uurd
Ġverdw enen
ĠRe cht
Ġgebeur de
r oepen
ĠK at
Ġe valu
Ġh aast
Ġkunsten aar
tende els
Ġbijbehoren de
ĠSch ool
eeuw se
Ġv oeg
l id
Ġren ovatie
Ġc an
Ġsp re
m us
Ġhum or
Ġstuk jes
Ġtre den
Ġgemeent er
Ġvolg de
Ġsub t
Ġvast gelegd
Ġb rieven
4 3
Ġsp oren
in qu
orm en
Ġop breng
keur d
Ġbelangrijk er
ĠZw its
ĠC ity
ou te
Ġcoron acrisis
q ui
Ġverkie zingen
ĠGemeen te
er ma
en se
ĠB reda
Ġcorre ct
Ġliter atuur
Ġmont age
oe dt
Ġstuden t
dat es
Ġget roffen
ij p
Ġopgel ost
ĠDav id
ĠM ooi
Ġtentoon stelling
vorm en
Ġg ig
k aarten
Ġt aart
Ġpers pectief
Ġinv ullen
Ġindivid u
Ġm us
get wijfeld
ĠSch ip
gro te
I M
Ġpat roon
rot ing
Ġlever baar
Ġplaf ond
ĠCor ona
Ġde mon
ĠE cht
ĠAn droid
aliteit en
Ġlood g
Ġre al
Ġuit komst
Ġwetenschapp elijke
k asten
Ġvis sen
v ant
Ġhier op
Ġweer stand
b an
ĠUn ie
Ġn aa
Ġbek ijk
Ġover t
ĠH il
Ġwaar aan
ĠbeÃ« ind
Ġch au
Ġregion ale
Ġnieuws gier
Ġo ranje
b os
if i
ĠH ome
verk eer
Ġmin ste
Ġfot os
vol en
Ġuitbre iding
Ġsex dating
Ġer o
gew oon
ĠP orno
ĠM aastricht
ill er
Ġde gene
Ġh on
ĠT rump
Ġschoon heid
Ġwat erd
verlen ers
ant a
ĠA ct
Ġper man
Ġd iner
Ġper c
odig d
Ġhoor de
Ġle euw
Ġzee p
Ġb ag
tu be
ett ingen
Ġgere aliseerd
adem ie
Ġorigin eel
ver f
Ġme id
ĠBru g
b oot
p ele
ee ster
Ġbreed te
Ġal kmaar
f ra
gel o
A merik
w iel
ĠW it
ĠO ne
en is
Ã ¢
Ġsch uif
Ġamb ten
w onen
st eld
Ġp omp
Ġc rimin
Ġmen g
Ġwe d
Ġafge werkt
Ġgekopp eld
al ings
ĠL og
rik aanse
ĠOosten rijk
k ante
Ġgemakkelijk er
Ġkracht ig
ĠA z
Ġmeerder heid
ĠE erst
Ġbed ankt
d oc
Ġun ivers
Ġvog el
oo kt
Ġverpl ichting
b anden
Ġst iekem
Ġverspre id
Ġw ees
ron g
icht e
ĠWor ld
sp er
Ġacht erkant
Ġrende ment
ĠðŁ Ļ
m orgen
Ġbl aderen
Ġb an
... ]
n eu
Ġaanbie ders
Ġvacat ures
ĠL en
Ġdat ab
Ġge wijz
Ġver val
f ase
il oft
Ġover gang
Ġop zet
Ġplaat se
Ġverkl aard
n amen
ĠM arokk
ru g
Ver der
f or
ip atie
Ġl ente
Ġgro tendeels
ĠF il
om as
Ġget oond
ĠAn ders
oe ders
Ġweder om
Ġmee doen
om b
Ġm l
Ġvert eld
Ġl etten
Ġs at
l aan
Ġconc rete
p ak
ĠBe ide
ĠL ou
Ġbele ids
aard ige
Ġlen ing
Ġslachtoff ers
r ice
Ġm es
g iÃ«
V ID
ĠRus land
ĠAn dere
O M
az z
Ġs owieso
i as
Ġpr oeven
le v
Ġverz onden
t ot
Ġst reek
be stand
Ġver stel
G el
Ġbevest igen
Ġverm oed
S c
Ġgen ot
eer der
io ol
uin en
ĠIeder e
Ġfil osof
Ġr oepen
Ġb oos
ĠS ec
c ard
el ier
ĠR on
az ing
Ġwerk gevers
Ġdoc ent
ge gaan
Ġcre ativiteit
ry pt
Ġcommunic eren
Ġgeb le
Ġk asteel
Ġbevest iging
Ġvoordel ig
au d
Ġco Ã¶rdin
Ġd arm
ĠL eer
G B
Ġseks uele
Ġinspir eren
Ġhel p
w as
Ġaf sluiten
ia ste
ĠT o
Ġaange wezen
Ġlin ker
Ġschad uw
Ġdr enthe
a j
ut ion
Ġaf metingen
aat regelen
Ġbeschrij ving
Ġbeg repen
Ġvl ot
Ġsp ot
st ro
ĠF C
w al
w ol
20 21
Ġn ak
Ġongel uk
ist ent
ĠUS B
Ġst ren
k y
mat e
Ġverm ijden
gelegen heid
or ven
Ġdaar over
Ġtele ur
Ġaanv ulling
s ervice
ĠVeren iging
p ubl
ad el
Ã© r
Ġtijdst ip
i ol
ĠG o
D us
akk elijke
Ġgecontrole erd
Ġverk regen
ĠH eil
Ġbru in
Ġin h
Ġl o
Waar om
Ġze den
heb ber
ĠA L
Ġop stellen
Ġex clusieve
O C
ok er
as y
Ġ0 9
ter rein
Ġtoer isten
schak elen
Ġsn ap
z il
Ġten minste
Ġtrad itie
Ġloc k
Ġbe s
Ġcre atief
ĠD rent
eel t
s els
Ġonderzoek s
rek ers
ul air
Ġsch ouder
du izen
wik k
ara van
d recht
Ġkop je
st ocht
On s
ert je
Ġwaar uit
Ġsp ring
Ġmis d
Ġm its
Ġafge sproken
Ġr aads
im aat
u al
Ġbezoek er
Ġmeub els
Ġo ren
Ġoorspron g
Ġgeh and
Ġdie pte
cent ra
id a
bet aling
un de
Ġbestuur der
Ġ %
Ġbetaal bare
Ġop halen
be gele
ĠA P
Ġge deeld
Ġz uigen
eu gd
des ign
Ġd omein
ater ing
um n
y k
E C
gesch reven
ĠH am
f e
Ġdeel name
H el
Ġvl oeren
Ġopge zet
Ġl ift
p ing
j ax
Ġkom st
Ġvre de
Ġaansch af
A pp
Ġlekker ste
Ġm em
Ġaan komst
ĠG oede
Ġhoofd stuk
Ġpen is
Ġv aren
ĠDes ign
N og
4 1
Ġc ruc
Ġf el
ĠR oy
af e
g ids
ĠDel ft
te k
Ġ200 3
er o
n av
am elijke
Ġals mede
ĠBus iness
Ġrel ax
le ding
Ġkwart aal
ĠJ o
bl ijf
m ing
ĠKonink rijk
ĠB ron
wee gt
kan ker
ĠE N
ĠV oeg
ver st
Ġklant enservice
Ġl im
hand elingen
Ġhuis vrouw
Ġgeg eten
itu atie
Ġbe oordeeld
Ġonder aan
Ġsim pele
vin dt
Ġz ette
b ur
Ġstr aten
m om
Ġhers enen
Ġv eer
Ġwin naar
voor stel
Ġh ome
Ġonder bouw
ĠWereld oorlog
n euken
ged ragen
Ġlu ister
itco in
ĠR uim
ken t
Ġfab riek
Ġcon text
kun st
ĠBT W
ĠB ol
Ġof wel
ic ker
Ġfys iek
erk er
ĠFin anc
Ġz elden
ar ia
Ġdru gs
Ġcom ment
Ġl ampen
Ġgevaar lijk
Ġwetenschapp elijk
ch es
verb ruik
dat en
Ġgep land
ĠK inderen
Ġz akken
ĠM c
Ġ il
ly mp
z eer
b allen
Ġmed isch
en ario
all oze
ĠÂ ·
I A
ĠP ale
Ġitem s
ĠR u
os k
ood se
v els
Ġmotiv atie
Ġd ildo
Ġged etail
ĠB ent
Ġt rends
Ġnorm en
or es
Ġuit nodig
Ġp uz
Ġd ossier
B rabant
Ġneger innen
Ġzo danig
ĠG ar
ateg ie
A d
Ġcent imeter
Ġm alen
ĠA g
inqu enten
T en
ule ert
Ġvanzelf sprekend
Ġï »¿
Ġenthous iaste
Ġroep t
z akken
Ġde stijds
Ġon mis
Ġbep alingen
ff eur
Ġk et
Ġvacat ure
teken ing
M C
Ġtool s
Ġplaat st
Ġsimpel weg
Ġkl ussen
Ġbehoe ve
ĠB ank
ul s
B innen
spro gramma
er den
Ġverster kt
Ġprest atie
Ġin schrijven
Ġbrand weer
ĠUn ivers
Ġverst rekken
Ġdoor heen
7 7
Ġving ers
is waar
b oer
Ġw isten
Ġb tw
Ġover d
waard igheden
Ġop ent
wij der
Ġvoertu igen
G oed
Ġz ijk
Ġsch ijn
N ee
Ġg ift
u ch
Ġovereen gekomen
ĠA rab
Ġs ur
ure aus
Ġpl as
ac c
ĠH oud
Ġbij v
oc ratie
Ġdeb at
Ġs om
le in
stel l
spire erd
Ġadv iezen
G a
Ġst oere
Ġd uik
ĠP ieter
Ġm erkt
le e
Ġne ut
ator ium
Ġpartic ulieren
Ġsing le
Ġchrist elijke
Ġsch ijf
sch ouw
Ġpriv ate
Ġge probeerd
Ar t
Ġkl ok
omm el
Ġfeed back
Ġdaar toe
Ġm and
z etting
Ġopmerk ingen
s erie
Ġtrain ings
ĠColle ge
Ġstr alen
Ġst ok
h ier
ĠZ eeland
Ġpor te
Ġople veren
Ġdec enn
Ġref le
ail le
ken nis
Ġpresent eren
Ġgeh oor
Ġin schrijving
st reek
ra y
Ġgezamen lijke
Ġaanpass ingen
Ġgere den
Ġpar lement
h or
Ġd och
m l
Ġd oden
Ġin log
V A
Ġven noot
Ġcurs ussen
Ġpr ins
il veren
Ġvier kante
Ġbeh eren
Ġz anger
Ġontwikkel de
V rouw
Ġr oest
ĠMart in
h ard
sp art
V C
Ġafger ond
gebouw de
P ress
Ġgesl aagd
ru ikt
verg unning
ĠG oud
Ġol ijf
Ġf ir
U w
Ġvijf de
ĠU l
am men
i am
Ġsch ijnt
ĠF riesland
Ġbest ond
ĠðŁĻ Ĥ
Ġga uw
al isten
Ġbez iens
ĠV erm
voor zitter
Ġondernem ingen
Ġl aad
Ġzoet ermeer
ĠV ind
Ġabsol ute
it atie
Ġsamen stelling
alt h
m uziek
ĠMin ister
Ġg eren
Ġverwarm ing
Ġkop ie
hy dr
Ġprem ie
ĠP rijs
Ġon getwijfeld
Ġfre qu
hal te
Ġcont ra
Ġerot ik
Ġel ders
tie me
re f
Ġontwikkel t
Ġst alen
g in
produ ctie
Ġkracht en
Ġbelang stelling
er ings
Ġdruk ke
Ġbeperk ingen
Ġst opt
Ġs w
Ġsp erma
ĠO ranje
at a
Ġdoor b
ĠB or
Ġdiagno se
L et
Ġs maken
Ġfa ill
Ġherinner ingen
Ġsier aden
Ġge stelde
ĠG G
Ġcond itie
gel ing
Ġgedeelt elijk
Ġontsp anning
Ġlig ging
on n
om pen
net werk
Ġte gels
Ġiniti atieven
Ġkn uff
Ġge we
Ġd a
G en
Ġf en
Ġland elijk
at eur
Ġgev ormd
ĠâĢ Ŀ
Ġst ort
Ġcontact formulier
ĠBe ste
Ġbevor deren
Ġwit h
ĠV een
Ġ ic
ĠTe am
ĠCent raal
Ġtoe stand
Ġ3 9
Ġtro k
Ġduizen d
Ġget uigen
ent jes
Ġaf k
Ġk oek
ownlo ad
f te
Ġver richten
Ġman ager
Ġb ond
gesch iedenis
Ġcam per
Ġsp l
Ġop name
ĠD am
Ġjourn alist
Ġkwalit atief
se izoen
Ġkandid aat
Ġo bs
ĠO ut
Ġbescherm t
p rijzen
gericht e
Ġspoed ig
Ġverl angen
Ġverg oed
Ġneg atief
v lie
igh ts
Ġgem ot
Ġp itt
Ġhant eren
Ġsl ijt
Ġp oging
Ġle zers
h ar
Ġsl aat
Ġnot aris
ĠIde aal
Ġvriend elijke
b uiten
ĠT our
Ġbedien en
Ġk eek
Ġmeen emen
besten dig
ĠAf rika
Ġgel ukt
im p
Ġdefin itief
ĠMeest al
oriteit en
Ġgen aamd
h en
Ġ4 2
Ġg o
Ġer kend
Ġz ang
Ġbrand stof
ĠR T
ĠS EO
Ġinge diend
h art
Ã© Ã©n
Ġsu pport
bij voorbeeld
Ġsch ulden
Ġver staan
eg elijk
Ġ200 1
y d
Ġc v
Ġverd ie
ab l
Ġt alloze
Ġmass a
Ġdesk undige
ĠV or
Ġont w
Ġpl aten
an y
Ġs essie
mper atuur
ĠAl bert
Ġged wongen
man ager
ĠP ap
b esp
Ġh oo
Ġaanbe volen
ĠM ob
Ġwereld wijde
Ġverm oeden
Ġp oes
ĠV erd
kom ing
Ġgetrouw d
Ġm ama
gen ame
ĠT ussen
Ġh als
Ġgep resent
ĠV ert
Ġin se
ĠN S
ĠDaar voor
Ġbesl issen
Ġnacht s
ĠOnt dek
ĠP ower
C l
z onden
ari um
' '
f sel
Ġjaren lange
bo sch
un e
ĠC B
Ġr its
ĠR os
av in
sec retaris
Ġde elt
Ġaan genaam
Ġboek je
men sen
all o
Ġwiss elen
Ġbesliss ingen
rek te
Ġ200 2
Ġsch oen
keur ing
Z elf
v elden
Ġj acht
Ġautom atische
inder s
Ġbalk on
Ġuiteen lopende
Ġarchitect uur
onder d
Ġvoorbere id
Ġwett elijk
riter ia
Ġv iss
ĠE rot
ĠMe de
Ġverl oopt
omen de
Ġk etting
Ġgesch eiden
Ġsch one
ke st
l u
Ġwaarde volle
ĠSt ar
Ġker ken
Ġdrank je
Ġbru iloft
Ġmedic ijn
ĠT ex
st oornis
Ġart sen
oe gt
f um
ĠR ober
Ġleu ker
Ġst oelen
Ġred den
Ġper centage
Ġaantrek kelijke
Ġv on
Ġuitgeb racht
Ġgevangen is
Ġvervang ing
zaam heden
erv eerd
Ġont slag
Ġbe werken
O W
s et
D F
Ġver geet
d it
Ġfig uur
Ġz eld
ĠT oe
te wel
iek te
Ġadvoc aten
sl id
ĠJoh an
Ġkap ot
ĠO oster
vl ucht
Ġpro te
Ġzo iets
ag ue
spro du
Ġconst ant
Ġmon ument
Ġving er
ĠM or
Ġonderste und
con st
Ġaansprakelijk heid
ers p
Ġverv elend
ater ialen
re Ã«
je ctie
Ġpromot ie
Ġbe wijzen
Ġga ven
Ġver plaatsen
Ġdipl oma
ĠMar c
Ġbi bliotheek
Ġc el
Ġh orm
Ġcoach ing
Ġhor iz
Ġgoed ge
us ie
plic aties
ĠW ell
l ach
ĠC D
ĠC am
9 8
ĠW ar
Ġmoo ier
ĠJ eugd
ent rum
Ġlichaam s
Ġverzorg t
Ġversch eiden
ijn se
ĠJ os
ĠWe ster
Ġul tieme
th ans
ĠK amp
a vanc
Ġaan sp
Ġschitt erende
oe it
Ġpark eren
n u
ich e
ise urs
Ġzorg de
7 6
ĠT ri
m ann
Ġoptim aliseren
ke uren
Ġop ger
Ġtal enten
Ġf ran
Ġw ets
Ġvroe ge
ĠJapan se
Ġbedien ing
ĠK leur
Ġreage ert
veil igheid
nel heid
Ġver kennen
Ġdoc enten
kn op
Ġvoor werpen
Ġze vent
ĠL u
ĠB oer
Ġc redit
Ġrij tje
ĠIJ ssel
ĠGro up
Ġonver m
ĠVlaam s
Ġin ner
on eel
Ġreser veren
un icatie
Ġuit zending
Ġuit ermate
Ġzit ting
G een
Ġverkeer s
Ġverlen en
pap ier
ĠIntern ational
den t
alist isch
ond sen
Ġversch uldig
Ġsp ringen
ĠC a
Ġover wegen
Ġg ooien
ian en
r ick
Ġer over
ij pen
Ġmaatschapp elijk
Ġbest rijden
Ġp u
ĠPro beer
ĠPr ins
Ġp ure
R C
u um
Ġoor zaken
Ġ ..
Ġmilj oenen
Ġan im
Ġconcent ratie
Ġact iv
Ġkan aal
Ġsch at
Ġoverw inning
Ġkor ter
ive aus
ĠR ond
orm aal
Ġstijl volle
st oelen
Ġbos sen
verh aal
Ġinbeg repen
y stemen
le ut
b els
Ġaf wijk
ĠRad io
uk te
Ġp et
Ġaan genomen
Ġbegele id
i aans
Ġform ule
Ġtemper aturen
Ġbij l
ist ers
ter t
Ġondersche id
Ġarbeids markt
vol gende
Ġs erv
ĠAmsterdam se
Ġovereen stemming
werk te
h uur
Ġverst uren
D S
Ġverh uizen
Ġsa una
ak ing
Ġc oc
H e
ation s
erkl aas
Ġalle bei
Ġcon form
te urs
wer ing
pro jecten
ĠBe stel
Ġkan alen
eg er
pr int
Ġdemon str
voorzien ing
appar aat
Ġdist rib
ĠV ul
Ġir rit
Ġde al
Ġw apen
Ġ0 8
ĠE conom
Ġuit kering
ond igd
g ronden
B A
ĠL at
Ġs urf
Ġlich amelijke
Ġadvis eur
stel veen
Ġgev arie
at erdag
T wee
ander ing
Ġke ih
Ġinge schreven
Ġindien en
T ube
B ek
Ġklass iek
ĠH igh
kw am
Ġe iken
Ġch ec
Ġgr ieks
Ġna denken
Ġuit gen
Ġh erv
Ġe ieren
ĠF orm
Ġgesch il
elat eerde
el ie
ĠV ader
Ġelekt ronische
Ġplek je
Ġv ee
Ġsl etjes
Ġbewust zijn
f ol
ĠD ijk
ite d
vert rouwen
R T
Ġre ist
Ġcontact gegevens
Ġafge stemd
Ġpro test
Ġm oord
se qu
Ġeven t
Ġlach en
Ġerf goed
br ief
Ġwerk wijze
con s
ir kel
ente gen
pl atform
Ġsp eur
Ġzeden del
Ġverz oeken
ĠOr g
ĠT ur
ĠCas ino
osc oop
ru b
ĠWord Press
u deren
ĠF oto
Ġpro st
Ġbren g
Ġt oren
B oven
Ġz aad
Ġinv ulling
Ġan oniem
Ġgereed schap
Ġcl ass
ĠV VD
ĠZ et
ann y
B ed
ro og
Ġin stellen
urk se
t op
Ġbetrokken heid
ĠO pt
Ġdivers iteit
Ġvest iging
Ġspir itu
A ut
Ġons zelf
Ġnauwkeur ig
ye ster
S l
Ġd im
Ġaf b
Ġonge wen
yc le
vrij heid
ĠGr and
i ven
Ġa ro
ĠA M
ro f
Ġvoor waarde
Ġwor t
persoon s
h uid
Ġvijft ig
Ġvol ume
Ġin bouw
Ġpre c
Ġvoor gaande
20 19
ĠGr oep
ol ven
pl annen
h r
Ġpot je
ina ire
ĠM ult
Ġna jaar
ac ks
Ġ6 00
c ap
Ġenthousi asme
Ġlock down
com p
Ġg ord
be handeling
maat schap
k ussen
cedu res
ĠM el
it al
d oel
result aten
Ã Ĺ
Ġp c
mel o
ĠOnder wijs
Ġwil le
at o
Ġrob u
Ġfe ite
ĠSt uur
Ġsch iet
it Ã©
Ġop eens
Ġvert aling
deel de
gang ers
re c
ĠInd ia
Ġrele vant
de x
ĠG rieken
Ġst ree
Ġle d
j aren
over en
Ġx xx
Ġver ze
ĠG eest
Ġver he
eu k
Ġtra c
Ġverhoog d
ik i
ig ratie
Ġt ellen
produ ct
dek king
Ġst oom
ĠEuro pe
P rive
ĠH enk
Ġon sch
id atie
ele foon
Ġhe ct
loc atie
Ġfys iot
Ġm iss
st op
spron g
Ġbacter iÃ«n
ĠInter net
Ġ9 5
Ġaf st
Ġkandid aten
ĠT ype
Ġl ing
a res
Ġlucht haven
Ġsex chat
Ġd ol
ist orie
sch ik
stel oos
ĠInd ones
vent aris
ash ion
Ġt it
Ġh ol
Ġplaat je
Ġvlucht elingen
] .
Ġh arm
Ġin s
Ġfr aaie
Ġbe stellingen
ĠCO VID
Ġged icht
ĠBel asting
Ġl ong
ĠH u
od igen
i aan
ĠG re
ĠTh omas
Ġdaar aan
ĠA mersfoort
se ks
Ġg al
ĠSm art
Â ´
ĠGr iek
ijf er
Ġrol l
ĠW i
Ġn oten
ru iken
Ġzon de
ĠZw art
Ġintens ief
b es
Ġbe houd
Ġuitgen odigd
Ġd ome
Ġor der
ur ity
ĠAn al
Ġaanwez ige
Ġconfl ict
Ġvergelijk baar
ĠP an
ĠRuss ische
Ġfac iliteiten
Ġdag je
sp ers
Ġh o
Ġgeble ken
Ġboven op
Ġjong ere
om men
Ġk am
k ijken
ied am
ad vert
Ġaan gifte
Ġuitge sproken
Ġuitgang spunt
gr aaf
Ġb ab
c ore
ĠðŁĺ ī
Ġmoe ders
ze ggen
Ġz yn
ĠgeÃ¯n stal
Ġzijn e
Ġp al
Ġget rokken
ele ken
F i
ĠA jax
Ġten slotte
l as
Ġ ip
Ġp iz
Ġg at
Ġl ic
Ġw ap
Ġbeschrij ft
6 8
Ġ4 4
Ġgepresent eerd
we ken
Ġtre ffen
y en
Ġs co
Ġcl oud
Ġmeub el
ro en
Ġopdracht gevers
Ġr aakte
Ġzo ete
Ġreview s
he el
Ġenig szins
id der
vers um
ie der
t rek
Ġbed den
Ġgevoel ige
bre uk
S S
c er
Ġzieken huizen
u aliteit
Ġontst ond
Ġkl ap
Ġflexib ele
n ij
Ġonge acht
Ġme vrouw
result aat
Ġdie per
Ġaanv al
Ġpl ug
Ġele ment
J an
Ġnag el
h tt
or b
Ġk ou
ist of
ĠHend rik
N eem
eef d
Ġt u
ax y
Ġl aden
Ġdoel stellingen
Ġfant asie
mm ers
Ġvan gen
bl oem
Ġaccept eren
uur de
Ġm ust
Ġdraa i
Ġb allen
Ġex act
Ġk eel
verk ocht
Ġindivid ueel
Ġde genen
aanb od
g res
Ġfact or
Ġhe cht
ĠT ha
Ġbeziens waardigheden
ĠH ong
Ġzeker e
Ġa udio
ĠK ut
den kt
Ġd urf
Ġresp ectie
Ġpod cast
ent ijd
Ġmat ras
ĠA ma
Ġl elystad
ĠAl mere
h orst
ĠA mer
rag ing
appar atuur
or ter
P O
Ġ 00
Geb ruik
Ġplots eling
Ġuit gest
z amer
Ġh aren
im enten
aand am
Ġhar der
Ġschil deren
b oog
ĠSurin ame
Ġschrift elijke
str ategie
Ġf ans
Ġw ijken
Ġvergro ot
vd A
Ġgemeenter aad
Ġv i
Ġv akk
Ġdruk te
u es
Ġafw ijken
Ġst uurt
Ġgeb oden
Ġpot entiÃ«le
Ġstud ies
Ġex p
Ġf ru
maatschapp ij
Ġf le
ĠW in
ĠH oo
Ġgr ip
Ġplaats elijke
ĠBra zil
v et
ĠZ eer
ĠR ij
sp unten
Ġm olen
un ction
E ER
Ġteken ingen
ĠT ran
rij p
Ġmaat regel
ĠP al
art ikelen
ĠiP ad
Ġ elf
Ġin sch
wikk eld
Ġbele ving
ĠHeer lijk
Ġdoor lopen
og els
ie ker
Ġge avanc
bet es
Ġverk oopt
Ġstu de
Ġsch ieten
Ġpap ieren
Z org
st ijden
ĠM att
ĠB ody
Ġij zer
Ġbegrij pt
Ġonbe kende
Ġd alen
Ġm ark
zi atische
al ling
ĠO P
sl uis
Ġruim t
Ġzen uw
ĠbeÃ¯n vloeden
Ġopvallen d
techn iek
werk zaamheden
Ġo e
Ġnat ura
Ġne gent
ri de
Ġmoeilijk er
le erde
Ġnutt ig
Ġre aliteit
ĠOpdracht gever
iet sen
V B
Z ijn
ra pport
Ġm aster
ĠYou Tube
Ġw etten
Ġru b
ĠSt art
ĠF ort
ĠD ou
Ġhers en
Ġmag net
Ġpro v
Ġna deel
ĠKl ant
ble em
Ġl abel
Af gelopen
ov id
rie ks
Ġd ader
ĠB ert
land s
ri Ã«n
Ġvoor heen
l oopt
Ġbezorg d
Ġinter pret
Ġuitge geven
Ġyog a
Ġv at
9 6
K B
Ġlu ist
ch er
Ġcons um
Ġing rij
Ġm aalt
Ġkn oop
oef enen
Ġuitge ver
Ġgeest elijke
Ġben adering
Ġbru ine
Ġveg et
Ġaanv aard
ĠR oo
ĠPl an
install atie
Ġpl ak
ĠL ive
ĠM aster
it utie
Ġinvester ingen
Ġl ak
Ġsamen v
arte ment
Ġelektr isch
Ħ ¢
verlen er
Ġdan sen
Ġsp ont
ĠC le
ĠN ot
Bek ijk
Ġ8 5
Ġdur ven
cont ract
w inkels
Ġwas machine
Ġon gem
y r
Ġgit aar
Ġraad ple
amil ie
Ġvakantie huis
Ġapp el
Ġmob iliteit
Ġsch uur
Ġvari anten
Ġsl et
ĠJ ouw
ings systeem
Ġsport ieve
Ġdesk undig
ĠZw arte
Ġkopp elen
Ġa gress
Ġint iem
Ġzedendel inquenten
ell o
ĠD uur
ver warming
m s
M isschien
aut y
ĠL ater
ĠW aal
Ġp h
Ġb randen
Ġtoev allig
Ġ4 6
at iet
20 18
Ġdi al
ler aar
ad y
Ġdok ter
Ġob jecten
ĠLeu ven
Ġkool hydr
Ieder een
Ġontb reekt
Ġmil itaire
Ġm al
Ġboet e
ĠLeu k
Ġtoevoeg ing
Ġindrukwekken de
Ġt alen
Ġselect eren
z oekt
Ġer achter
t ype
Ġvoorn aam
Ġvervaard igd
Ġrecht vaard
ann a
m i
Ġaan vang
Ġgewijz igd
Ġover genomen
Ġfeest dagen
! âĢĻ
Ġj ob
Ġsal on
hal f
rijk en
Ġb ruik
Ġb ied
ĠZ ou
Ġsche iding
Ġgev oerd
Ġbere kend
men de
mp ath
Ġvergelijk bare
Ġstil te
Ġopvallen de
Ġpat ronen
oort s
ra den
inst ru
Ġprof ielen
Ġover b
l anden
Ġcook ie
ĠF ab
Ġverbl ijven
Ġvro lijke
ĠB ig
Ġt ank
S P
schapp elijk
f estival
Ġnood zaak
Ġhuis houd
and aar
ĠF er
og n
ste d
Ġspect ac
Ġeil anden
ĠBl ue
we den
ron gen
z ett
Ġschilder ij
bec ue
l i
Ġinstall aties
Ġm r
Ġloop baan
ann ings
Ġl ippen
ude erd
Ġprofit eren
Ġdien s
ĠD igit
Ġout fit
Ġaltern atieve
ap el
Ġwel iswaar
Ġb is
Ġexempl aar
Ġat tra
Ġuit slag
ay s
ĠMan agement
ic ks
Ġaangev uld
Ġgep aard
Ġgeselect eerd
ik ker
Ġsn e
Ġt ouch
Ġd ure
Ġsc oren
Ġgel iefde
Ġl etters
vol and
Ġn est
ple zier
Ġkwaliteit en
ub ile
Ġover heden
eu len
form eerd
g ingen
Ġko zijnen
ĠGel derland
Ġver ont
Ġcon sequ
Ġmuzik ale
ĠW im
ĠEigen lijk
Ġged reven
ĠAn ne
Ġverwij zen
ĠS nel
Ġbeweg ingen
Ġk art
Ġton eel
is jes
leg ging
ir urg
Ġfin ish
Ġwacht woord
Ġchem ische
Ġver wezen
Ġa mersfoort
ograf ische
Ġsymb ool
Ġr un
Ġbe antwoord
E U
l ogen
Ġs aus
Ġten nis
z it
Ġplat te
Ġhoogte punt
Ġoorspron kelijk
Ġp oeder
Ġbeveil igd
we b
ĠA angezien
t ro
eg a
Ġvar iÃ«ren
pl anten
ĠTurk ije
co urs
m mer
Ġw an
om t
Ġs ong
ĠM ex
Ġstij gen
ĠKle ine
Ġreiz igers
Ġauthent ieke
ĠR om
Ġzak elijk
Ġaanwij zingen
j an
Ġst randen
Ġgoedkoop ste
Ġer kende
ĠW eer
ĠGal axy
l ast
Ġb uff
Ġbeveil igings
Ġemot ionele
Ġm aastricht
ont eerd
Ġdeel nemer
Ġheden daagse
f goed
Ġm antel
S u
it ische
j as
Ġboven aan
v as
Ġt urkse
Ġro ken
ont werp
Ġhuishouden s
Ġvoorbere iden
Ġfinanc iering
op h
zinn ige
uw d
Ġk eten
Ġil leg
Ġzorg verzeker
Ġmens elijk
sch aal
re de
ol ogen
7 9
eer ders
Ġinf rastructuur
ĠA C
Ġkrit isch
Ġshow room
v ader
Ġadministr atieve
pl o
Ġspec ialis
Ġpol y
Ġhoeveel heden
Ġle ge
ĠVer wijder
st aten
Ġont sn
b ellen
Ġverz et
Ġdun ne
Ġverbet erd
sch ip
Ġh aard
ĠO lymp
ĠgeÃ¯n spireerd
mot or
Ġuit gere
Ġken de
Ġongel oof
geb onden
bl aden
ch o
Ġsl aa
ĠMin isterie
Ġch risten
Ġp annen
ĠV in
v le
oer de
Ġp eil
ĠP op
jar ig
Ġkap itaal
C om
Ġcombin eert
Ġherinner ing
Ġar mb
a ff
af els
Ġv aart
Ġnog maals
Ġc d
vel op
Ġrespectie v
Ġverlie st
Ġzijn de
ruim en
Ġpubl icatie
Ġzelf de
Ġzelfstand ige
5 9
Ġcom pens
Ġst elling
Ġnet werken
Ġgew aar
Ġgeluid s
ĠGro ene
Ġverzam eling
Ġrelig ie
ĠN I
ĠCont act
p aal
w asser
Ġcategorie Ã«n
Ġess entiÃ«le
bren gt
Ġeen heid
ĠB ad
Ġanalys eren
Ġeind igt
Ġw ast
ĠJ ans
special ist
wor k
av el
ve cht
em and
Ġdank baar
Ġgevaar lijke
ĠO or
Ġ[ ...]
beeld ing
ool s
min istratie
he ffing
Ġcon ne
ag ing
Ġhand elingen
Ġgel open
ĠV e
Ġc ellen
ĠV ier
Ġb reken
Ã¼ r
Ġp oÃ«
Ġger es
Ġeer lijke
Ġover leven
sh irt
Ġduur der
Ġf ile
Ġgez ag
Ġst orm
Ġverrassen d
Ġgevoel ig
Ġveren igingen
Ġvlucht en
Ġherinn eren
k m
t ocol
i od
Ġmin imale
E K
ĠVeil igheid
V or
ic ale
Ġseks film
Ġjur y
Ġtoen ame
g ings
u un
ĠAp eldoorn
ĠB MW
ĠU r
Ġmaalt ijden
Ġweg ge
be veil
Ġpolit ici
ĠT egelijk
itt ing
Ġre inig
Ġa gent
d rukt
Ġgez orgd
Ġill ustr
Ġverzend kosten
gele gde
ĠE gy
T och
ĠInst ituut
Ġsug gest
Ġwaar over
Ġpost code
Ġsteun en
Ġch ronische
Ġinst ructies
Ġinse cten
Ġle idde
Ġont wer
ro g
ï¼ Į
act ief
Ġartie sten
Ġke us
Ġg iet
ĠK r
Ġd orpen
Ġlangdur ige
st ij
met h
sch oten
ĠF ree
Be ste
Ġextre me
Ġwerk plek
ific eren
Ġt ol
Ġgroeien de
ele ens
ĠN V
ĠP rem
h i
com fort
Ġt reedt
ik ing
Ġlaag ste
st ud
ist ieken
ĠL ux
Ġstand punt
ĠW eten
os itie
Ġbe kl
ĠBer n
Ġvij and
Ġkleur rijke
Ġbestuur ders
ĠV ers
ster ren
ale is
hoog te
h oorn
Ġro om
ĠN ationaal
ĠK ru
Ġh aalde
Ġde f
ĠSex date
Ġgezondheids zorg
L A
Ġ id
a e
ĠRober t
Ġvennoot schap
Ġont houden
Ġna vig
Ġaan gelegd
Ġachter zijde
ĠP re
Ġgec reÃ«
v or
Ġgez ins
U T
Ġgrij ze
Ġhe k
Ġopbreng st
ĠN ic
r ang
Ġgar ant
Ġuit gelegd
Ġopl open
ĠGriek se
ĠSchip hol
Ġa qu
R M
ro kk
ĠThuis ontvangst
Ġhon ger
ĠFran c
Ġsc enario
" ]
use a
ĠS S
Ġbinnen kant
Ġseni oren
Ġverkl aren
Ġlat ere
Ġe s
er zijds
Ġen zo
Ġover le
et re
Ġsex afspraak
Ġdisc ipl
Ġw ink
geven d
len de
Ġc ab
ĠcreÃ« ert
Ġop zetten
H uis
Ġpas vorm
opper vlak
Ġinc ass
ĠI ets
ent er
Ġbereken en
Ġaandoen ing
Men sen
com plex
Ġvlak bij
k eten
ĠE t
Ġstab iel
n y
der ingen
Ġingev uld
oe iend
M ocht
iÃ« rs
ĠD ikke
ĠR ab
Ġw aan
uden ten
ĠT al
weg ingen
Ġkl oppen
Ġg elijke
Ġon rust
Ġsl agen
Ġw eleens
CH T
Ġk alender
ĠII I
er otische
wij zing
Ġc rÃ¨me
Ġm ouwen
ass ade
c ul
Ġflexib iliteit
Ġp oort
R I
Ġfot ograaf
Ġrij bewijs
Ġsch ol
Ġbesch adigd
v i
Ġinspir erende
Ġsign aal
Ġmont eren
ak es
Ġc rypt
Ġsfeer volle
ĠR ich
B eg
ĠB aby
Ġ ï¼Į
Ġte gel
Ġun i
Ġdaar entegen
Ġin zien
Ġbe houdt
Ġsp elletjes
Ġred actie
ĠgeÃ¯nstal leerd
ve zel
Ġamb acht
ell etje
Ġparkeer plaats
Ġverg eleken
Ġk ippen
Ġgest opt
Ġo osten
ategorie Ã«n
Ġverrass ing
adres sen
on line
ĠC ast
v ee
ug de
Ġp auze
ĠV O
schal ige
ac count
kun dig
zen de
U N
be en
Ġv id
Ġwetenschapp ers
S oms
Ġmee gemaakt
ĠM oet
ok t
Ġ0 1
anc eerd
athol ieke
ubile um
ator s
Ġfit ness
ĠBer lijn
, âĢĻ
Ġhoog st
Ġregistr eren
Ġkaart je
m eter
Ġm unt
Ġappl icatie
ĠL icht
N adat
aad jes
Ġaf sch
Ġh am
Ġvertrouw de
Ġhuis vrouwen
Ġb ou
Ġget u
Ġverdw ijnt
Ġk eert
Ġaf wiss
m oed
ple kken
ĠL ie
Ġstij ging
Ġk al
5 8
Ġsp ijt
ĠSte en
kaart je
un nel
spro blemen
Ġbez oekt
Ġover dag
oo ks
sch op
anal yse
iet ers
Ġser ver
M an
ĠÂ °
Ġl ap
il s
Ġver zenden
hebben de
Ġverspre iden
Ġ18 0
ĠT ro
Ġjong ste
ite cten
Ġhond jes
Ġ4 3
ĠE st
ig den
Ġm asse
Ġmagaz ijn
Ġstij ve
v oeren
d ij
Ġk ids
Ġst or
ain ment
Ġaf f
ĠHier in
ĠMich ael
Ġonbe kend
ats app
re izen
Ġh oning
Ġpre d
Ġon aan
Ġverb ruik
Ġnaar toe
Ġjar ige
Ġmy ster
Ġh Ã©
S C
ĠEn schede
Ġprofession al
Ġm uis
Ġgem eld
Ġovereen komsten
Ġant werpen
Ġis ol
Ġken n
ĠTurk se
Ġto ur
m ag
aaf d
ĠJoh annes
ĠH out
Ġf eder
Ġm er
Ġse ctoren
Ġverw ar
Ġinstru menten
Ġf t
Ġzuur stof
: ï¼ļ
7 2
Ġarm oede
Ġker am
y a
w art
Ġch eck
Ġelekt ron
t age
Ġm eren
Ġvoor ziet
ick ers
Ġ4 9
Ġsch rik
houden de
ĠJ uist
ĠH al
dr ingen
mat ische
d f
Ġc um
âĢ¦ âĢ¦
ĠM as
Ge plaatst
of look
isse ment
ĠWor dt
ĠW K
Ġexpl oit
Ġvoor be
Ġvoort aan
f en
ont je
Ġwe sten
Ġbasis school
Ġwen nen
ĠGe woon
Ġtegenst ander
Ġnad elen
spel er
Ġzie kten
Ġintro ductie
o ir
eer s
pe ct
un ing
Ġben ader
Ġcertific aat
maat regelen
elle ct
ĠJac ob
Ġvoor kant
ĠGen iet
O r
Ġkr anten
Ġuiter ste
ree uw
Ġwaar dering
Ġbedrijfs leven
Ġvit am
ĠAf hankelijk
Ġbedoel de
Ġp ay
¿ ½
ĠM ol
utt ing
ĠE C
ĠT uin
Ġschilder ijen
Ġbet alings
p al
Ġverb rand
Ġk ring
os met
Ġbeschikbaar heid
Ġhoor n
ĠA mb
â Ħ¢
Ġuit gaven
Ġverk le
Ġfot ografie
Ġwor k
M O
Ġaan slag
af deling
Ġred elijke
Ġeiwit ten
Ġkant oren
Ġgew aarde
il it
ĠBest uur
ĠCl ass
Ġbi ologisch
oed el
t ocht
ĠEn kele
Ġl ui
ond ition
geb roken
verb inding
ber ichten
Ġgoedge keurd
v aar
E P
Ġdatings ites
Ġprett ige
Ġfil me
t r
ost ing
S h
ĠProdu ct
Ġbij eenkomsten
Ġgrond stoffen
Ġh itte
front eerd
ge halte
sp ir
oc i
Ġarch ief
ĠWe et
gebruik ers
vol ution
ar ds
ĠF it
ĠG eert
Ġstu deren
st a
Ġpast a
Ġres erv
Ġsch ouders
F C
ĠW all
og a
Ġzui ver
le menten
Ġk aal
Ġle zing
ĠAustral iÃ«
ĠSp eel
Ġlied jes
Ġpersoonlijk heid
Ġmaat je
n ummers
ĠV N
C ont
Ġfr ont
Ġk oos
Ġinge schakeld
sch at
ce des
Ġminer alen
nieuw s
Ġwille keur
pen d
ĠH um
d is
Ġop richt
yt ics
advis eur
gr oei
Ġsch uim
Ġgele verde
giÃ« ne
Ġde eg
Ġver wel
c amera
Ġbeweg ings
re ur
ek ra
Ġpartic uliere
pleeg d
Ġk raan
Ġdiam eter
Ġmed icatie
Ġwaarb orgen
b it
ĠBrug ge
Ġmis l
fab riek
eu ten
sprodu cten
V rij
gez ondheid
f ul
S M
Ġl ieten
W V
Ġster ven
E A
Ġprob eerde
Ġverv uil
Ġinf ectie
st erk
Ġhuis je
ers on
= >
Ġtra ppen
m eren
aa it
Ġt herapeut
kan aal
ĠTegen woordig
Ġaan hang
Ġter men
bere ik
Ġmil itair
Ġmarkt en
Ġrad i
Ġpass ag
v ocht
ad ijs
Ġwerk dag
Ġspuiten d
Ġgod s
Ġben oemd
ĠR utte
Ġdownlo ad
Ġfavor iet
waart s
Ġaanv allen
T h
7 3
Ġnoodzak elijke
kr ant
ĠB ox
Ġplaats ing
ag nes
ĠP vdA
Ġsl avin
Ġk ra
Ġerv aart
el a
Ġl enen
iv ing
ak s
Ġachter uit
ro de
Ġz y
Ġk it
Ġbr il
Ġbeoord elingen
Ġcont rast
Ġtweede hands
Ġclub s
Ġcomp acte
im mel
ĠPl aats
Ġasp ect
Ġals ook
oof de
Ġglim lach
verg adering
Ġverle end
be urs
Ġintro duc
r int
Ġsc ore
le en
ĠJ ack
ĠDe c
ij er
Ġop recht
z iekte
ele id
Ġongev al
or ge
Ġkinder opvang
Ġgeb onden
Ġaangek ondigd
Ġmod ule
Ġaanp akken
og ingen
zw em
Ġperson ages
ĠD utch
Ġaandoen ingen
Ġgecon fronteerd
sh ow
aat sen
Ġuit gaan
wacht ing
ul a
ĠG et
Ġopmerk ing
z ine
Ġkut ten
Hier onder
sch ema
Z oek
Ġdos is
ĠJ oden
Ġtoet s
Ġlid maatschap
Ġm akelaar
ĠD ub
Ġha ha
Ġonver get
Ġa st
aa ier
be zoek
stel t
Ġkwart ier
Ġtrend y
ire cteur
ĠSch oon
b omen
Ġsamen werkings
Ġa gen
Ġstaan de
Ġm ore
Ġoefen ing
ar isch
p op
Ġs ommigen
dem ie
Ġover dracht
Ġc art
ĠgecreÃ« erd
of te
unt ain
d room
chten ds
T M
Ġrespectiev elijk
o be
s ole
5 6
ap s
Ġrepar eren
Ġer naar
ide os
ĠW itte
Ġ( âĤ¬
st uren
Ġgrond ig
AN D
Ġraadple gen
T C
Af rika
ĠK ing
Ġtax i
Ġh inder
Ġa mper
im men
S te
sp iegel
st ok
m aterialen
Ġze il
Ġe st
Ġvert el
ĠL ange
Ġvru chten
Ġin kt
Ġbeh aald
Ġstr ing
Ġra s
Ġap eldoorn
ect ies
ate urs
Ġd uit
ĠVan wege
aa dt
st ructuur
ind elijke
Ġc oll
Ġverl iefd
gen oeg
Ġk alk
Ġgl ans
oet sen
Ġfisc ale
f a
rol len
hou se
Ġs oft
I F
Ġl i
Ġonder staand
IV M
ĠPro vinc
Ġbo sch
Ġwekelijk s
ĠH ele
Ġkort ings
O V
Ġe v
Ġvorm geving
ĠL ok
Ġgem en
Ġversch ijn
Ġopge geven
r oef
Ġopbouw en
ver ancier
Ġmond kap
Ġgenees middelen
el oze
Ġmed ium
ver ingen
Ġintens ieve
Ġres ol
ke uze
ĠS hop
Ġom st
ĠTw ente
be staan
ĠEn ergie
ĠDrent he
techn ologie
ĠM eester
Ġver du
b ook
Ġverb azing
Ġvert alen
Ġbru id
Ġtom aten
wij zer
Ġtyp ische
Ġverst erk
ĠV eg
Ġsch akel
at ed
Ġgemeen schappelijke
Ġuit spraken
ins el
ĠC ultuur
iss er
Ġh oopt
ĠU V
w ood
Ġn as
ul ering
ĠS j
Ġcomp uters
Ġzelf vertrouwen
kop p
Ġvoor malig
orp or
isse ur
Ġch ar
Ġinter actie
Ġver rast
s ite
me isje
akk oord
ĠD irect
Ġken teken
ĠLe ague
ĠKle in
ĠBed rijf
Ġduidelijk heid
M I
tre ding
ĠS ing
Ġz one
Ġble ven
on ische
bron nen
neu zen
Ġf acebook
ĠL ight
ĠV andaar
u ge
uit je
d igen
Ġw is
Ġverm oeid
Ġt ong
c ert
Ġverschillen d
Ġpsych ische
or inchem
ĠBl auw
Ġbar becue
ation ele
ĠM at
Ġgeavanc eerde
ĠE P
Ġkr aam
u gels
be weging
Ġlangdur ig
Ġhand leiding
Ġonder b
Ġkn oflook
Ġfund ament
Ġaan gename
verzorg ing
Ġsex e
Ġherken baar
Ġtoel ichting
et sen
igr anten
all y
On danks
Ġaansch affen
ut ter
Ġkilom eters
Ġomgev ings
ol o
Ġsn ij
ĠAn na
kamp ioen
Ġeigen aren
W h
ĠEU R
ul dige
he s
Ġintegr atie
H ome
Ġb uis
form ance
Ġaf wez
20 17
Ġplaats vindt
g n
ge in
ĠB a
ĠC DA
Ġc aravan
ĠJer oen
Ġp akt
Ġt ime
v es
ran ken
ind a
Ġdem ocratie
Ġdis play
Ġbre in
Ġuur tje
ab on
P er
Ġhuis artsen
Ġuit zien
Ġtoenemen de
sl ot
il and
M ooie
Ġkol on
ĠAnt on
7 1
Ġw ifi
schillen de
Ġf i
Ġuitdruk kelijk
ĠSt udio
ĠT rans
Ġg reep
pr oef
aam se
Ġen de
Ġpol yester
m useum
Ġuit gave
Ġh oven
ut phen
Ġaange paste
7 4
ver halen
Ġcont ainer
Ġro er
Ġknap pe
Ġmen ig
is eerd
Ġer om
Ġvijft ien
Ġmot oren
ant isch
Dank zij
Ġopper vl
ĠZ weden
fl ix
j o
Ġbel and
Ġbesch rijven
Ġuit zend
uss entijd
Ġvooraf gaand
K ijk
part ijen
Ġgekleur de
Ġpakk etten
anis me
Ġhy per
Ġverm elden
Ġsh irt
ath on
itt ers
Ġget al
Ġw ielen
Ġexempl aren
aan den
ĠR est
dr at
ĠPriv acy
Ġgaan de
Ġstij gt
ĠCent er
Ġged ichten
Ġgeb akken
Ġt ouw
Ġa ud
ĠBur ger
Ġvriend schap
p rest
Ġcade aut
Ġw ijd
Ġmeer waarde
Ġsn ijden
Ġbesp aart
Ġmin st
Ġas iel
kt ail
Ġbinnen stad
Ġwiss el
Ġuite indelijke
Ġlet sel
ĠT or
Ġb io
lo se
Ġuitnodig ing
Ġdek king
ĠPro ject
Ġl ip
h onderd
Ġ9 9
Ġtussen door
Ġv ie
at ers
Ġtuin en
Ġin koop
Ġmosl ims
ĠSt r
Ġolijf olie
Ġsc ala
ar ken
Ġe del
G em
Ġkwets bare
ĠM uziek
Ġfunction aliteit
Ġinter actieve
Ġbesch eiden
Ġsex cam
ific eerd
Ġgezell igheid
_ _
Ġbij stand
d rukken
Ġc all
Ġdecenn ia
Ġtro p
is a
ĠE g
ĠPale st
ĠEx tra
Ġb illen
Ġloop tijd
el pen
Ġdan ken
Ġgecertific eerd
man nen
Ġbe ker
Hel aas
f an
l len
ir ts
Ġ8 00
gev eer
Ġ[ "
Ġst al
att ingen
Ġconc reet
Ġpl akken
ĠM ore
Ġbuiten kant
mm ingen
? )
it je
8 6
iss aris
qu es
Ġschoon maken
sp ot
ĠW agen
ĠGe schikt
Ġcal orie
amp oo
ver koop
"] =>
Ġwet houder
Ġlijst je
Ġover heer
Ġpl ay
Ġzo cht
Ġverh uizing
cel ona
Ġvoort vl
Ġover nacht
wekken d
Ġkle ed
Ġ4 1
eer ste
ĠMich el
ĠJe an
Ġderg elijk
Ġdia betes
ĠR ode
Ġcompon enten
Ġris ic
Ġru il
prof ession
Ġgem eten
iz oenen
ĠS and
Ġn aad
Ġtoer nooi
Ġn ut
ĠR VS
publ iek
Ġk elder
ĠH oll
ass elt
Ġuitge werkt
wee d
st raf
ac cept
Ġsluit ing
ĠD J
Ġko steloos
Ġs ig
b anen
gesch ikt
Ġdeb uut
l ag
t rekken
Ġrecht e
ĠChe ck
oefen ing
Ġtoegev oegde
Ġb inden
Ġaan leggen
Ġaft rek
per kt
ĠL i
Ġvoor geschreven
men d
Ġb oel
Ġnieuwsgier ig
Ġbetaal baar
v reden
b aden
inder d
ĠEr g
Ġgespecialis eerde
-- --
ĠH an
it z
Ġant ib
Ġc riteria
zinn ig
ĠT ien
Ġb rouw
Ġs essies
Ġc over
Ġdorp je
Ġdw ang
w achte
Ġ att
Ġ5 6
Ġjon ger
5 4
s amen
Ġdire ctie
Ġveg an
Ġind ic
Ġin cl
oploss ingen
ed te
Ġaanget oond
Ġ199 9
Ġuitge k
Ġverhoog de
autom atis
Ġvert aald
Ġh erk
ĠL aten
K ort
s huis
ĠW ees
Ġcon gres
ĠH ard
Ġe duc
um m
ĠZ oekt
ĠD a
Ġverspre iding
Ġfunction ele
acte ur
Ġverw en
curs us
sje ch
Ġof tewel
Ġboven ste
ĠPhil ips
Ġsterk te
Ġweb winkel
ĠCan ada
on te
Ã© e
ĠB ro
ĠIn f
ĠF estival
Ġin gebouwde
zie kten
iele den
ĠU p
Ġperc eel
Ġgl an
U iter
Ġverwij st
Ġt ruc
ge veen
Ġaccount ant
Ġinz age
is olatie
Ġom schreven
ijn e
er ingen
Ġmon itor
u ip
Ġgek l
Ġaanpass ing
ĠSint erklaas
sch aft
Ġer toe
ok e
Ġserie uze
ĠT em
Ġplaats gevonden
ill s
Ġde venter
Ġaanra king
Ġwoon de
Ġget ra
ex t
dien ing
Ġmij zelf
ele menten
ĠC it
de uren
Ġer kenning
Ġh il
anc y
ect or
ĠV oet
sche iding
Ġtext iel
% )
Ġontwikkel ings
i os
Ġsl otte
Ġpiz za
b ied
ron de
oun dat
Ġoverzicht elijk
ort h
Ġheil ige
atal og
Ġcar nav
oploss ing
tert ainment
ĠD NA
Ġsl ip
oel t
st ru
m os
b oel
Ġdu o
Ġtyp isch
ad den
ĠR IVM
ĠL ib
Ġstim uleert
ĠR ock
Ġgem onteerd
Ġver ant
gele verde
Ġadvert eren
ĠZ and
Ġonder kant
Ġspec ificaties
20 16
Ġles bo
C C
Ġlo sl
ell ant
Ġint ellect
ĠP ay
sb etre
Ġverschil t
Ġtijd schrift
Ġvert rokken
Ġtoon aan
Ġvriend innen
Le kker
Van uit
ub sid
b at
hoe wel
ar be
vorm ige
Ġw anden
h anger
Ġonderling e
k o
Ġmas ker
Ġr aar
Ġwaarde vol
Ġvor dering
H eel
O D
ert jes
Ġm usea
Ġbev alling
l ijsten
ĠJ ava
Ġch amp
i cten
ĠMer cedes
lecht s
Ġvoort gezet
f ch
Ġde sbetre
âĢ¦ )
Ġovertu igen
Ġ199 8
Ġlopen de
men u
ol den
w ust
ĠLeeuw arden
ĠN aam
Ġmiddel bare
der de
teken ingen
Ġleerk rachten
bin den
Ġinner lijke
Ġchau ffeur
ĠCh amp
Ġz Ã³
Ġt ak
W S
au x
Ġk ers
A K
Ġn ationaal
ur m
Ġeconom isch
ang bang
Ġverv allen
Ġdatab ase
Ġvol komen
ĠgeÃ¯ sole
ĠBelasting dienst
N aar
Ġsm alle
ĠGrieken land
Ġroute s
w a
ĠKonink lijke
re inig
Ġz ilveren
Ġ5 2
Ġfra ctie
ff er
b akken
U n
Ġde aler
Ġex port
Ġzol der
ĠR el
Ġhistor isch
ess or
T E
Ġn ar
Ġged uld
Ġble ss
Ġw ou
be p
ĠWe bsite
i els
L I
Ġro ck
Ġcam s
Ġaf z
itie ve
ker ij
< /
ĠM anu
Ġbese f
Ġwaar deren
Ġgroot e
Ġj ubileum
Ġgoed keuring
Ġler aar
Ġaf voer
Ġaanbie der
Ġp iano
racht ige
Ġonder gaan
Te gen
o gens
Ġdui ken
8 9
Ġin k
bed den
Ġgunst ig
Ġsollicit atie
Ġdw ars
ĠB at
Ġlever de
Ġgemeent elijke
Ġonzeker heid
le zen
Ġwat erv
Ġlab or
Ã¼ n
te mperatuur
Ġint ussen
Ġs ilic
Ġkru id
Ġn al
Ġma rokk
h ow
Ġgebeurten is
Ġbij passen
Ġveert ig
ĠS il
Ġgeregist reerde
Ġcol umn
z ig
Ġaf sluit
Ġduur de
ĠS ant
Ġont ving
Ġ6 4
Ġgener aties
Ġex acte
Ġgrapp ig
ag og
ĠW oon
ug al
Ġas best
Ġs in
Ġbl onde
Ġinsp anning
ag in
Ġgem ist
Ġdie f
, .
kl ok
Ġverplicht e
Ġsch ema
Ġverzeker ings
we ven
Ġlu x
Ġvert rekt
ĠJon ge
Ġbij werkingen
Ġh opelijk
Ġdem ocr
ĠOnder zoek
Ġhoog waardig
Ġin gevoerd
Ġreg ister
z oon
pp orten
Ġlief hebbers
ee g
Ġz uin
Ġpar fum
Ġbeh ang
Ġverl agen
Ġbekend ste
gro ot
Ġpan elen
Ġdesbetre ffende
Ġtre ft
Ġnag els
Ġreg ie
Ġdro gen
u et
Ġschad elijke
Ġk oor
Ã¶ per
Ġg un
ocht ers
Ġblog s
Ã© Ã©r
Ġin schrij
fil ter
p oeder
Ġal thans
w ille
Ġk alm
Ġgez onder
Ġpr ikk
ĠBe ach
ĠN ational
gro en
Ġp all
Ġaf spreken
Ġeind eloos
ĠV ideo
Ġt ur
Ġuit leggen
cl ass
5 3
over d
Ġfil ters
ĠAl tijd
Ġop zoek
sen de
Ġw ier
h o
Ġmassages alon
Ġdaar uit
In ter
Ġrec ord
Ġleg de
v orens
il i
Ġuit komt
Ġvak ken
oc key
b as
z amen
f ace
Ġm aagd
g irl
zu iger
Ġlie pen
is ende
Ġont l
Ġvoor zijde
b esluit
ay a
j obs
Ġl oun
Ġim port
Ġricht lijn
Ġdoel stelling
ĠH ot
bo dem
Ġap plicaties
Ġople vert
Ġch a
A V
ĠT r
Ġde ksel
Ġstren ge
Ġuitbre iden
o ire
om een
Ġtranspar ant
, ...
Ġsch affen
ĠAl kmaar
wedst rijden
ĠT el
Ġop geleverd
Ġk ocht
ĠMaar ten
Ġair co
s hop
i als
Ġt abel
Ġhard lopen
Ġan ale
uik er
ill on
Ġde pressie
Ġrest aur
ĠG raag
ER S
oundat ion
Ġmin im
Ġop gave
c ertific
pp els
Ġrelig ieuze
ĠV ast
g ord
mat isch
ĠV eld
Ġsign alen
d ak
b anken
ver wege
nieuw e
Ġaange houden
ne p
Ġmann elijke
Ġsing les
houd ingen
Ġverkl aart
Ġvle kken
Ġplan eet
Ġventil atie
beveil iging
ĠG T
ĠD ieren
Ġleer de
m olen
ĠBar celona
ron ken
Ġrecre atie
Ġvert raging
Ġgeleid elijk
Ġvolg orde
ĠS ter
Ġrub ber
Ġvl oei
Ġc irkel
sb el
Ġkn ip
z y
Ġt ussentijd
Ġsl oot
Ġge staan
Ġvoor keuren
ĠM eld
ĠAn der
ĠMe ch
ĠL os
Ġamb ul
p ool
Ġcont ro
l ampen
w ijn
Ġautom atis
Ġbetrouw baarheid
Ġpro cedures
Ġhier na
ĠD irk
Ġbes met
Ġvoor sprong
Ġar rest
Ġop slaan
ver slag
ĠD om
Ġm ill
Ġkwets baar
u el
Ġverl ang
reg io
ĠVerg elijk
ĠB ou
g ras
Ġschade vergoeding
C A
ĠG old
Ġro y
Ġler aren
rag ers
app ing
ĠS o
Ġv elden
ge deelte
Ġde ment
Ġstijl vol
Ġverze keren
Ġverbet ert
Ġprevent ie
ĠT on
Ġv oeden
Ġgeb roken
Ġcon cl
Ġverv elende
ian a
sc ont
Ġvracht wagen
el ings
ĠIn formatie
ĠbeÃ¯n vloed
Ġser ies
ol ang
Ġo k
Ġvirtu ele
Ġweer s
rek ing
f olie
Ġwor tel
Ġm g
ver andering
ĠL ab
onder steun
Ġple in
c us
c ultuur
Ġgel ooft
Ġimplement atie
Ġgebruik elijke
Ġleider schap
ĠX L
Ġaard be
6 9
qu Ãª
Ġgelden de
ĠI V
dacht e
Ġverval datum
ĠBeg in
p o
Ġt ar
Ġ4 7
Ġex plic
5 1
om standigheden
Ġsnel weg
Ġent ree
Ġb aar
n oten
oep ass
eer lijk
stand aard
Amerik a
ĠB ob
Ġver ste
Ġop komst
B I
z orgen
Daar om
Ġop richting
Ġhoe s
t a
rij ving
ĠN ov
b u
ket el
sk i
Ġople idings
oord eling
ĠEle kt
win st
part ner
il ity
Ġ rouw
Ġongewen ste
Ġind icatie
Ġdru iven
st appen
Ġment ale
ich aam
Ġbe oog
Ġverb indt
ĠW ol
cap aciteit
6 4
Ġth ans
Ġloodg ieter
Ġuitdagen de
Ġaltern atieven
ĠZ oet
Ġom gek
Ġst aten
ĠHar ry
Ġverl oor
ĠH oek
akel aars
Ġrecept ie
Ġsu pp
af val
maat je
ĠL aur
C D
N V
riÃ«n t
ran en
Ġt um
we i
az ine
ste ken
ĠEr ik
Ġschool jaar
ĠB reng
Ġaange eft
Ġschil d
Ġn ale
Ġk roon
Ġonver wacht
m atiek
Ġver men
Ġstuden te
Ġtaf els
Ġopge haald
k undigen
Ġc ul
Ġversch rik
ĠMin i
Ġbelast ingen
l ippen
veren igingen
Ġteken ing
ĠM ach
Ġtab l
ĠHolland se
Ġd ordrecht
kop e
Ġk ond
Ġh aat
Ġst ik
ĠBer gen
ĠJ ustitie
Ġgrond slag
Ġwor st
ĠHeer en
Ġtoe stellen
Ġgroe ide
Ġdefinitie ve
Ġind eling
Ġb om
Ġs ervices
Ġb orden
ĠProf ession
wer f
alis eert
Ġgew assen
v ige
Ġp oten
isc ipl
Ġhier aan
Ġbep aling
tre ffen
Ġaut over
Ġlast ige
Ġzest ig
f eu
Ġo chtends
op e
ĠAn dr
Ġger oepen
Ġman ifest
Ġverst uurd
iÃ« r
ĠDaar in
ijken isse
Ġverrassen de
Ġvoor gesteld
ĠG eld
ĠC at
? !
el aars
Ġa k
Ġkrit ische
Ġbe waar
Ġkl ooster
3 00
ĠT ru
Ġbetre kken
iv a
Ġv s
Ġsp rook
Ġn achten
Ġhuis dier
E ven
ce aan
Ġro k
Ġhand matig
Ġfabrik anten
ĠL as
Ġs int
Ġleeuw arden
ge est
Ġvermeld ing
Ġklein ste
Ġter ror
Ġhuur der
Ġwerk plaats
Ġfles sen
ĠWh ite
N S
Ġpar as
Ġrob ot
ĠF rie
Ġbl ond
Ġtoer istische
Ġreser ve
Ġproduc eert
Vl aanderen
geb ruikt
Ġimm uun
ra ge
br iek
Ġander zijds
Ġgene zen
Ġst reng
Ġmarokk aanse
h u
Ġpersoneel s
weed se
Ġfru str
Ġaank ond
Ġwerken de
Ġkort ingen
ĠS un
ĠM arketing
lei ders
Ġp ower
ĠV it
Ġk oeien
ĠL am
Ġverb od
Ġol iÃ«n
Ġaan d
X L
Ġbetrokken en
ag n
b rood
Ġfig uren
Ġsch ok
ĠSch ot
Ġna genoeg
Ġpornofilm s
Ġc ity
over zicht
Ġin ventaris
Ġv o
Ġstab iliteit
ĠefficiÃ«n te
Ġfilosof ie
Ġgel aten
Ġvre es
ĠK waliteit
z uren
og ram
duc eerd
6 7
ste chn
m elden
ĠN ij
Ġgeb oekt
Ġt ypen
op s
Ġinlog gen
ĠM ari
D uit
Ġru sten
op te
w eld
Ġbij en
ĠH P
Ġk ro
be stemming
ag el
Ġoverl ast
ĠB ay
colle ctie
Ġge acht
ĠOnder tussen
v ia
Ġsch ot
Ġadvis eert
ĠB itcoin
9 7
ĠM erk
Ġleven sl
Ġpartic ulier
Ġafspraak jes
Ã ĥ
Ġbund el
Ġmantel zorg
ings vermogen
Ġkunst werk
ĠJ as
ost a
Ġaf l
Ġwel l
ĠP olen
gev ol
Ġram p
Ġhoriz ont
v eer
E E
Ġcruc iaal
Ġn ul
N C
ĠB ijna
ieken huis
8 7
. :
Ġtick ets
Ġbenad rukt
Ġtoege kend
Ġsch oot
ĠVi ctor
Ġjurid isch
ĠI m
b ride
Ġvere iste
ron k
T V
Ġvertrouw d
k ool
Ġkoff er
ĠWell icht
w oud
Ġup dates
it iek
ĠK ees
B et
Ġaank open
ĠW O
Ġn iveaus
Ġaf gest
Ġover k
ĠF le
Ġben aderen
ĠOver ijssel
route s
Ġw rijven
W or
Ġkok os
Ġbur n
S ommige
ĠDe m
Ġor aal
Ġvaat wasser
Ġopening stijden
d ad
w ind
ĠK or
ĠNet flix
att eland
Ġelekt ro
j on
ĠR ol
Ġvers ies
Ġul tra
g ment
Ġwap ens
bet aald
un k
ĠPaul us
Ġlucht vaart
Ġeleg ante
ran de
eeuw en
Ġper iod
Ġd rijven
Ġh oed
re ert
Ġonmis baar
Ġme st
art ikel
Ġgebruik elijk
Ġp aro
j et
ĠP en
Ġne w
Ġl ukken
ĠH all
Ġv res
Ġhen gelo
ĠR omein
Ġvoedings stoffen
oer den
5 2
st aal
ĠSa int
L M
Ġsch uil
Ġsn oep
ĠK ruis
uil ding
ge houden
Ġarbe iders
Ġverzeker aar
Ġmeng sel
ler eerst
Ġgl uten
fig ur
Ġleven de
ĠDis ney
Ġl ine
vang er
Ġhulp middelen
Ġvari atie
g angen
Ġde ss
Ġkeih ard
ĠS on
Ġt oed
l or
d on
Ġovereenkomst ig
Ġdecor atie
Ġveroor deeld
ĠZwits erland
ge er
Ġpas poort
E er
] ,
Ġhoog leraar
Ġbeg roting
ĠMot or
ĠStand aard
Ġmass aal
a ult
Al les
uit ing
m ob
Ġop gelegd
Ġwink elen
Ġon duidelijk
Ġstem ming
c al
ĠAn n
be ur
ĠL ot
Ġlast en
Ġdik te
duizen d
v ings
ren te
elt a
Z ij
Ġro zen
ĠG i
H D
it ch
Ġstart te
ĠD ordrecht
ud dy
ĠL inke
Ġcons erv
Ġvast stellen
p raktijk
Ġdial oog
C on
Ġdocument aire
Ġvij ver
onder delen
par ken
o Ã¯
Ġzijk ant
Ġorganis ator
pro cedure
ĠI l
mer ce
Ġstrateg ische
Ġf ood
ĠWil ders
is eren
Ġontdek king
Ġher steld
ĠH o
Ġlicht en
Ġlic entie
Ġj al
Ġwerk elijke
Ġgel uiden
Ġkenn elijk
le iden
Ġsch att
me ch
Ġall erg
Ġgez eten
iss ies
ĠefficiÃ«n ter
Ġst ed
Ġverl icht
Ġbeg raven
Ġwoon plaats
Ġse izoenen
Ġc ard
ĠGen er
Ġvooraf gaande
l azen
Ġaanget roffen
Ġa gr
kom mer
Ġprem ier
v oudige
Ġinter vent
ĠT antra
ui ver
ĠI emand
Ġpl ank
ro und
9 4
t im
Ġin schakelen
Ġgedetail leerde
nem ingen
Ġom gezet
Ġwarmte pomp
w end
ver blijf
Ġaange komen
Ġg aar
Ġfen omeen
Ġkopp eling
ings middelen
Ġuit komen
ĠA qu
ĠR am
at ure
ĠOver igens
ĠWal ter
Ġv oegt
ĠV AN
oord elen
ĠL in
Ġheer len
ut jes
as k
ou se
Ġvorm ing
Ġstij len
ru ise
eel ing
On line
Ġst oot
Ġaan komen
9 2
Ġvoorbij e
gr aad
amin aat
Ġmail en
A F
Ġzonn ige
g or
Z ie
Ġvrijblijven de
Ġop sp
Ġu i
ĠJ oodse
ĠT est
vest ing
ĠVer h
b org
Ġporte mon
ant al
Ġsamen stellen
ver ter
Ġsal ade
Ġn odigen
Ġop berg
Ġbl ack
ĠA mateur
Ġsc ript
Ġverminder t
Ġn oemde
Ġl ens
Ġrol stoel
Ġwat erk
ir d
Ġtechnologie Ã«n
som standigheden
bew ust
Ġvloe istof
Ġvuur werk
ĠG olf
ĠOrg anis
Ġverwij zing
Ġfamil ies
Ġvooruit gang
ĠVeren igd
H O
Ã ´
20 15
Ġged rukt
Ġh Ã©t
Ġbloed druk
Ġgewaarde erd
reken en
Ġu zelf
Ġd ress
ijk e
ĠSt ate
ĠH erman
Ġann uleren
Ġeenvoudig er
Ġkost uum
Ġontvang er
gra ven
Ġma c
ist an
Ġhoe ver
ĠM S
ĠDe venter
Ġj ustitie
re em
Ġtoe genomen
ste mmen
Ġact ueel
Ġweig eren
Ġambten aren
Ġet h
ver antwoord
h av
le ss
Ġstap el
g elen
B C
ĠSoc iale
er wijs
ap pe
advert enties
Ġver plaatst
Ġrom antische
kru id
app el
p and
ĠW ijn
Ġcl aim
ic an
ar et
Ġ: )
Ġamb assade
ain ers
Ġber oemd
Ġverz uim
Ġen ding
Ġf olie
Ġvin tage
Ġur ine
d al
Ġtick et
h oes
Ġaro ma
Ġuitge sloten
tu Ã¯
ĠM oeder
p rem
verk ie
ens ies
Ġkl ank
Ġver een
ĠC ur
Ġpart y
ĠM ateriaal
Ġaan gaan
Ġt assen
ĠVr ies
Ġpr ie
Ġaut or
ĠBe halve
ĠO V
ĠNederl ander
Ġh u
oll ige
oe ver
iet jes
. -
Ġwort els
b esl
Ġf eesten
gew one
gren s
Ġfr aai
Ġg oo
sp ellen
Ġrein iging
oot jes
ĠH ulp
ĠTegelijk ertijd
le veren
Ġbij een
Ġpot entieel
Ġkl eren
Ġop sch
ĠK em
ĠJ ur
Ġwast afel
Ġzes de
Ġdynam ische
am ma
ĠD o
Ġpro tocol
Â «
Ġstee kt
v ru
Ġonge dragen
op slag
Ġw oest
ĠgeÃ¯nteg reerde
Ġvre ugde
Ġd ram
in stelling
c ur
ste de
il inder
Ġl am
Ġbre iden
ob al
Ġvroeg ere
ang ere
Ġt rouwen
Ġre fer
Ġschrij vers
Ġopvol ger
Ġge slagen
co ver
mod ellen
ĠPort ugal
Ġinsp anningen
Ġpassag iers
m eel
Ġ Ã¼
Ġna dere
ĠW inter
geb oren
Ġverb aas
el er
ĠIS O
Ġg an
sch oen
w oorde
Ġvest igingen
Ġverlen gd
E igen
Ġvoor schriften
l on
le k
ne st
Ġbet alingen
Ġ1 30
Ġuitge zonden
Ġ0 5
s le
sl am
Ġr aak
Uiter aard
8 3
de elt
Ġmaand elijks
p rive
Ġaan ger
Ġaansluit ingen
ĠAd vies
ĠUnivers ity
ĠN iemand
oor dt
ert s
put atie
Ġvlieg veld
mede werkers
dek te
kleur ige
Ġp a
Ġe is
i or
Ġfas cin
ĠK im
ĠRoy al
Ġcomment aar
Ġverzeker ingen
T S
Ġverd eling
Ġmeth oden
gere kend
ail and
in richting
ĠU WV
Ġgoe ie
Ġbl anke
Ġpan iek
Ġd in
ĠVer b
onom ie
ĠS ens
ĠAma zon
ge werkt
rom ing
Ġ5 4
ĠS en
Ġvraag stukken
Ġverw armen
Ġheft ig
Ġtand arts
Ġverb indingen
Ġgr onden
ĠAc adem
reg ister
ken den
i Ã¨re
v aren
W erk
Ġfra ude
Ġevalu atie
! "
ĠLe ven
inn ers
lief hebbers
vin cies
olog y
K om
ĠP ak
Ġt im
8 4
ac cin
ou che
Ġarmb and
Ġver onder
Ġkoolhydr aten
ze gd
N e
Ġz innen
te m
e ind
out h
eem t
ĠJ ammer
Kl ik
Ġin richten
Ġdoor geven
Ġver sp
K an
ij pt
Ġw iens
ĠL im
W B
stro men
ond anks
Ġontde kte
t afel
Ġsymb ol
Ġconcent r
b ro
Ġaan nemer
ĠN iets
C o
Ġ1 10
y er
gar antie
Ġher zien
Ġb ocht
L O
m ix
Ġpro p
Ġaf genomen
Ġoptreden s
raaf plaats
Ġverbouw ing
Ġovertu iging
z eren
uet ooth
Ġcit roen
Ġsexfilm pjes
best rijding
ĠBed ankt
Ġsp eed
Ġaan vankelijk
Ġt weet
Ġe g
ro oms
Ġp ick
ĠJ ames
ĠP VC
Ġon g
Ġsch apen
Ġplaat jes
l ust
ib el
Z w
vl ies
Ġd uiven
Ġb itter
Ġve chten
Ġgel ov
Ġloop afstand
Ġtrain ers
om et
Ġfir ma
Ġander half
ijk er
ĠThe ater
vl iet
Ġvar kens
P C
Ġ3 60
Ġbag age
Ġ14 0
ris ico
Ġaf vallen
Ġtap e
Ġuit maken
Ġhard ware
gel icht
Ġzo om
Ġschil ders
Ġch ef
6 3
Ġar range
ar ning
Ġcontin ue
Ġbatter ijen
Ġbor stel
Ġat elier
Ġverschuldig d
kl aar
St el
ĠB u
ro erend
Ġbed anken
ĠM olen
Ġcon front
Ġn aald
Ġaan maken
ond heids
Ġdisc rimin
mede werker
Ġverhoog t
Ġ( âĢĺ
oe ide
ag ra
Ġstr ikt
p per
ver werking
Ġch irurg
Ġuit ziet
Ġop get
unt ry
Ġh istorie
ĠSch rijf
Ġslijt age
Ġschr oef
at ive
send aal
Ġstad ium
ĠAnal ytics
Ġle iders
Ġboven kant
Ġgods dienst
Ġon juist
ĠO ma
ĠD ienst
rij ders
8 2
en st
den de
is on
ol i
ĠW and
Ġgemot iveerd
be dekking
Ġad ult
Ġfiet sp
Ġrij p
oe deren
gemeen schap
Ġtrans itie
Ġst els
end aal
ĠgeÃ¯n formeerd
Ġcredit card
g h
ĠgeÃ¯nteg reerd
ma and
un ct
Ġbet oog
c ijfers
Ġst aart
ĠR h
Ġge wezen
ĠP ot
Ġbl ind
pl y
Ġafzonder lijke
Ġhect are
tra ining
Ġseks ueel
com bin
Ġopv oeding
Ġfotograf eren
g at
str and
ol ens
z z
s al
ge eft
ĠO b
rijk t
h otel
b ische
Ġaf nemen
Ġsch uiven
gele zen
dig heid
Ġamb ities
ĠP VV
ĠW eek
ĠPer fect
Ġele ct
Ġover leed
j ourn
b ureaus
Ġin voering
ĠLe id
Ġcontra cten
Ġgl ij
Ġinsp ectie
ĠK ap
Ã³ g
ĠVol g
Ġd aken
Ġbele ggen
Su per
Ġtranspar ante
ĠB ureau
Ġthe or
gang er
Ġgar ande
Ã¶ n
5 7
Ġd ode
Ġdraad loze
U M
Ġve zels
Ġcorre cte
Ġ5 1
Ġst ream
Ġhele boel
Ġpl atteland
q uid
H and
h au
Ġvak gebied
Ġl ading
8 1
ĠH oorn
Ġcomp act
Ġvoor aan
ĠD ay
Ġbijl age
ĠM ail
ĠLou is
gr oeien
ĠL ife
Ġtradition eel
h oop
ri ct
ĠĠ ĠĠ
Ġbeh aalde
Ġsche iden
Ġaardapp el
Ġheu vel
Ġro ts
ĠBelg isch
racht ig
Ġbewonder en
Ġaf meting
Ġrond je
Ġweer somstandigheden
ĠM aur
loos heid
Ġge act
dat a
ĠFl or
special isten
Ġgeb eld
Ġadv iseurs
ĠIn t
Ġp ijl
Ġuit oefenen
Ġp ant
Ġpap a
Ġgeste gen
Ġp jes
Ġarg ument
Ġuitdruk king
et itie
Ġschaam lippen
wij st
ale m
Ġcoc ktail
Ġinb raak
Ġ0 4
ĠAr be
Ġpresent eert
ĠRomein se
war ds
Ġt us
iz ar
ĠM A
ĠOff ice
p or
ĠA S
Ġbro ers
ĠM ater
rust ing
Ġlevens stijl
begele iding
un ic
Ġsp raak
Ġd rum
Ġmen eer
il air
.. ...
Ġbouw t
Ġom gang
Ġv ult
Ġmaand elijkse
Ġvis uele
Ġuitst ap
Ġber oepen
ĠDat a
Ġinc ident
pakk etten
Ġre alisatie
Ġfoc ussen
ĠSy stem
ff ect
Ġ Ã³
ĠP ass
Ġspec i
Ġst oer
Ġp in
Ġgew eten
N euken
ag on
Ġ199 7
Ġinge wikkeld
ĠI C
b ie
Ġsch eelt
Ġport ret
ĠKen nis
ĠF ord
Ġstude erde
Ġvakk undig
ut a
Ġbe est
kle ed
vol ging
it jes
ĠVer geet
Ġmil ie
ĠSoc ial
v it
Ġge automatis
Ġuitge schakeld
Ġm ind
e sten
ĠN acht
ĠD or
Ġc osmet
Ġeen ige
Ġdome inn
Ġzoek machine
w ant
con de
E V
den s
Ġo riÃ«nt
Ġl ust
Ġmerk te
iteit en
Ġk rist
ute ur
Ġk asten
ĠH eu
Ġb u
Ġbrood jes
Ġbez uin
Ġgunst ige
Ġtijd s
l ip
estiv als
Ġaan staande
Ġrit me
od ra
Ã© s
prof iel
Ġgev ierd
oed d
wit ch
ĠRich ard
al te
Ġdie zelfde
ui ken
Ġgericht e
9 3
oe ger
Ġvernieuw de
Ġfact uren
ar ings
ĠF ood
Ġoverst ap
V rouwen
Ġo ss
gen ees
ĠVoor dat
Ġz aandam
Ġges neden
Ġst orten
ift en
bl ig
ij ten
oon de
Ġont pl
Ġverf ijn
ĠRe al
Ġse k
Ġaantal len
W ant
Ġhoofd rol
Ġint ake
n s
il ling
ĠB all
oot s
Ġt immer
Ġveelzijd ige
Ġindrukwekken d
Ġru briek
Ġover hand
iv isie
Ġverv ullen
I R
kl imaat
ĠMod el
ĠR oer
ĠHou se
Ġz u
en ergie
aan vraag
raag de
br il
d icht
sp ectie
Ġgr an
ien sten
ĠG aat
uist eren
Ġv aar
Ġj azz
Ġeind igde
Ġverbeter ingen
pat roon
aand ag
Ġt of
io x
dr aaien
vallen d
ĠP ink
als nog
n ot
Ġpuz zel
az a
ĠAn dre
ĠHoe veel
Ġsamen hang
Ġregel t
Ġin tuÃ¯
herap euten
Ġget ekend
Ġa re
Boven dien
ĠAd voc
k ok
te vreden
Ġkl ikt
Ġ199 5
ann ab
iss ingen
eer ing
Ġvaccin atie
ĠF ot
or gel
or r
ĠC ovid
Ġwe bin
v aten
ou ver
bl okken
ĠGr ond
sch oon
Ġe mmen
Ġleerk racht
Ġverm ogens
ina ir
Ġbijk omende
Ġgel ukk
Ġkl assen
D oe
Ġbe dekt
Ġ0 3
Ġbij houden
Ġoog st
Ġo v
c irc
Ġr etail
Ġal vorens
Ġkwalit atieve
Ġcollectie ve
b ranche
Ġbl oei
z aad
ĠSp elen
H allo
Ġser vers
Ġven ster
Ġshop pen
ĠCor nel
Ġterugk eer
boek je
s elen
Ġdief stal
g iÃ«n
Ġc ijfer
Ġg ym
Ġged roog
ĠA ch
Ġverder op
Ġcirc uit
h ug
ick ets
Ġwe in
wer kende
Ġ7 00
Ġverminder d
ĠHeil ige
Ġnutt ige
j ur
T A
Ġin gen
Ġy our
net jes
ĠAl gemeen
Ġd aling
Ġbro ch
ĠF un
ĠA al
Ġben zine
Ġpr et
ĠO h
beheer der
Ġp ion
- /
ĠP R
Ġkeur ig
I K
Ġr ang
R eg
Ġr iool
orp s
ĠÃ ¡
Ġaut oriteiten
z uin
zijd ig
ĠGer rit
Ġd ijk
kort ing
Ġdw ingen
ï ¿½
Ġon zicht
Ġverdedig ing
b ol
Ġover name
inst ituut
aard ig
Ġbuur man
v ideos
re ed
ĠM r
Ġko ste
ĠC ong
Ġresol utie
Ġbereken ing
Ġge uren
ĠJ ord
Ġken mer
gra de
Ġeigen tijd
Nieuw e
Ġpijn lijk
6 1
Ġhoe ken
Ġop zeg
Ġverdie pen
Ġafd elingen
Ġdicht st
Ġverd elen
Ġbeg ane
hand eld
Ġperman ente
Ġverstel bare
od a
Ġge ken
ke uken
Ġt akken
ĠAir port
Ġbre der
Ġpsych iat
ĠO per
Ġen erzijds
Ġhoofd pijn
b ike
Ġsl a
Ġin dex
og ie
6 2
Ġopen ings
Ġverv oeren
L inks
id ge
Ġnat ure
oc us
ĠPar lement
ĠM omenteel
sp en
Ġt ube
Ġa irc
ĠL ove
Ġbe weegt
Ġl ate
den king
opt im
Ġaanra den
em burg
Ġged oe
if y
Ġa g
ĠAz iÃ«
Ġuitk leden
ĠR ef
Ġaangev raagd
ĠpoÃ« zie
ĠM ul
Ġaan nemen
el ux
âĢ¦ ..
station s
hand elen
Ġbijpassen de
N ou
ra in
ĠB ak
ĠAut om
Ġpro vincies
Ġfeit elijk
allen ge
Ġmagaz ine
ĠAlle maal
ĠEgy pte
Ġme ga
Ġvon nis
Ġpr inter
ad ministratie
Ġse conde
es c
at ures
Ġmo vies
at i
Ġsch uldig
Ġonver wachte
Ġ12 5
sc entrum
Ġex curs
zak elijk
ĠW ijk
ffe urs
Ġb ig
urm erend
ĠA udi
Ġkab els
Ġgener eren
Ġ0 7
K ies
Ġuitst oot
Ġmosl im
Ġged r
ĠGer ard
Ġhip pe
ĠS erv
D ag
Ġr iep
Ġl ik
Ġher haald
Ġp aal
Ġl ijm
Ġharm onie
Ġbel t
ĠH ad
bouw en
Ġprim aire
Ġachter halen
Ġhap jes
st ap
Ġbe ur
Gel ukkig
z itten
ĠP ier
sp anning
Ġvermoed elijk
Ġhy drat
M ooi
Ġsl oop
Ġbij bel
fin ancier
Ġde e
ra de
Ġuitste k
ter mijn
Ġsec ret
Ġstaats secretaris
kle uren
const ructie
Ġelkaar s
ĠM ij
Ġpublic eren
Ġwest erse
er ten
Ġvakman schap
ĠBl ok
ung al
Ġs ales
ing ers
Ġschitt erend
c ade
wee fsel
W est
Ġgev aren
ĠSt eeds
ĠArt ikel
atalog us
Ġafzonder lijk
Ġcalorie Ã«n
Ġst ier
st art
Ġverh oging
Ġontste king
ip edia
pr aat
Ġschr oeven
ĠF lex
n orm
waar schijnlijk
Ġdur ft
Ġd akk
k abel
Ġfac ilit
Ġdie sel
Ġwijn g
amb oe
Ġbese ffen
ust ers
Ġvast stelling
9 1
Ġvert onen
ri el
Ġwaterd icht
K en
ĠC irc
spel ers
Ġel lende
Ġs ap
ge ef
Ġzo geh
Ġstad je
c le
Ġben utten
Ġportemon nee
stud ie
Ġac teur
qui z
Ġg y
co se
ool se
Ġweer gave
, âĢ¦
T O
ĠR og
Ġmeld ingen
Ġgerecht igd
Ġuit werking
ĠZod at
Ġn Ã³g
Ġ3 50
ĠH erm
Ġade qu
ĠOver eenkomst
b innen
orm de
Ġs okken
ĠLe on
Ġtre inen
Ġre putatie
Ġpopul ariteit
Ġen quÃª
ĠM ogelijk
Ġstels el
ĠP ast
Ġf ch
Ġbest r
ĠW ik
Ġac adem
ak elijk
h ond
Ġz aden
av o
em arken
Ġhy giÃ«ne
aan de
Ġint im
re id
. ).
Ġgro f
Ġ16 0
Ġhe chten
E ST
gele ide
Ġdesk undigen
Ġob st
h istor
Ġdement ie
Sp ec
or ry
if unction
Ġn ation
Ġzogeh eten
r isch
ĠAnt werp
ĠDuits ers
ĠMan ager
T huis
G A
Ġwets voorstel
Ġsol daten
Ġtoe gelaten
Ġal t
Ġblok k
Ġmens heid
O pen
Ġyou tube
ĠW olf
Ġf rag
20 14
ĠT re
ont ste
gebouw en
ĠC are
ĠR and
Ġinst anties
Ġverde digen
d elijke
Ġf er
reek baar
Ter wijl
ĠH ond
sch ad
Ġvermoeid heid
ĠSt erker
Ġspeur ders
Ġon bet
l s
Ġwijs heid
P ers
Ġk ampen
Ġac cent
Ġ199 6
ig ment
Ġon de
ian ce
Ġopen de
Ġw c
Ġgesch enk
Ġeind resultaat
ĠH ug
Ġhuis dieren
Ġexpl os
Ġverander de
ĠAV G
Ġv uist
Ġge accept
Ã¨ ne
Ġket el
al bum
Ġuitge groeid
al itie
Ġvoornaam ste
Ġin vloeden
Ġrond leiding
Ġbedrijf sp
Ġgarande ert
st oot
Ġ aar
Ġprincip es
Ġwand elingen
ĠWaar schijnlijk
Ġstee g
tijd ig
in ie
Ġkn oppen
Ġvor st
Ġtra m
Ġher haling
b ach
ĠJ ose
ds m
hug ow
cor atie
ĠSim on
Ġl elijke
Ġge vecht
ĠM KB
Ġg olven
Ġd rijf
ha us
Ġgeken merkt
Ġmet ers
Ġc ogn
Ġmed itatie
Ġ199 0
% ,
Ġb ub
erm ijn
ĠD oes
app ort
ur ger
Ġtoe val
Ġone ind
k ol
ro me
ĠBe zoek
Ġopge daan
ĠS U
Ġ5 3
ver voer
Ġlid staten
ab eth
ĠZ al
Ġverbeter de
aal den
EG O
ĠL em
Ġl aminaat
Ġweer t
Ġon n
m uur
ele g
B B
zicht en
oef end
ĠV oed
it st
if orn
ĠI D
Ġb ik
ĠGoud a
M in
Ġfiets ers
Ġbest uren
ĠC ard
Ġvle k
iot ica
hugow aard
ĠI t
sp ect
ell i
Â ©
Ġte pels
ĠMar cel
ie urs
Ġpro staat
E Ã©n
Ġvan daar
Ġaanbev elingen
ĠJ uni
ut je
l oon
Ġmoo is
Ġarbeids on
Ġk oe
M ich
Ġsch iedam
Ġbesch ouwen
ric es
Ġsch ud
Ġtrans formatie
Ġz wij
ĠH opelijk
Euro pa
ĠS ony
Ġ7 2
Ġd uw
d In
ĠS D
Ġop w
Ġconst at
ic aal
int jes
f ietsen
Ġsch immel
fol io
Ġhard core
Ġp up
P R
Ġbad kamers
Ġder halve
Ġprive huis
ĠJ u
sch ermen
ĠR a
ĠA ar
Ġdek bed
ĠC ook
Ġal daar
Ġbew uste
oc atie
aar zen
ap ter
Ġroest vrij
Ġtit els
ĠS ie
c re
it as
Ġsamenv atting
h ot
Ġ6 6
Ġgetu ige
bru in
d oeken
hou ten
U L
ĠA ward
Ġop geleid
Ġverlen gen
Ġbe weeg
Ġbesch uldig
ang s
Ġeind igen
B N
Ġonder te
ĠC up
Ġinv oeren
schapp ij
bet alen
Ġdieren arts
anc en
Alle en
Ġp rij
Ġre alistisch
be woners
ĠO M
el ine
ĠR et
Ġje gens
Ġbehand elt
Ġweb design
Ġge kend
ation eel
Ġverdien d
h urt
Ġplan ken
In d
Ġne iging
c ia
E scort
Ġt rip
pers onen
Ġkopp els
be zorg
best anden
Ġaf geleid
Ġak oest
Ġz ijden
our ce
Ġs qu
ĠZ on
Ġgek n
Wel kom
akk ers
Ġvernieuw ing
i oenen
Ġhard loop
schap s
Ġge pass
Ġverw onder
Ġarch itecten
Ġc atering
d oos
Ġpro gress
El k
eil and
Ġsco oter
Ġorg asme
Ġbe f
geb leven
Ġ199 4
Ġhy bride
ĠA F
Ġ {
Z uid
Nederland se
Ġdat es
Ġt achtig
Ġglad de
feu ille
Ġrepar aties
wijl s
off er
un es
S port
Ġm ap
Aut o
out s
Ġd ochters
Ġfamil ieleden
ĠGe orge
Ġl it
v ille
Ġerv aar
Ġseks films
st ar
Ġpijpen de
ĠEer der
ik ant
sch uim
ĠBel angrijk
Ġonverget elijke
ele gen
n aars
cent rale
m ark
Ġill ust
Ġgevarie erd
Ġzonn etje
Wel ke
ĠEn erg
Ġle kk
Ġreg isseur
Ġop geven
Ġarg umenten
Ġbor rel
r ich
Ġover vloed
Ġhun ne
iden ten
Ġfeder ale
ma x
U W
Ġn ederl
Ġvertegenwoord igd
ist entie
D en
opdracht en
V ind
Ġex positie
Ġgere c
Ã º
ĠG R
ĠN ap
ing ton
ĠZe ven
ĠS at
Ġchec ken
Ġter neuzen
Ġlas er
ĠDi am
ry l
Ġrobu uste
t aal
Ġstik stof
s a
Ġom schrijving
ett i
Ġaan spreken
oel ing
Ġv een
Ġprodu cent
Ġve cht
Ġje ans
ĠD ames
ĠWi Fi
Ġg aaf
ĠIn nov
f re
c ing
ook te
Ġco ating
c i
Ġtra ck
cess or
Ġinge wikkel
Ġaange duid
Ġver ou
v ogels
htt ps
Ġfor s
Ġregel maat
Ġr iem
z p
Ġinterview s
G O
Ġde ken
ro b
g st
ĠB uurt
Ġsl ikken
om o
Ġruimt elijke
Ġrug zak
Ġorg an
H E
Ġwerk vloer
Ġsyn th
Ġuit gev
ĠC EO
Ġet ik
dan ige
ĠW eg
ĠD ak
ĠZo om
Ġstab iele
ft al
T P
Ġsch aar
ĠP or
Ġvergader ingen
voorzien ingen
Ġbek ijkt
Ġf arm
Ġbericht je
Ġsp aren
ĠM i
Ġgep erson
itt ard
Ġacht t
Ġ6 9
Ġfab rieks
Ġorg anen
p re
Ġk as
teken en
Ġzon s
Ġproble matiek
ĠJ ud
Ġverscheiden heid
ĠM ir
m elk
ab a
Ġcommun ity
Ġ5 8
Ġstraf recht
ĠK w
Ġl ukte
Ġst rijk
il a
Ġble ken
Ġlever tijd
Ġken baar
ĠMe isje
Ġgel anceerd
and in
Ġon nodig
Ġact rice
Ġstro men
ĠNI ET
Ġpr inten
Ġhou der
o ung
Ġstat istieken
ed ie
Ġaan komt
pl ank
Ġgr aad
ĠG ouden
ĠAt l
Ġafwijk ing
st ruct
Ġtoonaan gevende
ari aat
Ġop names
Ġsan itair
Ġgl ob
Ġro os
ten se
Ġperman ent
Ġvoort gang
= "
Ġsch atten
Ġp k
ĠKom t
Ġto ffe
ĠJ ust
oo sten
Ġâ ľ
oss ing
oer nooi
Ġkl agen
Ġf onds
at her
ĠV ak
Ġd achten
Ġpri oriteit
ĠCh at
Ġb oog
Ġnatuur gebied
Ġident ificeren
ell y
Ġdra ma
ĠL ucht
Ġch arm
ĠBB Q
Ġverwen nen
ĠDe f
Ġt inten
Ġmon it
Ġavont uren
Ġmas age
ruim tes
Ġon zin
Ġh ert
ire cte
Ġgest olen
ĠC osta
ie me
Ġr itu
Ġall ergie
Ġmot to
ik a
de kken
onder houd
Ġhaal baar
Ġcommerc ieel
ver anciers
ĠW onen
In middels
od ium
Ġc ase
Ġspont aan
ĠBen elux
k ar
ĠK V
Ġconc erten
Ġre volutie
Ġgr ill
ĠHoge school
wer ven
Ġas sen
ĠAf rikaanse
Ġhand icap
Ġdre igt
D R
ĠB asis
Ġaan g
Ġover leggen
Ġge groeid
P r
ĠG angbang
Ġer e
Ġar che
ann ers
Ġz ond
Ġg orinchem
Ġbez icht
der ne
Ġ5 7
vest iging
ui der
Ġtw ente
Ġcor rig
Ġuitvoer ingen
Ġben oem
kw art
d ancen
Ġgrapp ige
, ,
ĠGG D
Ġcombin aties
Ġfiet st
Ġtrans form
ĠMil ieu
Ġsubsid ies
ĠN A
uit kering
B uiten
Ġgesch oren
c r
gem ak
Ġhoever re
H A
Ge ile
Ġap othe
ĠB akker
ĠCor on
med ia
her stel
h n
ment s
co des
utt on
Ġvrijwill iger
ot ten
Ġaanmeld ing
ĠU N
Ġk aars
Ġsol o
Ġam stelveen
Ġzon licht
Ġz ieke
Ġap otheek
Ġhulp middel
Ġvar iÃ«
Ġp iste
Ġspiritu ele
Ġv aand
Ġtap ijt
Ġhap je
in ck
Ġrecl am
Ġver gt
Ġfrequ entie
pro bleem
Ġple eg
Ġh it
Ġsch oor
il anden
uurt je
Ġsinds dien
ste den
Ġkijk er
Ġje ug
ĠS ara
Ġmede deling
ĠAf gelopen
c ol
Ġchristen en
Ġaan recht
Ġs aai
Ġbuiten gewoon
Ġplant aardige
ĠL y
Ġlog istieke
Ġr uw
Ġ9 00
Ġrep resent
ĠM orgen
Ġbeginnen de
ĠK ro
Ġvar ia
Ġgek ke
ĠHaag se
Ġgem oed
ĠSy riÃ«
Ġp iek
or i
s ituatie
ĠF eder
andin av
ang o
op bouw
Ġg aren
len gte
Ġz int
Ġbeh aarde
ĠSt ud
Ġsubt iele
is p
Ġspectac ulaire
Ġv etten
Ġze ilen
tek st
4 00
Ġuitzonder lijke
d raagt
Ġgeb reken
Ġuit zoeken
Ġsy mpath
Ġr at
lijk s
sp annen
ĠV erv
ĠLinke dIn
sc reen
Ieder e
blauw e
Ġga ve
ĠP sych
id o
ĠT aal
Ġkosten los
Ġwh atsapp
Ġbetrokken e
Ġke izer
al istische
ĠB ook
Ġr anden
ĠOff ic
re iking
ĠVal ent
maatschapp ijen
Ġzak e
Ġgepl ande
Ġd ash
ĠV olle
ĠB eek
Ġe volutie
Ġverd uur
Ġherken t
Ġfaill issement
Ġonder zoekt
Ġwint ersport
Ġd op
ĠH istor
val idatie
Ġbev r
Ġonbe perkt
E W
Ġd od
ĠAd ri
ker e
ie Ã«n
st rijd
E F
Ġtop ic
unn ingen
Ġon voor
ot herapie
Ġg u
Ġtevreden heid
R P
ĠB and
Ġvoordel ige
Ġconst ante
ĠEr ic
elat eerd
o is
Ġnet te
Ġgen omin
Ġz weet
ad der
Ġbeste mmingen
Ġvloer verwarming
ĠRe ad
voor sp
ob ank
oefen ingen
ĠHier na
Ġv ielen
um p
ĠArab ische
ie us
off ie
t ijden
Ġlog istiek
k ont
in us
Ġvoor stellingen
Ġgehe ime
Ġeffect iviteit
l ood
ĠW arm
IJ K
ĠPersoon sgegevens
Ġwol ken
h ut
ĠG ast
ĠCh ris
at iete
ucht en
Ġd uim
idd ag
Ġbe denkt
Ġcre atie
Ġh aken
s nelheid
ĠEle ct
Ġadres gegevens
Ġzwaar der
ĠC y
t huis
am aatregelen
Ġop stand
app ers
f i
Ġboek houder
ura Ã§
Ġgeselect eerde
Ġc op
Ġpan demie
d ings
!! !!
ĠW erken
tu igen
Ġcon vent
ĠK er
Ġgeest elijk
Ġhand h
Ġsec retaris
rij der
Ġcult uren
ĠTh ailand
Ġpark et
dre mpel
Ġemot ioneel
âĢĻ -
Z odra
schrij ver
Ġbek w
ĠA ssen
Ġsc reen
ĠSt ra
Ġeven wel
Ġbestel t
iss ing
Ġprivacy verklaring
Ġle zingen
An t
j ack
ect eren
bor stel
Ġsm s
ĠR onde
Ġra pporten
Ġ0 2
Ġfl at
Ġj uw
Ġzeld zame
Ġm ess
Ġverzorg de
ific eerde
Ġbesp aar
Ġaller eerste
Ġstim ul
Ġsymb olen
Ġverant woorde
Ġtelefoon s
Ġtijd perk
waard igheid
Ġmail tje
ĠI slam
w il
Ġle ed
V erg
Ġzevent ig
Ġagen ten
EN T
Ġbevoegd heid
Ġwint ers
k ring
Ġom ring
ĠB ul
ruct ure
Voor dat
Ġlap dancen
Ġpijn lijke
ĠSch il
ĠSpec ial
Ġk oorts
wor ding
spers oon
ĠV ijf
I O
ĠJul lie
te min
Ġleiding gevende
Ġschad elijk
Ġdorp s
Ġaange pakt
ĠK rij
Ġm uizen
ĠHil versum
mail s
k eer
ings recht
gev al
Ġverz ocht
f ac
Ġoff line
ĠI K
Ġveil iger
mas ker
Ġsl oeg
Ġsoort gelijke
Ġingericht e
ĠB ill
ier de
R ec
Ġkoek jes
Ġe iser
ig ner
Ġbel oning
Ġess entie
, "
Ġbl aas
Ġplaats je
Ġint entie
Ġven lo
j i
z ag
ĠGe sch
Ġbi oscoop
h ip
Ġaan kl
om an
Ġspeel den
Ġmast urb
Ġweb pagina
Ġvoorsp ellen
v oud
y ling
der ijen
Ġw ond
ge zel
Ġgeren ov
Ġairc ondition
Ġkennis making
j er
ic um
Ġvr ie
au te
Ġoorlog s
b und
ĠD ol
Ġbest ur
at ier
kl ier
Ġkoning in
Ġluid t
Ġonge z
Ġvast houden
Ġterug vinden
rel atie
p aar
Ġp aden
h oren
Ġaanb iedt
c ker
Ġret ourn
Ġop gest
v ond
Ġtemp el
ĠVer l
Ġillustr aties
Ġren nen
Ġvoor hand
Ġnak om
ra pt
J oh
le kker
a er
Ġhal verwege
c risis
Ġgewoon te
ĠB ond
mee sters
Ġbev indingen
ĠD oc
f ord
aan tal
Ġslap pe
aalt jes
ĠDen emarken
orm ing
Ġsilic onen
Ġver anda
Ġj ack
Ġst oornis
Ġtrans acties
E X
ĠS om
ĠB W
ĠAc count
Ġpak te
Ġwerk groep
ĠSt ap
er em
Ġsnel ste
Ġinhoud elijke
Ġle k
ĠS et
ĠF onds
Ġgest oken
Ġgraf ische
Ġvak ant
Ġbed rukken
ĠWe sten
ĠD S
Ġsens or
Ġhuw elijks
Ġr ingen
gesp rekken
Ġadem haling
ĠTha ise
Ġverkie zing
zij l
Ġhou ts
illen d
ide s
Ġa mand
Ġsh ampoo
l ight
Ġge bed
ĠVr iend
Ġle ase
l ist
ĠS yn
Ġd ranken
Ġgesl aagde
Ġrele ase
hau pt
t as
Ġuitgere ikt
Ġzw angere
ar ist
Ġstil le
Ġf uck
ĠWagen ingen
Ġbegele idt
âĢ ŀ
ab s
r r
as en
Ġc ake
ĠMus ic
Ġslaa pt
Ġsol id
Ġc ross
Ġm ut
Ġopge pakt
Ġtoege wezen
ĠPort uge
ĠNoor wegen
S n
Ġstree ft
ĠG B
T B
a ust
b ag
Ġbel ofte
Ġtechn ologische
Ġt ante
Ġhuur ders
ax i
itt le
Ġprem ium
Ġn eder
Ġav onden
Ġvocht ige
Ġru ss
ach e
k inderen
l ink
yen oord
w s
Ġinf ra
ĠAlex ander
Ġbeg insel
Ġverdu bb
ĠF red
ĠD oel
Ġsuggest ies
Ġg ulden
Ġmeth od
Ġviss ers
Ġsp its
Ġzwak ke
ĠSt aats
Ġlabor atorium
Ġaan spraak
t elefoon
Ġsp rong
proces sen
Gro te
el y
Ġb ok
N oord
aar n
Ġb izar
Ġinstru ctie
ĠK op
Ġverw achte
Ġfunction eel
h anden
Ġro mmel
bel angrijk
lopen d
r al
ĠM ond
Ġleef stijl
Ġfeest elijke
Ġleeftijd s
W A
Ġle kkers
Ġp est
v y
meth oden
ĠH appy
is eerde
Ġuit verkocht
ĠAc ademie
Ġgirl s
Ġemot ie
pp ing
Ġmede werking
E ind
? "
Ġu plo
ĠT an
Ġecht genoot
ĠSp aans
Ġverhuur der
raf enis
Ġvoedings middelen
Ġmuzik anten
Ġsp ijs
ĠO ekra
ĠS pe
Ġa u
ĠBij zonder
ĠCont rol
ru ck
ifest yle
pp e
Ġlich amelijk
Ġmod ules
Ġimmuun systeem
won er
re y
Ġvor deringen
ber haupt
ĠGl as
w anden
Ġro o
Ġlaag je
k oek
ĠR ay
rest aurant
ĠVoor waarden
ĠAr gent
Ġklim men
ker ingen
âĢĻ )
Ġkussen s
ĠBe at
b v
Ġor gel
Ġact rices
ĠVolks wagen
ĠSt at
Ġverl of
ĠJan sen
Ġaardapp elen
ch ec
Ġe vang
autom aten
ĠB N
le d
Ġsec und
b orden
ĠS C
ĠK ant
hier na
in ees
boer derij
ĠB eer
Ġpopulair ste
ĠC our
az er
Ġt aille
sper iode
Ġb idden
Ġholland se
Ġh eld
Ġopl aden
Ġaange meld
Ġuit sp
Ġgratis sex
G eef
Ġbel eef
Ġonder liggende
Ġm akkelijke
ĠH BO
Ġuni form
Ġdik wijls
wol de
film pjes
Ġbevest igt
Ġaf standen
zwem bad
am m
age erd
ĠF ac
Ġge pro
Ġb rachten
ĠThe o
Ġro ut
Ġherk omst
g oten
Ġhart je
ĠPat rick
,- .
le vering
iv es
ĠW oord
Ġbru iden
Ġtal rijke
se isen
fun cties
Ġparo ch
Ġh ind
Ġtru i
Ġzal m
b aren
Ġm eel
Ġom laag
Ġm akers
ĠR oel
ĠM is
an i
Ġwoord voerder
j ong
schrij ft
Ġaf gel
ss els
nem enten
ĠD er
Ġfle voland
ok k
ĠÂ ©
Ġb oost
V raag
kl in
Ġobs erv
Ġgere kend
Ġp el
Ġmee sten
ile s
autom aat
Ġvak anties
ar l
hel m
Ġogen blik
mom ent
Ġkl inken
Ġvoorbere idingen
ĠKar el
p aalde
Ġveelzijd ig
g repen
we bsite
ĠM iss
Ġvis ite
Ġgeaccept eerd
ic aanse
ĠT rouw
f alt
ĠLux emburg
Ġmo untain
Ġvernieuw d
ĠBr oek
Ġvast leggen
sbe diening
Ġv ibr
oe ft
ett o
Ġne p
Ġstap je
Ġar me
Ġdichter bij
ra ck
AR T
in clusief
Ġbeg inners
ip per
ĠIn form
cc as
ĠUn ited
Ġpsych oloog
m il
Ġkop ers
ĠTer ug
Ġover komen
licht ingen
Ġ199 2
Ġop geb
Ġtran en
ĠC uraÃ§
ĠL EGO
Ġsign ific
Ġf ram
m ode
ĠG ay
Ġin loop
ĠBr un
Ġvaand el
Ġher halen
dr aad
A msterdam
Ġmot ie
Ġh ul
t rip
Ġnatuur steen
im in
ur al
agen t
ĠM ay
Ġhand haven
R S
Ġbeh uizing
Ġ15 00
ĠCol or
ĠCh risten
iden d
Ġbel ooft
Ġsh ort
w oordt
verb od
ra ph
ĠHe alth
ne de
Ġf rom
ĠAmerik anen
Ġt raag
zen der
oe v
ĠVer ordening
onom ische
kl ik
Ġex pos
elect eer
Ġdistrib utie
ic es
Ġwin naars
ĠVr oeger
Ġverst opt
bestaan den
Ã¡ t
Ġval se
Ġe go
Ġexplic iet
Ġbezoek je
ĠIndones iÃ«
stoornis sen
eter ing
Ġst re
Ġp anden
ĠC ab
verd eling
ĠH arm
inf ectie
Ġv arie
Ġwoest ijn
ff ic
ĠB ang
Ġgroep je
Ġgel et
Ġveel vuldig
erk e
z ucht
Ġru zie
mb le
Ã ł
ic aties
Ġcar date
ĠAcadem y
on i
Ġre mmen
un der
z and
ĠK am
Ġmasse ur
ĠM em
Ġconfl icten
Ġmen ingen
B rit
is atie
Ġb ussen
ĠB y
ĠH outen
Ġreser vering
Ġveert ien
j urk
Ġpoes jes
verh uur
Ġinnov aties
Ġges erveerd
Ġonverm ijd
Ġec ologische
ĠNic ol
ĠBrazil iÃ«
d elingen
Ġhuis kamer
ĠT oon
Ġen gel
ĠB ull
Ġv acht
ort el
Ġmass ag
n g
ĠCon ne
J ij
ĠM annen
Ġlicht er
is co
Ġen tertainment
Ġdoor gegeven
Ġsle e
Ġhor ec
Ġgenees kunde
no se
Ġkunst werken
Ġkaart jes
ĠRotterdam se
Ġpar cours
ĠItal iaans
t arief
Ġl iber
Ġhand schoenen
Ġlicht gewicht
Beg in
stat us
Ġbl z
Ġ6 8
ĠRT L
Ġleven dige
ĠWh ats
Ġdr oeg
Ġd og
ĠD ownload
Ġon op
Ġb oten
ĠBen ieuwd
voet bal
Ġmagnet ron
Ġd aalt
ĠC ub
Ġzo genoemde
Ġwen k
Ġin gel
Ġtyp es
Ġser veren
Ġhiel den
p ed
ĠBel ang
Ġuit prob
Ġvoldoen ing
Ġtoen malige
Ġkamp eer
n ik
ĠB il
Ġverwij dering
Ġover gedragen
ĠD omin
Ġv zw
W ist
Ġ3 65
aard ingen
Ġland schappen
ge ert
Ġg okken
ac o
Ġsmartph ones
Ġlosl aten
stel ler
a ub
Ġnad ien
Ġaange maakt
opt ie
Z eer
Ġe ett
co Ã¶rdin
Ġmult ifunction
Ġhet en
sm aatregelen
ĠZ weedse
Ġge sm
Ġbeg ro
it ut
uim te
Ġcon figur
Ġben oemen
n achten
Ġcor ru
Ġcor por
Ġprogram m
Ġte m
z al
ĠSt reet
G oede
Ġbedrijfs voering
M P
ĠZ oon
ij zer
20 13
Ġant is
Ġdre mpel
aar sen
Ġs and
ĠK o
Ġste unt
Ġtegenst anders
Ġsp ijkenisse
Ġmet ro
Ġgeren omm
ĠK it
gev el
be v
Ġst ruik
aut oriteit
Ġv ulling
Ġuit maakt
l op
Ġn oot
ER K
oss iers
ĠV o
Ġanalys es
Ġop roepen
D on
Ġin teg
Ġinge deeld
esl acht
Ġge ar
v uur
Ġlied je
Ġjourn alisten
Ġdomeinn aam
ĠB oeken
Ġver beelding
Ġom vatten
ĠC afÃ©
tegr atie
Ġcam men
Ġop dat
ro se
Ġc up
ir st
A O
et ch
ĠSoc iaal
Ġpersoon s
he ven
k rij
Ġpass eren
Ġpar ken
Ġverl aat
Ġz zp
ĠBl ijf
Ġru kken
w an
plaat ste
Ġm oorden
D es
l agen
er a
Ġnot a
Ġch ron
Ġvorm gegeven
Ġd uister
Ġaf halen
c rÃ¨me
verkie zingen
Ġverander ende
Ġaf geleverd
Ġzom erv
ĠAn gel
Ġsex maatje
Ġresult eert
ĠVer schillende
ĠVin cent
ĠC ru
ĠManu fact
Ġ5 9
ĠR ijs
ĠB R
Ġsche ppen
ch a
D EN
Ġverrass ingen
it o
Ġgehand icap
wiss eld
gev ings
Ġon weer
tegen deel
ĠVor ig
Ġknuff el
Ġhant eert
we sten
Ġp oep
ĠSc andinav
ĠV oer
a ul
Ġop stelling
Ġmag ische
Ġkle i
ctie ve
ontste king
Ġbeleg gers
ent uin
Ġre Ã«
Ġprost itutie
Ġtrop ische
ĠI ran
Ġsl ang
ĠK PN
Ġblijven d
Ġpat h
Ġbegele ider
P D
Ġc le
ĠSch e
Ġbaar moeder
Ġf ort
he dr
Ġprest eren
ĠV R
ĠT oy
ĠM ens
Ġmen sch
Ġst eel
ĠZ Z
Ġde kken
Ġf ondsen
Ġglas vezel
ro o
aties ysteem
Ġpar all
lijk heid
Ġkonink rijk
Ġklus jes
Ġ( +
j ob
ĠL iefde
cept ie
Ġrijk dom
Ġcomp at
ĠT U
op le
Ġvertegenwoord igers
ide e
Ġp ru
O h
Ġcoron amaatregelen
Ġintelligen tie
Ġaf name
um en
H er
Ġd own
ĠW ee
ĠP DF
Ġbeheer sen
Ġde p
ĠGed urende
Ġpay roll
Ġp ogingen
Ġverpleeg kundige
Ġin voer
Ġple it
Ġrefle ct
Ġt act
Ġbl okken
ecte ur
inde x
Ġsn ack
Ġtus schen
ch in
ĠSt ation
amen s
T ip
pl oeg
z elen
ĠMex ico
Ġv ouw
ĠV akantie
g reep
ĠAd vert
ĠW acht
Ġmoe itel
Ġkom kommer
Ġaant rekken
Ġk rab
n r
Ġontsn appen
sl aat
an on
Ġbez itten
Ġconsequ enties
gro ene
i pen
Ġsp oel
Ġbe werkt
Ġst icker
w onden
Ġdi ct
r aam
aan sluiting
ĠA ziatische
Ġgew richten
P E
ĠW ash
ĠHele maal
ĠS ub
ĠI mp
Ġf oss
ĠG ame
Ġcom mand
Ġmicro foon
Ġl aw
Ġken merkt
ĠV os
Ġsp at
gel matig
am i
Ġc ust
Ġs ervic
Ġom slag
Ġnadruk kelijk
f eren
Ġver plaats
Ġverbl ijft
Ġcamp agnes
ĠEven tu
Ġman agers
ol der
Ġcult ureel
Ġlang zamer
ĠZ oo
Ġverf ris
Ġd uinen
et st
Ġj uf
Ġland goed
Ġverpakk ingen
ĠB oom
Ġsle chter
Ġpl assen
Ġmensen rechten
an im
Ġprov ider
ras mus
Ġhuis stijl
Ġluist ert
Ġn ov
id sen
Ġbevor dert
V aak
Ġverm oord
Ġverst rekte
Ġwil s
Ġ6 3
ra ger
gev aar
Ġ6 2
Ġact iveren
Ġafwez igheid
Ġfamilie bedrijf
Ġmor gens
Ġsport ief
Ġbe bouw
h ouw
it sen
Ġdag licht
Ġaan nem
T ags
Ġcolle cties
Ġlink se
G isteren
Ġtien ers
rein iging
Ġin nemen
Ġn ier
Ġintegr eren
Ġaanzien lijke
iz a
Ġverm elde
Ġtra iler
Ġuit komsten
st oe
con ferentie
ĠFrie se
Ġped agog
in te
Ġdat ering
ĠW ed
Ġt unnel
j en
Ġop gelopen
s ele
Ġk ik
ĠB O
Ġaut isme
em ail
g olf
Ġverstel baar
ran sport
Ġlesb isch
id ay
Ġenergie zuin
aa ide
âĢ ¯
Ġret ro
ĠPhil ip
ĠIn dust
Ġneer slag
H C
Ġer kennen
ĠE th
ĠR A
Ġd am
Ġsupermarkt en
Ġbe kken
Ġretourn eren
Ġger elateerde
Art ikel
Ġmij l
as es
te gels
bur ger
ic y
ĠC ool
Ġ199 3
ĠgeÃ¯sole erd
un en
ĠA dam
H oi
Ġnet to
ĠB esluit
ĠE de
ese arch
role er
Ġwenk bra
ĠSt ore
Ġspeel se
ĠOnt wikkel
Ġdrank jes
F l
sc o
achel or
ĠGel der
pan eel
Ġboek houding
d ru
Ġol if
aver nij
huis je
Ġstat ement
Ġweder partij
ui ft
Ġvoor b
Ġanders om
Ġsl ijm
ib le
ra ject
Ġvr oegen
ĠE asy
as eerde
Ġgr iep
zijn de
ĠCl oud
he il
Ġont le
Ġinhoud elijk
we kt
Ġwee gt
Ġin gaan
Ġuit n
re ens
sche pen
Ġop zoeken
s oc
lev ard
Ġin houdt
Ġbelang hebbende
Ġm id
ing o
te ams
Ġstr aal
Ġpublic aties
Ġste iger
Ġover heen
Ġafge wezen
Ġver gez
Ġhart st
loc aties
Ġdr onken
ĠC oc
S O
Ġro ul
Ġst om
k i
Ġyog hurt
ĠPol itie
ĠB erk
Ġvlag gen
ĠJ aap
F rank
Ġover nemen
ĠE s
Ġlast iger
ĠGr aaf
Ġongeloof lijk
Ġverzam el
Ġprom oten
Ġstad ion
Ġoptim alisatie
ĠL id
Ġe y
f ood
Ġvoor st
Ġh osting
Ġb oekt
Ġgetra ind
Ġpot ten
wand eling
Ġrestaur atie
Ġfor se
Ġleef omgeving
op ath
Ġplas sex
Ġf ok
Ġmon ster
G ed
Ã¯ teit
Ġdi v
Ġver ordening
Ġdie gene
kracht en
ĠOr igin
b ik
el icit
Ġde zen
ie erde
inf o
Ġsamen gev
Ġm igratie
Ġalleen staande
Ġgrij pen
v alt
ĠC ult
Ġd ir
Ġpro min
Ġcal c
Ġstem pel
s oort
Ġover schrij
Ġde ugd
Ġgord ijnen
ĠPrem ium
Ġpl oegen
Ġverh elpen
ĠB rouw
Ġloodg ieters
Ġonder t
Ġgewoon lijk
sp rijs
mom enten
Ġwe spen
yp es
install aties
Ġlief hebber
Ġbeleg gings
ie ders
ĠJ ob
Ġkn open
ver sl
Ġna bestaanden
velop ment
ĠN ico
Ġre ferentie
reven tie
ĠUit gever
Ġhoe sje
Ġbev oegde
Ġeven ts
Ġverd acht
Ġgev order
Ġgezicht s
Ġra re
m ap
k ust
w ijken
Ġsfeer vol
ĠA h
Ġgra ven
Ġdynam isch
Ġgr at
ĠR ac
Ġtrouw e
Ġ8 8
Ġin geb
Ġvol st
Ġze iden
ok kel
Ġklin iek
ĠH eren
Ġsk i
Ġopger oepen
Ġachter stand
Ġ' '
Ġdiscuss ies
ĠGe zien
club s
ĠR S
Ġcorre ctie
ogen bosch
Ġberg ing
ĠT sjech
ĠK oen
Ġzom erse
Æ Ĵ
reg istratie
ĠD I
ĠEn kel
ĠZ eg
Ġtoe pas
sp an
Ġuit ing
Ġheer st
Ġin tense
Ġconsum ptie
av ia
Ġ6 7
ver z
ĠAut oriteit
h aalde
ab els
Ġaanb ouw
Ġgro ve
ĠIn clusief
Ġc annab
Ġgr aaf
Ġgew ond
Ġj u
Ġverl ichten
ĠVel uwe
ĠH it
wekken de
Ġwens elijk
Ġverantwoord ing
Ġpol s
Ġwaarschuw ing
Ġzicht bare
Ġzo doende
Ġminder e
Ġleven d
Ġnaad loos
ĠWil d
m ars
B L
Ġst icht
Ġvoor werp
tu re
ĠCo ach
ĠN ormaal
Ġwekelijk se
Ġre k
Ġuitprob eren
Ġf estivals
ĠG PS
L euk
Ġhet zij
Ġaccommod aties
rij ft
ĠZ ondag
Ġru it
Ã¯ s
Ġjas je
ĠRe publiek
Ġb il
ĠE K
uz alem
Ġb len
ĠMar ie
one y
ra ken
ĠSh ow
Ġaant onen
Ġ3 000
ĠI mmers
Ġbeheer der
v ier
ĠefficiÃ«nt ie
ĠDan iel
Ġle gend
Ġmonit oren
v ari
Ġkeur ing
in y
O osten
bo y
ĠS ervices
ĠK euken
Ġliefde s
D ER
Ġle id
over heid
Ġmon umenten
Ġverzeker aars
Ġomst reken
pp y
Ġb org
ĠGe gevens
sp onden
w inn
Ġp aren
Ġarbeids overeenkomst
Ġor kest
Ġgig antische
Ġopge merkt
uiten de
f amilie
Ġautom ob
uist erd
Ġvoorlop ige
l ot
op name
ĠMarokk aanse
Ġo blig
ruim ing
Ġtoe schouw
Ġzacht jes
Ġcorrig eren
Ġeen zaamheid
Ġuniversiteit en
spro f
gerecht en
Ġconclus ies
Ġhand je
ĠRab obank
Ġher nieuw
Ġnieuwe gein
ĠZ aan
ĠN av
Ġvoorzien ing
Ġwell ness
Ġr im
Ġzomerv akantie
Ġopv ragen
Ġs elf
ĠD C
Ġdru ppels
ĠCuraÃ§ ao
Ġom wille
Ġhel m
Ġinterpret atie
S eks
ĠChar les
Ġ20 22
Ġorg anische
sp at
re ke
Ġw im
ĠA u
Ġmoeitel oos
Ġeigen schap
Ġacc ess
Ġhyp othe
ose ks
Ġb ull
ĠL ief
20 12
Ġgen oegen
bal ans
Ġnauw e
ĠR ood
chn iek
Ġonder handelingen
Ġmen gen
Ġbeveil igde
Ġco alitie
ĠF iets
Ġwebshop s
Ġaansp reek
il ers
og an
Ġkracht ens
Ġeen malig
Ġhand vatten
dien de
Ġpe uter
vol g
ĠA k
ĠF ire
Ġdringen d
Ġsport school
Ġgerec ycle
ĠWhats App
Ġk atholieke
Ġp oster
Ġpro c
h olland
Ġklimaat verandering
Ġkeur merk
r ies
Ġsex jobs
e cht
af et
Ġuit wiss
Ġgroot handel
af hankelijk
Ġinzicht elijk
Z owel
Ġver slagen
Ġbegrip pen
ĠLekker e
Ġcont ant
Ġtr oepen
Ġmar athon
Ġaf gebroken
Ġtranspar antie
Ġondersche idt
Ġexperiment eren
Ġsc an
gor it
Ġtrans actie
og raph
z ijden
ĠJ ap
Ġdiagno st
Ġverantwoord elijke
oor l
Ġsex f
oep el
Ġde press
ĠE va
Ġom liggende
beh oefte
bre edte
ra ining
Ġtra kt
ĠK u
Ġmech anische
Ġdiscrimin atie
Ġsch eur
Ġhuis werk
recht s
Ġzo enen
Ġprec ie
Ġplek jes
ged aan
gar age
Ġsleut els
Ġbestemming splan
Pro f
ĠV ele
Ġtre f
Ġgevol ge
erm at
Ġrust iger
er veren
Ġwinkel centrum
Ġgar n
Ġth at
Ġch ique
ĠForm ule
camp agne
Ġterug komen
ress ie
W eb
Ġafle veringen
ĠS K
.... ....
Ġnage dacht
Sc ript
h onden
Ġonderzoek er
Ġg ist
Ġsm aakt
Ġme ent
dig ing
ats oen
Ġrecht hoek
Ġtwijf elen
Ġverkl aarde
ĠMater ial
I B
ĠG ran
ĠgeÃ¯n tro
mmel oord
Ġarbeidson geschikt
Ġprost itu
vaard igheden
p oint
te ch
ĠSp ot
ĠF ra
ug gen
bal k
z ings
he d
Ġfol der
Ġenzo voort
Ġdoel groepen
itt ingen
N O
A A
Ġdru kker
Ġwater stof
ĠMar co
ĠVolks krant
ec ut
Ġlog ische
Ġout door
Ġover gewicht
c orpor
Ġachter tuin
Ġre port
Ġb ungal
st udio
o erk
Ġz adel
af ari
Ġonder worpen
sp oor
Ġp p
Ġvirus sen
ver gelijk
der ik
ĠenquÃª te
ĠV iet
Ġop gemaakt
g ische
Ġpresent aties
Ġper formance
Z aterdag
Ġcas h
Ġaf wisseling
Ġbesluit vorming
ĠMech elen
Ġkle den
ĠN orm
ĠAr n
Ġmel od
Ġgro t
Ġbe wijst
B est
ĠKl aas
Ġstrateg isch
Ġriv ieren
We et
Ġbe auty
ĠT ip
Ġgr uw
p ompen
Ġspeel s
ĠComp any
Ġling am
t v
v uil
Ġbeg rafenis
Ġhuishoud elijke
ĠC ou
Ġzorg verleners
ore a
ĠK ids
ĠR esearch
T ussen
at ic
Ġaf gev
Ġontwerp ers
kant oren
ett ings
p sych
Ont dek
Ġzet el
Ġac ute
vl oeren
ĠE rasmus
l oper
ĠI B
Ġbi od
am el
Ġs il
m oord
Ġest het
ĠMar s
he f
P M
ĠD oet
w oude
art h
Ġb oeiende
Ġsch reeuw
P A
b uis
ar me
ess el
leut el
Ġwand elt
Ġuitzonder lijk
ĠEx per
! ).
ĠHel der
Ġo er
Ġplek ke
O K
ĠKonink lijk
Ġm oer
ist a
p alen
ĠTele foon
ang st
Ġbet rek
Ġdoor ver
Ġh ak
Ġk ee
Ġb reekt
Ġmult i
o urs
ĠH eem
ĠM PN
Ġhoven ier
Ġg Ã©Ã©n
Ġge advis
Ġwerk omgeving
Ġcolle ctief
Ġaan loop
Ġsch atting
Ġpar ag
ĠB row
Ġbank rekening
k g
Ġop staan
Ġvoor doen
fun ction
Ġlaag drempel
Ġh op
Ġbew ind
T ER
Vor ige
tu ig
ĠH asselt
ĠCal iforn
Ġhorloge s
Ġuit en
Ġzin vol
Ġdichtst bij
ĠN eger
Ġopricht er
Ġprakt ijken
ĠCont in
ĠIn s
Ġpan eel
Ġafstand sbediening
Ġverlen ging
Ġvoor alsnog
re ide
Ġgeh ant
Ġfinanc ier
Ġsug ger
ĠI b
Ġbez etting
6 00
Ġvrijwill ig
Ġtijd schriften
Ġprim air
Ġstruct ureel
Ġd vd
ie st
ĠHug o
r at
Ġc ass
ĠSt yle
Ġl ij
H z
vis sen
an ker
Ġhiel p
f les
ung le
ĠP o
Ġeven min
Ġgede gen
Ġgecertific eerde
gemeen te
f ield
Ġbet ekend
part ners
le uk
ĠÃ³ f
b uurt
Ġcomp os
ĠClass ic
Ġverwij der
ĠB ir
Ġpunt jes
Ġambten aar
form aat
Ġ19 45
ĠK ind
X X
akk et
Ġgevest igde
ĠP in
Ġstof zuiger
Ġgez ichten
Ġamb t
as c
ĠO tt
Ġwaar genomen
Ġkle ink
ĠbeÃ«ind igen
ĠS ab
aal s
sp eeld
ĠK al
yl on
ondersteun ing
Ġisol eren
ĠE S
Ġaircondition ing
ster mijn
ĠC L
Ġgesch illen
in houd
ĠS hemale
Ġeet le
duizen den
ĠAmer ican
ĠVol vo
Ġverb ouwen
h off
ĠRest aurant
Ġpop pen
f ondsen
Ġparkeer plaatsen
ole ster
ent al
Ġb ars
at iel
bl ijft
Ġaf speel
ĠS up
ĠA th
eff ect
Ġverwar ring
Ġpar am
d oms
ĠK ol
ĠBed rijven
im uleerd
Ġfran ch
Ġpar adijs
hand ig
Ġverbaas d
B ron
Ġilleg ale
Ġverwij dert
ĠS uz
ĠRen ault
Ġzak je
Ġbehoor lijke
zel ve
Ġander halve
ĠH aal
Ġspijs verter
Ġro oster
av onden
ĠPrive ontvangst
Ġverb azen
g rijs
Ġst ickers
ipl oma
wee kend
Ġter rassen
Ġaan du
Ġhoof dt
St ichting
Ġschen ken
ĠE p
ĠF air
Ġt int
Ã¡ n
K inderen
Ġs ets
Ġtoeg ankelijke
Ġstation s
ĠL oop
m ie
spart ner
ful ness
Ġbeteken de
Ġleeft ijden
sp ieren
ĠL ee
ĠT rek
ĠJ um
Ġbest reden
Ġnaar mate
uim d
Ġsl avernij
ĠZ olang
1 50
G P
erm is
Ġkn ippen
v c
Ġwee fsel
Ġopv alt
c afÃ©
Ġaange merkt
stocht elijk
s oorten
Ġroul ette
Ġverw eerder
Ġsch eer
Ġenerg iek
Ġsubt iel
Ġaanger aden
Ġbuiten lucht
Ġaanv aarden
D enk
A c
Ġd aag
Ġn um
me st
Ġfre el
ĠOlymp ische
Ġaut ob
Ġ19 80
zeker ing
ĠGem aakt
ĠNederland stalige
d irecteur
ĠPl atform
ap per
ĠAf deling
Ġgekleur d
ĠK a
n b
le ef
Ġpl icht
Ġfinanc iÃ«n
Ġverminder ing
Ver volgens
Ġv ies
Ġconcentr eren
Ġsp elletje
sche iden
ĠCom bin
anal ys
pp ers
Van wege
rib utie
ĠG ood
elicit eerd
Ġover macht
op ro
do chter
Ġo ogen
idd eld
Ġbeschermen de
Ġim ago
bl aas
Kort om
Ġg ood
ĠZ onne
Ġt att
Ġqu ar
Ġspeel tuin
l eren
Ġregel ingen
Ġrest erende
Ġke y
F oto
ĠV eer
Ġpe ch
ĠFe yenoord
B er
Ġform aten
Ġin genomen
Ġhart elijk
v s
Ġl outer
Ġonge dier
ĠcreÃ« er
Ġproduct iviteit
el se
Ġsub st
Ġr iet
ĠS M
Ġonder v
Ġtegen aan
ĠM ass
ĠC ross
k ind
Ġmater ie
ĠIntern ationale
ak i
ro oi
Ġwat ersport
Ġreg lement
Ġunivers ele
oel de
eeuw s
Ġimplement eren
Ġgem akkelijke
st udenten
Ġst reep
Ġbekend gemaakt
Ġbew eren
Ġfavor ieten
Ġgedr aaid
ven de
ĠAr m
ren ovatie
Ġi OS
b ok
ĠZ aterdag
Ġhart slag
onie me
Ġprof essor
feest je
Ġv eter
Ġgeh akt
ĠP L
Door dat
Ġkeuken s
desk undige
ir ten
ov a
Ġo h
Ġvoor kom
Ġverwezen lijk
S m
Ġf elle
Ġzo ontje
ĠKl aar
Ġgemen gd
Ġaandeel houders
Ġwein ige
ilj oen
Ġliter aire
z ool
ĠW outer
Ġaard gas
Ġgroot s
Ġa kte
Ġge pleegd
ĠBe eld
ĠL elystad
sh ip
Ġrijk s
M ed
ĠM B
Ġzeven de
Ġislam itische
Ġbev allen
Ġwh ite
Ġsche ids
Ġongedier te
Ġbev elen
dr aai
Ġger elateerd
ĠJ oe
Ġbij t
Ġhand eling
ie gels
Ġstap t
Ġafw achten
ĠV illa
Daar na
E B
Ġin breuk
nes ium
art a
Ġrond reis
ĠL ar
el ten
Ġdat gene
ver zoek
w ist
Ġt ast
Ġst rijden
ĠÃ¼ berhaupt
e iser
u len
Ġgen re
kt op
Ġwoning bouw
verzeker ingen
) ?
p resident
ĠM oh
Ġinkomen s
ĠCons ult
Ġzo juist
Ġf usie
Ġst oring
Ġhe us
Ġpos ities
Ġcompens atie
Ġnabij gelegen
Ġklin ische
ĠMeester es
uss ers
ĠH EER
Ġjar ig
Ġlen zen
Ġont slagen
ock et
Ġkosten lose
opt ies
Ġz uster
C ar
v ogel
Ġprovinc iale
ĠGl obal
Ġmed it
um b
Ġspons or
Ġdrink water
ell ig
Ġaller beste
Ġsat ell
de erd
ĠZoet ermeer
Ġf em
Ġgel iefd
Ġduidelijk er
ĠF ull
Ġregel matige
Ġconcurr enten
Ġonderte kend
Ġonrecht e
Ġsted elijke
Ġverh uren
schal ig
Ġdien de
bl oemen
ĠE ss
end am
bl iot
Ġinh uren
k es
Ġafge geven
Ġgraf iek
Ġtelef oont
Ġvoor deur
Ġeeuw ige
Ġprivacy beleid
ost al
olester ol
Ġmod der
ger elateerde
ĠO t
ĠCB D
Ġverzam elt
Ġachter laten
Ġwel vaart
Ġverniet igd
R L
ĠO C
Ġn eef
w ell
Ġover gebracht
v ullen
ĠG arden
Ġdiscipl ines
an ia
Ġborst voeding
Ġ iv
Ġsne akers
eer en
ĠW W
ĠEen maal
oet st
Ġsch utting
m ont
bele ving
Ġs app
Ġontmoet ingen
Ġin put
ĠK ok
pa den
Ġhand doek
h oor
Ġbeg raafplaats
Ġbevol kings
p resent
Ġperiode s
ĠKon ings
Ġverwel komen
Ġzen der
Ġst off
ĠD ru
ed el
jaar den
Ġrac isme
Ġwerkt en
ĠVrij e
Ġde v
ĠH ul
ĠS lechts
Ġb amboe
land schap
ac ao
uit er
Ġbez waren
Ġle idingen
ĠHeb ben
Ġneut rale
ĠPr in
Ġregistr aties
Ġling erie
Ġzanger es
Ġ199 1
T op
omen d
k achel
Ġzom ers
h orn
Ġst ak
ĠUl tra
anta ine
Ġbez et
iÃ« l
Ġschoor steen
ĠI erland
ĠV PN
v irus
Ġtoetsen bord
Ġac ne
Â ·
ĠAndr Ã©
ij ver
ex tra
Ġm arket
ĠR icht
Ġstor ingen
Ġzon wering
Ġk assa
Ġoverw ogen
L a
Ġze gen
Ġtro ost
im pjes
ĠJer uzalem
Ġd al
ĠN eder
Ġstroom t
ar ije
Ġk im
Ġged ing
Ġken merk
con cept
Ġvrij en
sh of
al et
Ġbest rijding
Ġb onen
jar igen
ĠEr fgoed
Ġg ister
Ġ2 20
Ġh uilen
Ġac teurs
ĠS ite
fot os
ĠV isser
ĠHel mond
Ġsk ype
Ġf ashion
ĠMarokk o
c an
Ġra zen
Ġg if
op ol
Ġb ure
Ġsc oort
Ġhuis vesting
Ġle kken
A h
ĠN PO
Ġaf sluiting
su pp
Ġeng in
Ġstop contact
Ġcha os
W O
comm unicatie
Ġzorg verzekering
ge slagen
Ġver te
ac ker
ol er
Ġseks date
Ġontwer per
Ġsin aas
Ġwel be
eu ge
den d
Ġzo zeer
Ġtest s
ĠP ed
Ġbe stelde
ĠBrussel se
Ġin leiding
Ġmondkap je
ĠR oom
Ġgebruik maken
ver houding
Ġge form
Ġvert icale
uil d
Ġbre uk
Ġhar ige
ĠO N
end el
ĠR y
ĠWet boek
Ġbesm ettingen
ings kosten
âĢ İ
ĠB E
Ġvolg ers
Ġzo ol
Ġattra cties
schil der
geh ele
ĠAl pen
h ok
ee ps
Ġl ife
Ġaut oriteit
Ġkost bare
Ġbedre iging
Ġsch imm
Ġbedoel t
Ġgok kasten
ĠT i
ĠIsra el
Ġ7 50
Ġom streeks
Ġsprook jes
Ġvolt ooid
I ER
st ichting
Ġbru ggen
Ġenergie verbruik
ig go
der n
sb eleid
st oten
ĠN OS
ĠE H
Ġuit geven
ĠJ ourn
ol ten
c s
Ġvere isten
Ġvitam ines
ĠH uur
ĠC ro
Ġp ian
Ġme g
ĠN ick
Ġboven genoemde
Ġnal aten
Ġverk racht
d elijk
ĠM ess
ĠF ijn
de coratie
Ġk rassen
Ġh ook
U p
Ġmilitair en
Ġdraa ide
Ġb rak
Ġopmerk elijk
Ġinzet baar
is k
Ġ iet
Ġer na
me den
bliot he
ĠL ong
sp licht
Ġkomen d
sproces sen
Ġtegen komen
ĠgeÃ¯ntro duceerd
ach en
ĠW adden
ĠR eken
Ġboven al
Ġaut on
W as
b orst
Ġmil de
ĠL ies
Ġfles je
ĠUtrecht se
ĠB ack
Ġro of
h aalt
kw amen
Ġdeelnemen de
Ġknie Ã«n
Ġ7 8
ĠFer r
Ġuitvoer t
Ġbru to
Ġwebin ar
Ġbele mmer
Ġheu vels
re es
ĠMad rid
d ouche
ĠF eest
voor deel
Ġstuur de
Ġimp uls
F T
ĠP RO
Ġgen ade
Ġbenad rukken
Ġraad zaam
sch ijf
ĠF oundation
acc essoires
ĠEx press
Ġit al
alis eer
h als
ate au
ĠM ast
ĠFor um
Ġaange schaft
ĠHeer e
Ġb aat
du ct
p age
ĠDag blad
Ġonde u
ĠN um
c ke
Ġsu p
on isch
ĠY oga
Ġafwijk ingen
Ġru iken
Ġmot iveren
Ġkle uter
Ġcontro les
r etten
Ġcas ual
Ġzorgverzeker aar
Ġbruik baar
Ġcl ip
Ġgebe ft
s ign
Ġpublic eerde
Ġvolg den
Ġ198 9
Ġtop per
Ġverste v
Ġtoon de
Ġa merik
ĠT s
et ijd
it us
Ġ7 7
Ġwerk ervaring
ĠMe isjes
ĠW int
Ġget allen
ĠT ab
inten do
Ġverkl aringen
j u
ĠPart ij
ĠM id
Ġre volution
Ġvarie ert
ĠG h
Ġaard ige
Ġvast gestelde
markt en
get s
Ġdraad loos
ĠS oph
Ġgeb ogen
Ġstruct urele
Ġerv arings
Pl us
ĠCan ade
Ġste entje
Ġover nachten
Ġment aal
Ġbe werk
gen ote
Ġproduc enten
Ġfeest elijk
Ġverhuis d
ĠRen Ã©
midd eling
ing eren
Ġaanspreek punt
ĠN RC
ĠBl oemen
ite in
Ġ6 1
Ġcul inaire
Ġvragen lijst
eken de
bl oed
stell ings
Ġvres elijk
ge erd
Ġorg aan
Ġm akelaars
ĠEn g
ĠOor log
Ġuit m
Ġd iÃ«
ĠKamp ioen
er ijen
u ks
Ġom gaat
Ġgest imuleerd
Ġbijge werkt
Ġcompet enties
Ġfull time
j am
ĠN U
ĠM oe
Ġh Ã¨
daag s
ĠS V
wat ch
ĠB eter
ua wei
osk ee
Ġvertegenwoord igen
b t
Ġhe up
Ġhoofd zakelijk
Ġm bo
ĠG ere
ĠL inks
Ġv ice
aanb ieders
ĠD ire
Ġverv oers
Ġc ruise
Ġc at
ĠRon ald
Ġle ent
ĠMarkt plaats
Ġ7 6
ĠJava Script
c ell
iet y
L imburg
ĠPr im
ot es
Ġcruc iale
com merce
vor dering
schik king
veil ig
Ġpsych ologische
ix el
en ken
ick et
ag a
Ġte en
Ġeet kamer
E EN
in iti
Ġhouden de
Ġwee g
ĠVoet bal
Ġpick n
Ġwagen s
bb eren
Ġperson age
Ġkarakter istieke
Ġb uit
over leg
yc ling
w is
Ġgere ageerd
kl ap
aaf de
Ġvert oont
wen sen
b ollen
ĠH aven
Ġse gment
ĠAl p
Ġdos ering
Ġdisc reet
sl achtoff
res erv
Ġres ort
Ġw y
ĠV V
Ġco Ã¶per
Ġport folio
Ġenerg iele
ins on
Ġuit laat
reinig er
ĠÂ §
Ġr onden
an aal
Ġinge gaan
.âĢĻ âĢĻ
Ġsport ers
b ier
Ġdynam iek
Ġeleg ant
ĠIN G
Ġstart ers
Ġop ruimen
ĠC op
ĠR ing
Ġr iol
Ġop zij
ĠB ot
ĠVrij dag
ĠA I
Ġ Ã³Ã³
Ġk achel
h oge
Ġ9 8
Ġmen stru
Ġonbe wust
ĠP le
Ġkunst matige
Ġzelf gemaakte
Ġreage erde
fot ografie
Ġvert rok
Ġb un
ĠZ it
Ġgelijk nam
ĠI sland
ĠB io
per to
Ġpartic ipatie
Ġaan st
Ġeigen doms
auw en
H a
Ġbenodig d
Ġvertegenwoord iger
p ese
D r
Ġd uiden
ĠWin kel
Ġkennis maken
ag ged
Ġmet ingen
is ky
k aan
Ġkampioen schap
ĠR iv
Ġbe ssen
Ġth r
C or
ĠC ategorieÃ«n
rij dt
Ġinteress es
Duit sland
Ġintegr aal
Ġbij draagt
ud o
Ġsp ins
Ġklass ieker
sb rieven
plant ing
Ġtoer isme
Ġweer geven
sp raktijk
ĠS em
Eigen lijk
Ġgeadvis eerd
ĠHand ig
ĠB org
Ġvl akken
be ke
Ġopv attingen
ĠA arde
ĠBuiten landse
Ġso und
ĠC P
sk aart
ĠS ilver
N B
cte d
Ġpan or
over last
gel uid
Ġmond eling
ip e
h aak
S e
Ġspra ken
P ol
ri f
ĠR oos
Ġal lang
Ġin lichtingen
ĠLe o
lo zen
ĠSt ads
ĠT ime
ĠVen et
Ġuit gesteld
ĠN ad
Ġc amer
Ġl ol
Ġe vol
act erie
ĠSpec iaal
Ġal ert
G er
Ġcon cepten
as p
aris sen
Ġliggen de
Ġcirc ulaire
ĠFinanc iÃ«n
t ann
ĠN eu
Ġgest ructure
s ers
Ġ ÆĴ
Ġs etting
Ġdaar buiten
Ġtra uma
ĠWor k
Ġomring d
ĠM ath
Ġk rok
ĠM ur
Ġsl aagt
Ġonder wij
Ġra ssen
Ġpsych ologie
lin ks
Ġveer kracht
ĠB urg
ĠC r
Ġaan nemers
Ġvoor rang
ill ers
Ġstruct uren
Ġr ib
Ġbegrijp elijk
Ġvan ille
Ġprins es
sp ress
2 000
Ġp ool
Ġbe denk
aar dt
the se
Ġdo zen
if ieke
atch er
Ġp assage
ĠÃ³Ã³ k
sp oren
Ġl innen
Ġoverw eld
Ġkool stof
ĠBl uetooth
Ġanal yt
ĠM P
du str
Ġad d
Ġpe uters
be perk
Ġge sc
Ġversterk ing
Ġsp ee
Ġlen ingen
Ġhoo geveen
ĠPS V
ĠWel zijn
ver schil
Ġnegent ig
Ġbroch ure
Ã ±
ĠF amil
ĠD ar
ĠN ooit
Ġged ronken
Ġg old
ĠRe is
Ġaf handeling
Ġhoogte punten
Ġch ips
Ġw oede
ĠAm stelveen
ĠP ubl
ic ipatie
Ġes sex
Ġvoet ball
Ġdat eert
Ġas falt
Ġcart oon
Ġon gebruikt
app ellant
Ġkon ijn
ĠS ize
ry sl
Ġontwikkel aars
amb ten
ĠGem e
ĠPro te
Ġverzam elde
Ġvoet ballen
comm od
Ġ( =
ol ine
Ġeen zelfde
ĠL an
Ġbewon er
Ġvat baar
sk osten
Ġdiam ant
ir s
as on
eloos heid
pro of
pl us
Ġto il
ist offen
Ġple gen
il les
ds nel
Ġge ass
Ġconcur rent
. ]
Ġvoorl ichting
z out
Ġsl etje
P ar
w intig
Ġbenader d
Ġkle m
recht elijke
w ens
perto ire
Ġter min
Ġsex adressen
ĠW eder
B ru
Ġfysiot herapeut
Ġse ctie
Ġpap rika
n ood
be werking
ĠIn c
Ġfl auw
ve chten
Ġchau ffeurs
Ġbrieven bus
ĠEconom ische
ĠgeÃ« x
Ġvan middag
w ie
pol der
Ġfisc aal
Ġre validatie
ĠhÃ© Ã©l
R ond
d reven
ĠC C
speel tjes
Ġc atalogus
ĠJ oost
Ġâ ĸ
ĠP u
l eten
Ġblijven de
Ġte ch
bij eenkomst
i ase
ĠOpen baar
Ġsupport ers
Ġverminder de
ze m
Ġgelegen heden
h ij
fact or
ett eren
ee dt
Ġom heen
Ġuit stel
Ġleg it
ĠB L
ĠR ub
Ġintellect uele
Ġch ip
. âĢ¦
Q u
od el
h oeken
Ġpartic ip
Ġverschrik kelijk
Ġver houdingen
Ġneer gezet
Ġaannem elijk
pers oneel
Ġge paste
m ijnen
p are
b ell
sch uld
Ġcy clus
Ġbel oofd
deren de
Ġcarnav al
ĠL ine
Ġspring t
uit stoot
s oftware
or ds
Ġkw ant
Ġverv alt
b onden
Ġro s
Ġor den
ĠD ruk
Ġklein schalige
Ġobject ief
Ġmass eren
n atuur
Ġsex fil
Ġdakk apel
besten dige
oot je
appar aten
ron ten
sc ript
Ġd oop
ĠP ic
ĠC S
Ġind irect
Ġbeeld scherm
Ġc ast
C re
Ġ `
j uiste
ĠN ik
ĠG O
ron om
Ġlekk age
ace ut
w ap
str aten
H P
lie ft
Ġricht te
pens ion
Ġpr ikkel
al ity
ĠN ight
itu aties
ĠA gent
Ġambul ance
rouw d
oo pen
Ġafk oelen
Ġc ool
ĠY our
t wee
I ON
Ġl ijdt
Ġvliegt uigen
M ob
Ġzest ien
Ġverst opp
Ġm unten
richt ingen
ri um
EN S
Ġboek ing
techn ieken
ĠW ist
ĠOnder weg
ort ing
ben en
Ġgerenomm eerde
str alen
Ġverscheiden e
Ġhe ide
Ġt we
Ġaan houden
Ġaan komende
vaard igheid
Ġf atsoen
sk erk
ĠJose ph
ĠM ain
ĠNoord zee
Ġhy giÃ«n
Ġrespect eren
iv eerde
ben emen
euge ot
hedr aal
Ġbet onnen
Ġgew richt
Ġverl aagd
arch itect
dro og
Ġgoud a
ĠV ER
cl aim
kl as
Ġd aden
ĠSk y
Ġbevest igings
he ater
Ġverdiep ingen
ĠSl im
Ġaf vragen
Ġhoef de
Ġvloei bare
x it
Ġd oods
ĠH ert
Ġzuid elijke
Ġcompl iment
Ġtwee maal
Ġpil ot
ĠBe heer
Ġgelijknam ige
ic on
Ġfil t
Ġp aus
ĠBel gen
ĠC oll
Ġgek wal
Ġanim atie
ĠVr ienden
ĠD ick
Ġrapport age
Ġ 000
Ġie ders
Ġgrond gebied
le eft
Ġnodig t
Ġvl ug
Ġinbeg rip
Ġmat ig
Ġsn ell
ĠLe den
kaart jes
r oeg
Ġonver h
s o
Ġhar ten
p annen
rik ant
Ġelast ische
ĠG ert
ĠK osten
Ġkijk ers
Ġint ieme
ĠAb ra
Ġr ent
Ġman ip
Ġondernemer schap
w ing
Ġvest igen
ell ings
ĠS ander
Ġelektron isch
Ġoverb odig
Ġziek tes
Ġwezen s
Ġj oden
Ġste kker
ro erende
ĠA G
Ġc erem
Ġz ingt
aas je
be kleding
Ġp it
Ġvernieuw en
Ġbekend heid
Ġbek ro
ut ions
Ġst af
Ġfundament ele
Ġdak de
ĠM inder
Ġverantwoordelijk heden
kwart ier
ĠAm stel
ĠRij pe
Ġover treding
Ġhorm oon
U nie
Ġz el
ĠSu cces
sp ring
w ets
ĠE M
ver schillen
Ġafwiss elend
ĠP ure
Ġverd ragen
ur ne
Ġport ie
or iÃ«nt
Ġn immer
Ġcadeaut je
vest eerd
Ġp igment
Ġnabij heid
ken burg
ĠAn d
ĠI rak
ĠF M
Ġcon ferentie
op gave
op leidingen
ek st
ĠL o
Ġsol ide
ĠE mmen
ake hol
ĠPr ima
ĠM O
besp aren
Ġeett afel
Ġpol der
Ġgew ijd
ĠR idder
instru menten
Ġom zetten
Ġbot ten
gew enst
Ġgedetail leerd
ĠM aa
Ġz uig
Ġvrij staande
ver dachte
s feer
Ġeven veel
Ġerg ste
gelegen heden
profession als
Ġz orgel
Ġverwarm ings
st ond
Ġnavig atie
Ġvr ijk
Ġmag ne
Ġde eltjes
Ġbev el
ob el
D I
Ġsy stem
Ġingewikkel de
Ġsc oorde
Ġon d
Ġn omin
âĢĻ :
Ġbrood je
Ġbr oed
ĠVen lo
Ġoor bellen
ĠGe weld
ĠC ode
ĠI M
Ġoverd reven
ĠL aag
besp aring
dra ger
Ġru bberen
Ġvest igings
Ġb oeiend
Ġwillekeur ige
tre kt
ak elijke
ĠAmerik aans
st erd
ra men
Z eeland
Ġbepalen d
Ġblok jes
Ġb ind
H L
ri o
Ġvrijdag avond
x el
Ġing reep
Ġexploit atie
ĠK ampen
isten te
Ġdorp jes
Ġren overen
ĠP orn
aan deel
Ġgeact iveerd
Ġde gelijke
Ġrec ensie
Ġmiddel eeuwse
Ġver waar
le et
Ġconcl ude
Ġsn acks
20 11
b uilding
pat iÃ«nten
Ġop positie
ft er
voorsp elling
ĠF en
Ġgesch ied
Ġto ele
Ġoffic ier
aand oen
Ġtegen komt
Ġeeuw ig
ĠGoed kope
op ter
Ġvocht ig
ag ia
Ġst uit
in kel
Ġal gehele
Ġgere d
Ġaanget rokken
Ġfl u
â Ĩ
ĠHeeren veen
Ġs ou
ĠP aris
... )
Ġcoach es
Ġopge heven
ĠB esp
ĠCom fort
om i
ste ding
ut h
Ġdru kt
ĠHeu vel
Ġmob ile
ĠRecht s
Ġuitvoer ig
Ġtext uur
form eerde
ĠD ro
ĠS us
ĠComm unicatie
Ġindividu en
ĠB ag
Ġdichtstbij zijnde
Ġminder jarige
Ġbesm etting
gener aal
ĠReg io
Ġpu ber
Ġkorter e
Ġbeoog de
Ġ7 4
Ġpitt ige
f eesten
Ġga zon
Ġt rokken
M o
Ġgang bare
ĠV lie
st ream
A angezien
ĠV ac
Ġzo wat
wor kshop
Ġd j
Ġj l
Ã ¸
Ġtoel aat
amp ing
jectie ve
ĠMag azine
ĠA R
ad or
ge sloten
Ġveren igd
em an
se arch
Ã³ n
Ġass istent
Ġverlie p
iter atuur
ab o
techn ische
Ġel ftal
Ġspra y
Ġb uizen
Ġuit rusting
Ġc ilinder
enn y
Ġru ikt
Ġeigentijd se
Ġresp ons
Ġtrans fer
os a
Ġk ist
Ġabon nementen
ĠHet zelfde
erm ond
l at
Ġvle ugels
Ġl ove
Ġcont ainers
Over igens
id as
Ġzoek machines
J ul
Ġart istieke
ĠCo untry
Ġhorm onen
Ġvlak ke
Ġfunction eert
ĠSm it
ĠF act
f its
al ers
Ġrazen dsnel
ion ale
Ġel ite
Ġbuiten af
ĠS ier
Ġoor delen
p ack
ĠJ es
Ġgevarie erde
Ġattra ctie
ĠOosten de
pt ische
Ġet her
ĠB lijk
int on
D eel
Ġveil ing
Ġprie ster
Ġop maken
wet geving
Ġbet reden
Ġseni or
d oelen
Ġsp in
Ġcy ber
stij len
Ġball on
aar se
h h
Ġverh and
Ġkonink lijk
ul ar
ĠLeu ke
u eren
wit te
Ġecht scheiding
M eest
m ooie
Ġl of
tann iÃ«
ĠGroen Links
ĠWeb cam
Ġr uwe
Ġ4 50
Ġer kent
Ã Ł
ĠV ill
ac a
l ichten
Ġr ie
Vor ig
Ġb aard
ug ht
J ouw
ĠW ood
Ġgenees middel
ĠNederl anden
ĠC H
Ġalle daagse
Ġhelder heid
ge erde
ĠR O
Ġom roep
Ġgene zing
per centage
Ġinsp ire
h agen
ĠEn gin
Ġkant on
Ġb ul
ul ine
ĠN oorden
att le
ell ak
clus ie
y th
Ġgem erkt
Ġlegend arische
y o
Ġdash board
gel uk
ĠK orte
II I
Ġgrond ige
ĠâĢ º
sp rekers
Ġartie st
ĠVoor beelden
ap ro
Ġmeren deel
Ġo ccas
Ġ2 30
Ġhoofd stukken
u ine
Ġ; -)
Ġaf nemer
Ġbeur zen
in iÃ«
Ġpl ast
ĠSt ock
Ġver maken
Ġvl oerk
ĠB ere
ĠN ike
Ġaange sproken
v iseurs
Ġgeres erveerd
Ġ7 3
Ġrefle ctie
cus es
ĠMatt h
H ert
ĠB oe
Ġ8 7
Ġinnov atief
doc ument
ark eerd
ĠVast goed
Ġband s
Ġge deelde
K n
red acteur
Ġver p
Ġaf leggen
s ites
Ġeen en
Ġverkocht e
ĠP ack
Ġonbe g
Ġbik ini
Ġfunction aliteiten
ien e
Ġapp els
Ġat mos
ĠCamp ing
Ġavond klok
et a
k ie
Ġvis u
re sten
st ick
Ġst ijf
Ġd ri
ol ing
ui ving
be vol
Ġtom aat
te x
ĠM ind
H aar
af spraken
Ġverz etten
Ġantib iotica
be vestiging
Ġsamen hangen
Ġdemonstr atie
Ġvl aanderen
Ġbuiten wereld
Ġaanbev elen
Ġd armen
reg n
ys iot
Ġb ut
rij gbaar
Ġvrouwen sex
ee ken
Ġvis ueel
ĠG ames
Ġopl aad
Ġger inge
rit s
ĠO S
den berg
vis ies
ĠÃ ī
Ġvij anden
oven de
Ġkn us
m assa
ĠGez ondheid
B ook
cent r
aute uil
ic il
un ter
ĠH uawei
Ġb dsm
Ġterugk eren
Ġmass ief
oe zie
Ġde als
Ġheer hugowaard
Ġbuff et
Ġonder vinden
Ġdel ft
Ġsp rekers
Ġsp ar
Ġlanc ering
Ġmon teur
Ġ> >
Ġp ur
ĠAl phen
oog d
Ġzus je
Ġw end
ĠProvinc ie
ge he
ĠZ en
Ġvier t
n omen
ĠAls of
neem bare
Ġk ick
ĠPart y
u xe
Ġbew aart
Ġprecie ze
Ġzuin ig
Ġgecon cent
kk ings
Ġl ar
ĠHe ijn
ĠH A
ograf isch
Ġr oe
ĠP i
Ġged aald
Ġtweet al
Ġal gorit
ĠTra vel
ĠM C
Ġneuken de
ĠX box
Ġbeh eerd
sc omm
Ġb uigen
Ġmon teurs
Ġher roep
Ġn icht
Ġsch uren
Ġgesp annen
Ġop doen
ell ow
Ġsuik ers
Ġeenv oud
ĠAdvoc aten
B r
20 10
Ġwe kken
he ad
Ġkn el
ĠD VD
ĠCon st
gt ijd
oeg ang
bij stand
Ġknap ste
ĠN O
Ġdemocr atische
Ġou derd
Ġwerk gelegenheid
ĠD un
mak ings
Ġnoord elijke
ĠM and
Ġz alen
ĠL ex
Ġblok keren
Ġ quiz
meu belen
Ġinspir erend
pakk ing
Ġcontinu Ã¯teit
iel id
Ġinvester ings
ĠAr den
ĠSinds dien
spir atie
uur s
Ġz ink
Ġd rast
Ġpersonen auto
Ġkerst boom
om eter
in komen
Ġuit beste
B E
Ġp aleis
Ġ; )
Ġzwem baden
Ġ19 40
Ġv agin
ĠAll ah
Ġvrouw elijk
Ġ Ã¨
Ġac ryl
og h
Ġvier kant
ĠT a
Ġvl inder
Ġvolst rekt
ĠS ommigen
Ġverstand elijke
ĠEx cel
Ġinf ecties
Ġo x
ĠA ren
oek omst
Ġbesp aring
ĠP U
Ġom schrijven
ĠIJ sland
ĠRob in
Ġdr inkt
Ġprofit eert
Ġbl ikken
Ġhandh aving
Ġverb ruikt
ĠS of
Ġgeschil derd
I Z
Ġr i
Ġopt reedt
ĠG irl
Ġle der
e inde
Ġbedrijfs informatie
ens ioen
Ġporn os
Ġsy ste
Ġkeram ische
q uis
u en
be ker
Ġkl okken
Ġch e
ĠY oung
p u
ĠE co
Ġafw as
Ġkart on
Ġan onieme
Ġval k
Ġbuur meisje
F F
Ġinfra rood
Ġbe ft
Ġom geven
Ġon kruid
Ġburger lijke
G S
Ã¯ st
Ġst yle
ĠB ach
ob bel
bij v
Ġmee ge
ak els
r oeven
ond on
z itters
Ġaff aire
Ġpad den
ĠBr ink
mod us
Ġinvest eerders
y on
Ġoverst appen
Ġgecon stat
Ġvert aal
ĠTex el
Ġsch ijnen
Ġpr enten
H V
Ġzicht baarheid
Ġover weegt
w o
Ġsn appen
2 50
cl ar
Ġkant ine
ĠG eel
ĠMult i
ht ml
Ġte voor
ush i
k oeken
Ġvak mensen
Ġvis um
Ġgeperson aliseerde
Ġversn ellen
Ġzien s
Ġbiod iversiteit
htt p
Ġant iox
ram p
Ġet n
ĠArch itect
ĠZ uider
Ġcon versie
ch ron
ie w
Ġ5 000
Ġli quid
ĠBrabant se
nem ens
L eu
ĠZZ P
ĠT ar
v uldige
ĠS E
ig ieuze
Ġb ran
Ġgev ulde
Ġverle id
ĠN intendo
meu bel
m aster
Ġsl aven
Ġpos ition
ĠFran ce
ĠS ales
Ġoper a
Ġm Ã©Ã©r
Ġdoorb reken
ĠRe in
aren drecht
Ġwis kunde
Ġfinanc ieren
ul pen
p g
chn ologie
end om
Ġ( âĢľ
Ġm n
Ġmedi ator
Ġovernacht ing
Ġsk ige
Ġgeorganis eerde
Ġl oy
ĠO s
Ġrobu ust
Ġherinn ert
P as
Ġaller eerst
Ġged et
h l
ĠA Z
Ġd rive
Ġh ok
ijn drecht
Ġabon n
pro vis
Ġhel den
Ġoper ationele
Ġgep ijpt
Ġbev alt
ver w
ĠG eslacht
le gt
ĠM ah
inf ect
past a
wee kt
Ġhand vat
Ġzons onder
Ġstij gende
Ġb oor
v akken
Ġintegr iteit
Ġk weken
ĠK LM
Ġop een
Ġhil versum
Ġdert ien
wijz iging
8 00
re mmen
scherm d
Ġsoep ele
Ġaange gaan
it an
ĠS eb
ĠDigit al
ĠR oss
Ġf ut
Ġbeschad igen
v ar
ĠKl imaat
ĠL ig
Ġdier bare
Ġverv elen
ĠO k
oet e
Ġr atten
Ġge ann
Ġdou chen
Ġachter gronden
Ġkunst gras
ĠSp an
Ġt illen
Ġip v
H oog
ĠGG Z
Ġtevoor schijn
Ġsco ot
oev orden
Ġverk opers
Ġmeld de
im it
w inning
Ġw all
Ġver ven
Ġonn odige
Ġade men
P G
Ġk ras
ĠCent rale
Ġkap per
org aan
Ġgerecht vaard
in ingen
ĠAl lereerst
L aten
Ġsens oren
ĠMart ijn
Ġheil ig
Ġz onen
Ġ: -)
ĠL eef
mer meer
ĠF ant
he u
Ġin breng
Ġonafhankelijk heid
Ġnauwkeur ige
Ġadem benemen
Ġzeld zaam
ĠRe acties
Ġfotograf en
kleur ig
Ġdomin ant
Ġsal do
Ġgeh alte
D C
Ġm ouw
Ġte elt
ab iliteit
ĠF ashion
Ġz utphen
oe sem
Ġmoeilijk heden
Ġpr ik
ent eerde
ĠGez ondheids
w n
Ġ- -
Ġbak ker
ĠL uik
inter est
Ġvide oc
Ġzui vere
Ġafge beeld
ĠN ord
hoe ve
Ġbedre igd
Ġ8 4
Ġondergrond se
Ġwerk loosheid
H oud
ĠÂ ´
Ġgeb it
ĠVol gende
over dracht
ĠZ iekenhuis
Ġrij d
Ġwijng aarden
Ġdoos je
D M
Ġde ad
Ġdaadwerk elijke
Ġst akehol
iviteit en
Ġgok kast
Ġvoort s
Ġop inie
Ġsterk ste
Ġzijk anten
Ġgeg ooid
T ijd
d ay
Ġbeheer st
Ġ9 6
ĠIn houd
al i
Ġtrad ities
Ġorganis eerde
ĠBi bliotheek
gro otte
Ġbek leed
Ġkl uis
z ige
t hop
ete ctie
Ġc iv
Ġuitger oepen
ĠPl ant
ĠSer ies
Ġuit wisseling
Ġge optim
is ion
Ġrec ensies
ĠR un
Ġdag boek
ras h
Ġpaar s
ĠG ij
Ġvel gen
abon nement
Ġdim ensie
Ġh ockey
Ġz end
Ġgeb lok
Ġmater ieel
Ġleef de
s neden
rie st
Ġje uk
Ġvoor ganger
ou ds
Ġra p
Ġcom bi
Ġsche uren
uim e
Ġquar antaine
er ve
ĠgeÃ¯n vesteerd
ĠG ab
van af
g racht
d rank
z ang
Ġkl oof
ett a
ic ure
Ġer af
ĠR ose
Ġa ziatische
Ġal melo
w i
Ġhartst ikke
Ġduit se
Voor al
esc ort
Ġgroot schalige
Ġvoer de
. ),
Ġdrie hoek
Ġst repen
ĠG iet
Ġmijn e
ĠBru ssels
ĠM u
Ġhier toe
Ġont v
Ġbre ak
Ġdaar onder
ĠB ram
Ġgr iff
ĠC ari
kont akte
meld ing
Ġschoon heids
film d
Ġm essen
Ġu t
Ġdraag vlak
Ġkap el
ĠVoor zien
ne kk
ere d
Ġneg eren
Ġp osten
Ġch olesterol
Ġ rijs
Ġmee maken
Ġopge sch
Ġbevoegd heden
Ġaanwez igen
os h
Z ondag
Ġc afe
Ġj ac
Ġavond je
pr ise
' t
ir aten
Ġo ceaan
Ġnab ije
ĠDon ald
ĠCent re
K S
Ġ19 70
Ġsm ooth
ĠCa rol
Ġzoek resultaten
d op
D rie
Ġben ut
Ġreg ime
ĠGe org
Ġm it
Ġo uwe
Ġverw orven
gebruik er
ĠB uur
ĠS qu
hebben den
Ġj agen
ĠC ust
gem akkelijk
combin atie
Ġaan gevoerd
Ġex tens
Ġverniet igen
al iter
Ġpol is
Ġc ro
Ġgede kt
weten schappen
Ġvroe gtijd
bru ggen
z aakt
bund el
Ġstr aalt
se weg
be schrijving
ag h
Ġauthent iek
Ġuur tjes
b elt
Ġbier tje
a is
pp ro
uk i
Ġgere st
in ch
Ġopdracht nemer
sta dt
Ġheft ige
h ande
Ġinst ap
Ġvl otte
ĠToy ota
Ġbeschad iging
Ġindustrie el
Ġgerenov eerd
Ġwet houders
Ġte ef
Ġuitzonder ingen
ĠK ra
un ctie
ill ingen
anc a
Ġover hem
Ġsm eer
zw art
bel ang
ĠUS A
Ġcoron at
Ġdel ic
Ġmater iÃ«le
il ter
Ġzul k
Ġonsch uldig
Ġe de
Ġvertrouw elijk
ĠOp merk
Ġhuis jes
ud g
Ġaanv oelen
Ġl ay
ĠZ utphen
ra ppen
Ġst en
Ġt ik
Ġversch affen
ĠD O
ĠBer oep
oe staan
ĠR ust
ĠS ov
put eerde
st aart
ĠK rist
a dt
Ġillust ratie
ell ante
b ody
sens or
ele kt
Ġcalc ium
st rip
Ġhorizont ale
Ġtwee Ã«n
and o
win ter
warm te
Ġverz w
is d
de d
gez ellen
Ġintens iteit
Ġnegent iende
ha ha
ĠP V
ĠSp ring
Ġh its
onder neming
m bo
a ert
ĠF em
Ġreken t
ĠT ok
oedd h
an ces
b uddy
Ġinb oedel
Ġh are
ent oon
oze f
verh oging
ĠBl og
Ġex t
Ġwaarb org
Ġl ijsten
Ġj an
Ġopl etten
Ġvin yl
Ġcontact eren
ic ien
ĠS au
mm et
G l
rel aties
Ġcamp ings
Ġm igranten
o stel
Ġkruis ing
R es
Z onder
Ġ8 2
St and
Ġgesch iedt
Ġcurs isten
Ġversl aving
I tal
Ġge per
Ġmethode s
ĠEl s
b aas
Ġcontrole ert
Ġanders zins
Ġgesch oten
Ġreg ist
Ġsong s
Ġse mi
Ġmag nesium
Ġvrijwill ige
Ġont binden
Ġp aste
Ġbest uderen
Ġdigit alisering
Ġl aste
ĠKort rijk
os m
ac on
. ;
Ġfeit elijke
ha vens
Ġst oep
ĠSec urity
Ġmiddel grote
m aanden
ĠAl i
Ġpar el
Ġgetrouw de
Ġgesch onken
oo dt
= =
Ġshow s
ra ce
Ġrom antisch
ĠM BO
ĠDef ensie
ge ile
Ġf alen
over schrij
b row
Ġl ongen
ĠM ike
Ġreal istische
Ġv aten
Ġtoe slag
Ġp oorten
Ġgez ongen
l opers
Ġbak je
Ġmisd aad
ĠWash ington
Ġverg unningen
Ġnat ur
Ġl ijk
Ġaqu arium
Ġmee brengt
Ġin val
Ġverd achten
e ste
ĠS oftware
Ġaf gevoerd
ĠD elta
Ġpark ing
Ġk ad
ĠO x
Ġaanvullen d
12 3
Ġin woner
Ġstr aling
K leding
clus ive
Ġcompon ist
Ġ8 6
res h
ĠJans sen
vr ies
ĠB ab
Ġ198 5
tra ject
Ġopen staande
Ġgelov igen
Ġont g
Ġverwarm d
anne ke
Ġ198 8
j ongen
o am
Ġcan vas
w all
ĠHoog te
Ġfaill iet
ĠH yp
ig ma
ĠSp eed
d aal
Ġabs orb
Ġgeautomatis eerde
Ġsp r
Ġkle uters
Ġtwijf els
Ġc red
Ġagr arische
Ġdoor ge
Ġonder hav
Ġm Ã©t
ard o
Ġover sch
H S
Pers oon
ĠS he
Ġsch ouw
Ġf f
Ġel imin
ĠVoed sel
Ġbezorg ing
Ġtrouw de
Ġpot entie
Ġintelligen te
ĠC BS
Ġsch eep
Amerik aanse
Ġvle ug
Ġleven dig
Ġcomp ositie
k raan
Ġbel ach
Ġopgev angen
ĠCornel is
Ġon volle
Ġk W
Ġleiding geven
Ġsl ots
ĠE ver
Ġgene igd
ĠD ist
Ġpr oeft
Ġsp anningen
Ġperson al
Ġaankond iging
Ġk ermis
Ġinf l
igen t
na ec
ĠProdu cten
Ġhuur auto
Ġzui vel
Ġst ar
Ġvracht wagens
bouw er
Ġsec urity
y wood
Ġiet wat
ĠW A
ĠAP K
k ist
Ġinteg rale
rans itie
Ġcoll age
Ġbedrijfsp and
Ġuitgever ij
Ġwij ten
Ġcannab is
Ġtoezicht houder
Ġru iten
Ġdoor gevoerd
w ord
V ert
Ġverschuldig de
Ġhand elt
Ġbinnen zijde
ver wijk
Ġopst arten
ĠBo ys
ĠDen nis
Ġvakantie huizen
Ġs ort
ĠS anta
ĠLen gte
Ġvervuil ing
ie ds
ocht ans
ĠTen zij
ĠCh i
Ġca o
Ġbel eefd
Ġeen malige
Ġvermen ig
ĠLimburg se
ĠSte ven
ĠBe auty
le ct
ĠP ur
ĠP ad
sp e
Ġw eld
Ġuitge zet
ĠMooi ste
ijk erk
Ġgloednieuw e
Ġontste kings
Ġverb randen
Ġeffectie ver
Ġann o
b ijna
Ġver over
ot isch
Ġwel komst
Ġfil men
Ġcomplex iteit
ar etten
Ġafd rukken
Ġ7 1
Ġmenstru atie
ot or
Ġhom oseks
Ġleu ks
Ġzwaar te
L and
ĠP eugeot
beheer ders
M ag
Ġover komt
Ġiemand s
Ġ17 0
iep ing
Ġo om
l oo
ge wijs
w ogen
ĠSt udenten
Ġvier ing
lief hebber
Ġst rekt
ĠC u
Ġ19 44
ĠS i
au ffeur
ĠDe ense
Ġambitie uze
Ġinst ituut
Ġkon ijnen
Ġwereld s
Bed ankt
Ġbeg reep
ĠV alle
Ġkie zers
Ġbev rijding
Ġaant oon
b orgd
Ġrechts vorm
K le
v aste
zijd ige
iz ers
ul f
ringen de
Ġontwikkel aar
Ġtoe behoren
ĠMon te
ĠSch iedam
ĠCle an
u euze
kle ine
ĠR iet
Ġg angen
Ġkop pen
Ġterrein en
ĠVor ige
Ġbe sten
uk aart
Ġbel oond
Ge z
Ġd aders
g eren
ĠM oor
Ġsolid ariteit
l ichaam
Ġh uil
open de
ĠE sc
ig i
ne veld
ot on
Ġnacht rust
Ġn ostal
Ġgev oeld
itie me
wet se
if ied
och em
ĠJ ak
Ġvrij stelling
Ġnaa sten
ĠH ann
spre ker
ur ige
Ġbl ock
z itting
ĠF el
at ien
ĠJ O
aad pleegd
ĠP oolse
ĠPost NL
ĠL ast
AS S
Ġvoor nemens
sl im
ĠY e
st on
ĠSte fan
Ġgra an
Ġ[ [
Ġbeg aan
Ġparag raaf
E erst
prest aties
ĠEx pert
Ġwiss elende
Ġgede fin
wonen den
de ze
ĠS L
R U
ĠCh rome
vru chten
nst ar
Ġkind jes
Ġpomp oen
ĠC ath
Ġg ooit
Ġuitv als
Ġbew eert
Ġneer zetten
el p
ĠA T
ber ry
Ġze ge
ad oor
ĠT j
Ġverniet iging
ĠSp oor
d ingen
ĠMoh am
Ġhum an
ĠKun sten
sp reek
kop er
pl ichting
Ġtoen eemt
alle en
Ġgeass oc
ĠCan on
Ġmin naar
Tegen woordig
Ġun d
Ġprec isie
v illa
Ġbereik baarheid
ah n
Ġmin ute
ĠH ill
ĠE et
Ġle deren
Ġdoor brengen
Ġgereed schappen
Ġp ut
iere cht
Ġass oci
S oc
Ġsamenwerkings verband
Ġprote cted
Ġzorgverzeker aars
ĠAbra ham
p riv
ĠWill iam
AN T
Ġwiel ren
D W
ĠKoning in
Ġkap it
Ġko zen
ĠTran sport
ĠQu ick
Ġh uurt
Ġp ict
ĠVolks gezondheid
N T
ĠP eters
Ġblad zijde
Ġst oren
row d
Ġro ermond
Ġunivers um
Ġang sten
z alen
ul pt
Ġaf rikaanse
Ġbehoren de
Ġre pertoire
] ]
ver tegenwoord
ĠHen gelo
ĠE V
on o
Ġbre dere
Ġdat eren
k al
Ġgelijk tijdig
Ġp ie
ent wintig
ĠLuc as
Ġafwijken de
Ġdem o
ĠTal ent
Ġbestuur lijke
Ġevalu eren
Ġvriend jes
Ġwereld kampioen
Ġcompl icaties
Ġeven tjes
Ġmo le
Ġass ist
Ġmen ings
O nl
ĠC all
ow een
eer baar
Ġ ....
ĠN orth
Ġtw itter
ĠS eni
Ġb ijn
ĠSport s
Ġex tern
Ġbewust wording
ĠL G
neem baar
ed y
Ġporte feuille
bliothe ken
Ġbe werking
âĢĿ )
Ġ12 00
Ġfl irt
Ġwed den
ĠOn geveer
Ġhard nekk
ĠM eg
Ġg amma
Ġal om
ĠSex y
OR T
Ġoog t
ro ze
ĠFle voland
Ġhoofd kantoor
n i
ĠE c
ĠKun nen
Ġd ad
Ġomgek eerd
ĠHong arije
Ġen k
ĠM ak
Ġchamp agne
ĠG S
ĠBe schik
Ġj oodse
Ġp ony
sh irts
st one
W ater
Ġwer ven
Ġzwij gen
i vering
Ġp ikken
Ġschrijf ster
Ġst aken
ĠG L
Ġover gebleven
Ġgek ookt
m olens
Ġvakantie woning
Ġgeheim en
ĠCh ic
Ġon regel
Ġvoor schot
ĠValent ijn
Ġoppervl akken
ie v
ĠJ am
u sten
Ġbr ilj
c ult
Ġuitgev oerde
Ġop neemt
Ġkat oenen
ĠZwits erse
Ġzonn ig
Al l
Ġink open
G oogle
Ġover gaan
Ġ9 2
Ġelektron ica
Ġz aag
Ġtegen woord
Ġm art
ĠG P
Ġacht eren
Ġhulp verlening
Ġmonument ale
ĠD aan
ĠG ren
Ġt enten
ĠNet werk
Ġinc identen
ĠSch even
Ġwee f
Ġb utton
ste am
Ġp res
Ġ Ð
Ġb itcoin
ĠH ET
Ġaan slagen
Ġgewaar borgd
Ġuitdagen d
ĠL iving
ele ment
ĠG olden
zend ingen
ĠHel p
Ġstem t
Ġbl aadjes
St eeds
Ġp ract
ĠSp a
Ġger ing
Ġk eken
Ġonder st
B ijna
Ġged ood
Ġ7 9
eken ing
Ġeen mans
ĠB an
ĠB is
Ġver duidelijk
Ġbereik te
Ġsch uin
Ġbep aal
ĠInd ische
ĠS ign
F ran
Ġaanget ast
Ġaanv oelt
Ġverm eer
w ich
Ġperiod iek
Ġovertu igend
Ġkort om
Ġmuzik aal
ch ain
Ġbe voor
Ġkleur rijk
ĠT immer
Ġzoek opdracht
Ġvers oep
Ġwerk zame
Ġverk ozen
Ġworst elen
Ġbestur ingssysteem
ok ke
Ġvitam inen
i enten
kt akel
Ġonder stel
Ġd ossiers
Ġover eind
ĠV U
Ġin zam
Ġantiox id
Ġmult im
ialis me
Ġna re
Ġp ier
Ġbest aand
l ub
ĠT am
Ġp i
Ġchat rooms
W er
Ġl obby
Ġnar c
Ġbro ertje
ch ange
mer ing
Ġbescherm de
ĠW omen
Ġonvermijd elijk
Ġonge d
Ġrep et
ĠM ee
Ġst ere
af druk
ĠBedrijf s
Ġautomob il
K un
Ġ24 0
Ġbegele iders
elf zijl
Ġim plic
Ġstappen plan
Ġkennis makings
Ġs ale
ĠLaur a
ĠO e
Ġmis bru
ĠPor sche
Ġgem akken
f che
lie d
Ġfacilit eren
streek se
Ġle en
ĠVe cht
V erk
Ġmeub elen
ost aat
Ġon juiste
b udget
ĠW oning
Ġongev allen
at oe
Ġoverle ef
Ġspectac ulair
Ġbeveil igen
Ġsm al
Ġherken bare
stand igheid
be halve
st alen
ĠÂ Ń
O ost
Ġver zen
Ġinform ele
Ġbele mm
Ġhand tekening
Ġoneind ig
Ġmult id
Ġbloot stelling
Ġverz innen
Ġvle ugel
s recht
% ).
Ġaanwij zing
ĠSh ell
ĠNoor der
Ġhoof de
o chter
Ġantwoord de
Ã¶ l
Ġdu el
spl aats
ĠWik ipedia
c d
Ġuit brengen
od ge
Ġstier f
Ġvoor spel
Ġcent ra
Ġwebcam sex
Ġvac c
Ã¨ nes
Ġp s
Ġregion aal
ĠintuÃ¯ t
ĠDe v
ed itie
ĠEm ma
sc ar
Ġmann etje
Ġnieuw sbrieven
Ġm aa
Ġsch and
bs hop
ĠAntwerp se
len s
Ġdiscipl ine
ĠB ri
ite ur
sl aap
Ġvoorbe houd
Ġstort ing
y bal
Ġin leveren
Ġgro et
V oeg
Ġl act
Ġsp ek
Ġbehoe ft
St ation
Ġmiddag s
k je
Ġredelijk erwijs
Ġh ack
Ġk aarsen
Ġsurf en
Ġmat te
Ġvoor gelegd
Ġarbeids voorwaarden
Ġp oe
ĠDi verse
Ġilleg aal
Ġw ax
Ġgeloof s
Hert ogenbosch
Ġr end
Ġverd rag
st an
Ġb ollen
Ġgebruiks gemak
brug ge
Ġnaa ste
ilis atie
Ġb b
B i
dra ul
utt ers
Ġzogenaam d
Ġl oep
me isjes
ĠT ags
Ġth is
Ġl ikt
Ġres ident
Ġkru llen
Ġgep ol
Ġtri b
P al
ĠOver al
Ġacht ste
g sel
ĠVeil ig
ĠH on
ph one
ĠT O
ĠI r
v K
rest eerd
Ġch inese
sc on
Ġelektriciteit s
du b
Ġkru ipen
H eerlijk
ĠHum an
an ch
Ġvrouw tje
H ou
Ġor th
rie m
Ġbel uisteren
Ġverbouw d
as i
Ġwoon den
P art
Ġ8 9
weten schap
ruk king
Ġha ve
Ġvoordel iger
Ġdro ger
Ġpor nstar
ĠE em
esl a
ĠAl melo
in tegratie
Ġhe ette
ĠViet nam
et ermijn
Ġdes ktop
n ederland
Ġl ifestyle
Ġcond ition
ĠV I
Ġkortings code
Ġachter gelaten
stra ject
ĠD ynam
Ġprint s
Ġzonsonder gang
Ġsex videos
G od
Ġten en
arch ief
Ġvoorsp elling
Ġall round
rom ingen
ant iek
U iteindelijk
Ġwaarschuw t
de ed
u zen
Ġger aken
Ġmus ical
view s
ĠP ok
wend ige
ĠH oop
Ġgeste und
Ġmee geleverd
k it
ĠP ra
Ġvriend je
or derd
Ġingrij pende
Ġge plaatste
Ġsl uis
Ġsatell iet
Sp eel
ares se
Ġboek houd
Ġij sk
Ġagress ie
h eren
Ġuplo aden
Ġaan zet
Ġkr alen
on ia
Ġsch etsen
Ġmy th
is abeth
ĠL oc
Ġ198 6
aanb ieder
Ġver werven
L eer
ĠYou tube
ĠLe ver
ĠM arket
Ġb oze
k alender
Ġst ock
Ġtwee persoons
ĠAnt i
Ġge stemd
Ġboter ham
Ġverle iden
Ġverv oerd
ill y
Ġgl uren
Ġgeslacht s
w ett
Ġp y
ec e
ĠPier re
ĠSu pport
Ġkinder kamer
wijf el
Ġruim en
ĠL ittle
Ġm aas
ĠP A
Ġ8 3
Ġont kennen
Ġverg oeden
Ġcon f
eld ing
agen da
Ġdocument atie
be wegingen
Ġmill imeter
schad uw
Verg elijk
Ġtro f
l ander
ĠM ode
ĠO K
ĠPas en
Ġgen oot
Ġbeh eert
ter e
ĠVoor ts
Ġuit sch
ĠA y
Ġsp amb
Ġmeub ilair
Ġb ots
Ġverw oest
Ġopv atting
te d
ĠM ix
min o
l ights
Ġwaar toe
Ġaardbe ien
Ġin gebouwd
Ġbij gedragen
Ġex cuses
ĠK open
zet ter
ule erde
Ġverzorg ings
Ġteleur gesteld
Ġver bergen
Ġfrustr atie
kun sten
Ġover kant
ui ze
Ġbel oofde
N G
Ġkamp eren
ĠRes ort
Ġstream ing
Ġst ri
voor stelling
ĠWat t
Ġmilieu vriendelijk
Ġge financier
Ġ8 1
Ġa ch
Ġagent schap
Ġ20 30
Ġc r
t i
Ġmis ver
ne ur
Ġuit werken
C omp
Brit tanniÃ«
Ġeen heden
Ġaf gelegd
ĠCont roleer
Ġmondkap jes
Ġstr etch
il atie
Ġcade aus
Ġdiv idend
hand els
Ġgraf isch
Ġf onte
ĠS electeer
+ +
Ġdr one
ĠW erkt
ĠO ct
ĠL oo
A chter
Ġnale ving
Ġst ruiken
Ġprevent ief
Ġk aak
ĠV ragen
200 9
tek sten
ĠCh inees
Ġterug betaling
Ġvrijwilligers werk
z uigen
Ġbe ugel
Ġon roerend
Ġspamb ots
Ġm aker
Ġ !!
Ġongem ak
Ġafz uig
r ine
urs us
ĠD orp
ĠSl uit
L eg
Ġgel aden
Ġd urende
ĠSc ience
Ġgem ber
ĠRo ad
con cert
Ġreinig ings
Ġonderhav ige
Ġwoon achtig
ĠM Ã¼n
ol ge
Ġfact ur
Ġbl azen
eed schap
Ġontb inding
ĠD re
vl oe
ĠB out
Ġsex club
ĠRuim te
Ġdipl om
ĠC M
Ġout fits
Ġbeste k
Ġspre ker
Ġe spress
min istr
ette s
us den
Ġcons ul
oge en
Ġ198 7
instru ment
P aul
at om
re ks
Ġmast rub
ĠUitgever ij
Ġbest eedt
Ġtol er
ha i
Ġsch omm
Ġlang ste
Ġh bo
Vrij dag
Ġm oskee
Onder tussen
ĠOrganis atie
oorde vol
Ġstap te
ĠSl ot
ĠTra ining
ug h
mer ig
door n
Ġz ussen
Ġzelf moord
sl acht
Ġg oes
Ġroy ale
im al
ĠIsraÃ«l ische
Ġw aal
Ġondernem ings
Ġform ele
ĠHer steller
Ġzint uigen
Ġun it
Ġ( âĢ¦)
Ġgeweld dad
Ġr und
ĠEd ition
Ġschatt ige
Ġvorm de
ĠS oft
le id
Ġgemeente huis
Ġinter face
isc us
Ġgroep jes
Ġneut raal
ul teit
p orno
Ġl oge
ĠRome inen
Ã¢ n
Ġtop kwaliteit
Ġgev raagde
Ġmagne et
f ast
Ġbru ids
Ġkan eel
Ġwer pen
Ġuitgest rekte
ĠHand els
ro ck
ĠTechn iek
un ie
ell ers
ĠAf metingen
Ġp o
houder ij
Ġhoriz on
Ġrij en
kl are
/ -
Ġwer elden
Ġstop te
Ġh ing
Ġvoor handen
Ġwandel aars
Ġe cho
ar r
Z W
Ġseksfilm pjes
Ġvuil nis
aam s
Ġverpleeg kundigen
Ġverdw een
v oed
Ġkn ow
Ġru ilen
Ġref erend
Ġhier uit
Ġbev onden
Ġvrie zer
Ġdou ane
Ġf ix
Ġgoedkop ere
sc ode
Ġcade aub
ook ies
lem atiek
Ġp alen
Ġdak bedekking
ge me
G raag
ĠJ oris
Ġsch reven
Ġgenomin eerd
ĠL een
Ġtoe geven
is ers
Ġlekker der
Ġv oc
rek ker
Ġgelukk ige
ijd rage
ish ing
int age
Ġverkie zings
ĠM aandag
Ġsp ijker
Ġlesb ien
ĠB K
Ġgebruiks vriendelijk
ig erd
Ġspe aker
oestaan se
Ġbungal ow
Ġonder gebracht
Ġaange st
Ġgast vrijheid
K oop
Ġsl etten
Ġecht genote
ĠK eur
ĠB ud
Ġavond eten
v aring
ĠG il
iv al
iss el
Ġl aarzen
prest atie
Ġwenkbra uwen
Ġop rit
Ġvolwassen e
ĠBar b
rag on
schrij vingen
Ġsier aad
Ġmor ele
Ġliefde volle
Ġvergelijk t
Ġ11 2
Ġk olen
ĠT oer
te sten
ipl om
Ġle vel
ĠAB N
Ġe mmeloord
ĠL age
Ġk aders
ĠGebruik er
tijd s
ro oster
. (
Ġparas ol
Ġuitbeste den
Ġdie genen
ĠG ogh
Ġuitge gaan
M assage
ĠCon c
ic iÃ«nt
Ġschimm els
oe mer
ĠMe et
s nel
Ġvervang t
ĠH om
Ġp aas
Ġmatch making
Ġcon dens
ĠPersoon lijk
oe il
Ġre duc
Ġuit je
ĠD og
Ġverdriet ig
Ġver gemakkelijk
sn iveau
sco ach
z ones
EN D
l iefde
kl ist
Ġopmerk elijke
se mble
Ġro oms
ĠG ele
Ġhe use
os oof
ne ut
Ġv aders
Ġdik ker
Ġzet els
moet en
b onen
Ġ9 7
k open
Ġdist rict
Ġne ven
Be stel
O u
Ġingrij pen
Ġweekend je
Ġk raag
Ġpost ers
Ġplaat ste
ĠTen slotte
ĠAn th
Ġstart pagina
Ġtr ig
ĠE AN
Ġind irecte
Ġkenmer kende
Ġproductie proces
Ġbon ussen
Ġhe f
ĠD iensten
Ġp oetsen
Ġversch ijns
Ġwh isky
erk ast
Ġve ele
Ġomgev ingen
de c
Ġpunt je
Ġbehulp zaam
unct uur
Ġboet es
Ġkost prijs
Ġruim ten
g isch
Ġâľ ĵ
Ġonmiddel lijke
ins elen
Ġopbreng sten
eem se
Ġstakehol ders
Ġsle pen
Ġhulp verleners
Ġkr ingen
z uiver
ven ster
ĠP raktijk
k in
ach ine
ĠR ou
rift en
Ġdecor atieve
Ġuit oefening
Ġp alm
fl ow
Ġspe akers
aam de
Ġweig ert
Ġenerg iet
Ġverh ui
Ġgeassoc ieerd
Ġ198 4
Ġterm ijnen
ogelijk heden
s nede
sp ots
sl ijn
voor schriften
Ġban anen
Ġmyster ieuze
Ġd akt
Ġnad el
vak anties
aan val
Ġt eller
g it
ize d
h oot
ĠFerr ari
Ġk we
Ġverschijns elen
Ġgedroog de
Ġgedrag s
in eerde
mp h
Ġaccept atie
ĠC ra
ĠOu dere
Ġspecial istische
b oten
Ġmoest uin
Ġl int
ĠR od
Ġverw ond
voet sluis
Ġf os
Ġschud den
G G
Ġtijd loze
ĠHe in
Ġgemeen schappelijk
Ġwar mer
ĠD ia
ĠcoÃ¶rdin atie
ĠS yl
Ġn ieren
ĠFr ont
Ġhe vige
Ġtw eeling
ĠB ow
ĠSt op
Ġop komen
ical iÃ«n
ĠZw em
Ġc rit
etail s
pro v
aan gifte
Ġvacc ins
Ġvoor gestelde
laat ste
ĠL ode
Ġme ppel
us c
ĠJum bo
Ġmed aille
ĠIn vest
Ġwij zer
pers on
ĠZ iggo
schak eling
ĠVerk rijgbaar
ĠGesch iedenis
Ġmod us
Ġl ym
sc oop
Ġsollicit eren
Ġgehandicap ten
Ġh ooi
Ġbr oeder
os ysteem
Ġonder dak
Ġsche p
Ġoverw innen
Ġvoor nemen
A m
k am
ĠP il
ĠKV K
get rouw
arte menten
Ġdee ze
ĠWel k
ĠL inda
Ġvoortd urende
1 20
Ġr itten
Ġo rale
ĠU K
Ġopen heid
Ġfab rieken
Ġsp an
Ġople ggen
Ġg sm
ĠB ier
Ġingev olge
Ġondersteun ende
deren d
ĠOm gevings
ĠOb ama
Ġcadeaut jes
Ġtabl ets
Ġloun ge
Ġvermeld t
Ġgeg oten
Ġhel mond
m aakte
Ġst elen
Ġmot ieven
Ġf at
Ġt racht
ĠA cht
Ġtoepas baar
Ġged oopt
ĠSch er
ĠE vent
l ife
orte ur
on ge
alt y
ur y
Z et
Ġverz achten
Ġprikk els
Ġgepass ion
f outen
P h
Ġlat ex
Ġwereld ber
M ax
Ġbe komen
ĠSch ep
Ġkwal ificatie
ĠG or
ĠBur gemeester
Ġge gener
ĠSn ap
Ġont erecht
g an
Ġvoor legging
eigen aar
Ze ker
Ġschilder werk
Ġverzeker de
ĠWat ch
f o
Ġto ere
ro ot
n as
Ġleu gen
Ġu ien
im an
Ġse min
co at
ver zam
ĠL ondon
200 8
Ġuitgang spunten
Ġ19 00
W ees
aag den
Ġtoepass elijke
man agers
it em
ĠP O
Ġde zer
Ġleg ale
Ġgra p
leeft ijd
ĠJ azz
ste k
De al
Ġcon vers
ĠMiddel burg
Ġsp ouw
Ġdier lijke
ly k
Ġgew ap
Ġfietsp ad
bij t
Ġsp a
ĠAv onds
ĠO R
Ġh akken
Ġuit slagen
Ġkost te
ox y
ĠPers on
Ġsc reens
Ġgen ood
Ġserv ies
Ġbesp reekt
Ġin name
Ġdoor sn
Ġbasis scholen
Ġzul ks
Ġaccess oire
Ġontle end
ĠVl ak
sprof iel
ST ER
Ġkleink inderen
kan alen
Ġdon atie
Ġmin isters
ĠK aap
on ica
ĠT ol
ĠT ips
n ooien
Ġ anten
Ġb aten
Ġo ct
schap en
Ġsch eeps
Ġb ug
oven d
Ġlesb ies
Ġlief ste
wijd ing
Ġwe ide
Ġgemen gde
Ġambacht elijke
Ġsyn droom
Ġgest orven
Ġspir aal
Ġgew oond
Ġsu pers
Ġvoorst ander
Ġsex markt
Ġv als
Ġtwintig ste
ĠA antal
Ġverlen gde
> <
ĠA wards
Ġfl ow
1 000
ant se
os es
Ġthe m
Ġball onnen
Ġvleug je
Ġvertegenwoord igt
Ġbar st
Ġaanm oed
mp os
Ġp df
Ġwinnen de
colle ge
ĠRoer mond
Ġeen zaam
ver plichting
ĠCol omb
ak a
he orie
Ġople vering
ĠOekra Ã¯ne
Ġerf enis
ne us
Ġvar ken
Ġreiz iger
ver pleeg
? '
an sen
Ġvan morgen
ĠQu a
der obe
Ġseizoen s
ll ust
ĠLaat ste
Ġpijp date
Ġbew ol
ple ging
Ġeeuwen oude
Ġauteurs recht
ĠPet rus
E rot
Ġsynth etische
Ġaf ronden
aken s
Ġvit aliteit
Ġpakk etje
le kken
ĠPr int
ĠPh ot
Ġs ab
Ġgeb ak
al y
scont role
Ġkn uts
ad viseurs
ĠN H
Ġoverk apping
et el
Ġop hang
St ap
ĠAgent schap
Ġgew as
Ġadequ aat
ĠBl oem
Ġacc enten
le voetsluis
Ġinfl atie
ic ot
Ġzon es
ath an
Ġpubliek elijk
Ġz onden
ĠMiddel landse
Ġbru isende
ĠÃ© chte
Ġtot stand
Ġklaarkomen de
ĠN ed
Ġenerg iel
Ġp ix
h ers
Ġoverleden e
schuw d
Ġthuis zorg
ĠK oper
ĠMach ine
Ġze ide
ond el
Ġst anden
Ġtabl etten
journ alist
ĠMed isch
Ġ! .
ĠE chte
Ġcomm issaris
Ġtoe gelicht
Ġverschijn ing
av iljoen
Ġpl agen
over s
Ġex otische
Ġcrimin aliteit
ĠO ss
Ġmet ing
comp uter
Ġz weven
oepass ing
Ġdans ers
Ġgehant eerd
un ity
ĠTha i
ĠL E
ings ite
Ġin een
Ġre sten
Ã¨ res
ĠTe ch
Ġgerecycle d
Ġb oll
iere geling
Ġsupp lementen
Ġop zeggen
ĠKN VB
F S
Ġverk ond
Ġwer vel
ĠB le
get jes
Ġkort ste
Ġkeih arde
ac ademie
Ġmot ief
er ver
Ġzoveel ste
Zelf s
Ġafge k
Ġnederl aag
Ġnot itie
Ġaange steld
ĠConne ct
Ġstraf baar
iet je
ag g
Ġpri oriteiten
Ġgevangenis straf
Ġspons oren
P RO
Ġfysiot herapie
Ġruss isch
Ġma chin
mod ule
Ġpers bericht
g oederen
Ġval uta
Ġhoofd huid
ĠAchter hoek
rie zen
ĠGen ees
Ġaf v
ĠArden nen
V ul
Ġa zijn
ĠLand bouw
g aard
uden t
ac commod
Ġbeh oef
Ġnatuur gebieden
Ġseks speeltjes
Ġpers conferentie
ĠE y
ur d
Ġopge groeid
Ġst agia
ab ol
ĠPart ners
spl ant
Ã¤ n
ra der
Ġinsp elen
Ġovertu igingen
Ġgerest au
voor de
F O
Ġbedrijf sgegevens
f out
Ġkost baar
Ġbew aken
Ġstrategie Ã«n
Ġbek leding
ker n
in igd
ple et
Ġgenood zaakt
ver schijn
Ġbez ittingen
t ran
fra ctie
if er
su les
Ġz wee
Ġde fect
ĠBelg ie
kk ingen
ĠV K
ĠArbe ids
ĠG isteren
Ġeind eloze
sp r
Ġonzicht baar
kun nen
sp ons
g u
Ġg oden
ĠV ogel
Ġjuist heid
ha ve
ong eren
pol is
Ġvers ierd
Ġtoegankelijk heid
ĠAn nem
Ġp ist
ĠgeÃ¯ m
ĠA ctie
Ġcrypt o
com pon
gram m
bon us
uz zi
ĠVO OR
Ġpaar se
oc ado
ĠTele graaf
ĠW onder
uro ver
Ġexper imenten
Ġheer en
Ġkeram iek
Ġparall el
Ġbinnen komst
Ġin door
Ġic onische
Ġbl inde
Ġbedrijven terrein
Ġst oten
Ġwint erse
ud de
ge midd
Ġbeschad igingen
ost ers
Ġgen der
Ġdoor slag
Gen er
Ġcogn itieve
Onl angs
ĠEl len
Ġtheor etische
oo ch
certific aat
ah l
Ġdicht e
Ġachter aan
Ġlu ier
Ġfarm aceut
Ġk urk
riter ium
Ġbr oe
Ġnakom ing
ĠK re
Ġkond igde
ĠKe y
Ġinst eek
Ġbless ure
Ġkl ager
th ur
Ġc ell
Ġet appe
Ġstu c
is ering
Ġtra um
Ġd oeken
bar st
Ġasp er
Ġwillekeur ig
ab it
spl annen
ĠH aw
ĠD ra
Ġgep rijs
Ġherken ning
per ts
yr ight
Ġgere inigd
Ġalbum s
f rag
ĠP el
ĠCombin eer
P re
Ġwat t
Ġirrit atie
Ġrits sluiting
Ġdoor gaat
ĠT esla
ĠG as
ar ree
ĠK ir
Ġprem iÃ¨re
iz z
ant oor
Ġge grond
ro os
Ġk ogel
B R
Ġbloed vaten
Ġer door
az ijn
Ġpl uim
beheer sing
ĠK ool
b uff
heim er
Ġbi om
b ommel
Ġrecht ers
will igers
ĠE duc
Euro pese
Ġb ook
Ġopger uimd
ĠF amilie
ĠMar io
Ġle erm
ĠA OW
Ġk oeken
Ġwinkel wagen
cte urs
Ġgeblok k
Frank rijk
lop ig
ĠEx pl
Ġsoc i
g oede
Ġmultid iscipl
Ġonge opend
we d
Ġor ders
Ġwat eren
ĠTh ijs
ĠB ell
ĠEurope an
Ġgeform uleerd
Ġre aliseert
Ġbl ues
Ġsn ow
Ġsex kontakte
Ġlangs komen
Ġk raak
ĠTot aal
Ġin it
b ot
Ġb oordevol
Ġstro ok
Ġzen den
Ġb oren
ina zie
Ġvoer ing
Ġin get
Ġamerik aanse
ĠP ijpen
R ob
Ġred elijkheid
yl l
ĠKe vin
Ġchar me
ĠSurin aamse
Ġster f
Ġvoor genomen
ubsid ie
Ġveel bel
Ġgev els
ru iden
Ġopge wekt
Ġfac etten
or dig
Ġrel atieve
Ġachter hoek
ĠW is
Ġp ic
em er
Ġaanbev eling
lev ings
Ġt ag
Ġgr ind
lok aal
Ġp oint
ĠD ur
ĠWel kom
ocr atische
Ġsp am
00 1
Ġport retten
Ġoe ver
Ġachtt ien
iel and
Ġdoor gang
verb indingen
Ġk ikker
Ġ \
Ġ ~
Ġterugk erende
ĠOr de
Ġsch aatsen
Ġzo chten
Ġin acht
ĠK rim
Ġricht ingen
Ġkook plaat
Ġregen t
ĠGoed koop
Ġvers ieren
den zaal
Ġj ungle
Ġt or
Ġ aal
ut sel
he et
ap er
ĠKl anten
ĠF al
Ġverdien de
Ġpro cessor
ĠA w
Ġaller hande
b od
s alon
Ġvl am
Ġdeskundig heid
beh oe
we ar
Ġr oem
ree uwen
Ġgewaar schuwd
Ġleer zaam
or ia
ĠB rot
Ġvergez eld
itie ke
om draai
handel aar
Ġslag room
Ġnation aliteit
L ang
Ġmilj arden
Ġpitt ig
Ġvers us
Ġmat rassen
ĠOp el
Ġprov iders
Ġsp rint
Ã¡ Ã¡
Ġ9 3
Ġaan sluitend
ĠP rix
Ġre e
Ġlaptop s
te kens
Ġzom erm
Ġgewe igerd
w h
Ġverschijn sel
ĠMich iel
sp lein
Ġg oogle
Ġrout ine
Ġkl appen
ĠRoo sendaal
Ġk eerde
Ġko zijn
ĠOu ders
burg ers
Ġouder wetse
F or
ĠD icht
ib et
ĠJ oop
Ġvr ies
Ġk athol
Ġprobleem loos
ĠBrow n
Z ou
Ġspecialis atie
ĠK ab
af stoten
ĠN ut
st rook
ap l
ĠR io
Ġcontrol ler
Ġiv m
se d
sbel asting
oord elingen
pe ctie
Ġfab ric
Ġbou illon
Ġhand omdraai
ĠR ick
ett erk
---- ----
Ġb it
der nis
Ġdr iet
ĠL ow
ĠDag elijks
gevoel ige
ĠKem pen
Ġzaterdag avond
F it
ven d
Ġ aart
l age
Ġkl onk
Ġdat ac
Ġaangek ocht
Ġin stel
raan se
ĠInd iase
Ġsnell ere
Ġdru g
Ġimm un
Ġnieuw kom
ĠNoord wijk
in tens
Ġber ust
ĠF ar
Ġom standigheid
rakt ijken
Ġnam iddag
Ġw iet
Ġverb ind
Ġko ele
Ġfiet stocht
Ã¼ m
ĠF irst
s bergen
Ġonbe v
Ġre med
Ġa ug
Ġwaarschuw en
ĠJ oy
ĠB S
p ublic
Ġgaat jes
Ġgy naec
ĠChar l
Ġbel eeft
Ġatmos feer
i ater
ss ysteem
Ġh anger
ĠArch ief
igheid s
pr incip
behoe ften
Ġbrand ing
Ġmech an
Ġteleur stelling
ber gt
Ġform uleren
Ġpolit icus
Ġplatform en
Ġact u
Ġbev rijd
c ken
u cose
Ġ198 2
g oot
m arketing
Ġonder uit
i ams
Ġwoning corpor
c ond
Ġs we
e i
lem ma
ĠZ omer
Ġschol ieren
ir ma
Ġ198 3
is ing
ĠLeid se
om io
Ġecht paar
M omenteel
onder nemers
ou le
Ġacc ur
off ic
k oor
z eem
ĠK enn
ex amen
Ġconst ructies
ru sten
Ġonbe paalde
ge el
og er
DE AL
Ġdui vel
Ġsc annen
Ġongel of
Ġ ).
Mich el
h age
Ġintervent ie
Ġcom pro
ox ide
ĠSex contact
ĠPalest ijnse
Ġl ost
che ster
an ie
ĠMo z
Ġgl ijden
Ġamand el
w apen
ĠV ent
Ġwonder en
oo le
Ġj assen
Gro en
Ġbewerk stell
ĠRu ben
Ġhand s
Ġdra ger
Ġtentoon stellingen
ĠEst her
Ġra uwe
Ġmail box
ĠInst all
ĠF lo
ra iner
Ġbless ures
ing se
Ġcontact persoon
Ġto eren
Ġsucces sen
Ġdru ppel
ĠFil ip
L es
Ġexamen s
ĠAN WB
Ġbab belen
Ġorganisator ische
ine a
ĠR oemen
B ouw
Ġbas ket
Ġte weeg
Ġg ooi
oepass ingen
ĠH ang
Ġstr ikte
Ġmiddel punt
r ijn
s ma
Ġpraat je
Ġverst oord
ĠN K
ĠAn g
cont ra
agno st
ĠFran sen
ĠSm ith
Ġop bergen
ĠPro gramma
rek ingen
T T
Ġgeconstat eerd
Ġdok ters
U D
Ġvervol gt
Ġrim pels
Ġsn ijd
ĠV ar
oor deel
Ġreken ingen
ign on
ĠK i
Ġsn apt
Ġallerg ische
ĠRac ing
f ruit
verantwoord elijke
Ġlicht jes
Ġtoil etten
Ġsch eren
Ġin werking
Ġa udi
ĠSp ir
Ter ug
Ġver rijkt
Ġtelefoon nummers
ĠOp vallend
Ġschak elt
Ġre de
p il
ĠJac obs
Ġvl og
inds et
Ġdoor dringen
Ġben aming
ĠSt an
ĠEnerg y
ĠB ode
ĠbeÃ«ind iging
Ġdomin ante
D L
Ġen gels
Ġbese ft
water staat
Ġle ken
Ġcorre sponden
Ġzorg den
ĠCanade se
Ġv aas
pat ronen
Ġbenoem ing
Ġverle gen
es h
sch akelaar
ĠVer zeker
mech anisme
k at
ĠM R
Ġgevorder de
ĠcoÃ¶rdin ator
Ġgesch ieden
schil d
Ġachter een
Ġintervent ies
Ġb ochten
im o
Ġmag ie
iment atie
Ġro mp
bo de
ĠP interest
nis sen
Ġzenuw stelsel
Ġrot sen
Ġter reur
Ġtegenover gestelde
En kele
Ġup grade
Ġbereken ingen
p df
ĠM osk
Ġf etisch
Ġkanton rechter
ĠF A
or kest
ĠEx tre
re er
Ġspot ten
Ġdroog te
Ġvert ol
anc eerde
Ġverkle inen
at iÃ«
open ing
verd ieping
Ġaange dreven
h ove
Ġ9 4
im er
Ð ¸
sluit ingen
bere ken
M aat
Ġstam men
Ġontl asting
Ġ ]
Ġz gn
Ġarrange ment
W et
zicht ige
Ġtoel ating
cont ent
A lex
Ġin leg
Ġbev rijden
Ġval lei
Ġbas ic
Ġbekw aam
old aat
Ġinacht neming
kussen s
Ġkl anken
c ijfer
Ġinvest eert
Ġin ject
ur ren
ĠD uin
Ġbal ie
Ġwoon huis
Ġon gere
cent er
Ġverb ieden
oorde elt
ouw d
Ġd uwen
Ġgeann uleerd
Ġthr iller
Ġad apter
ĠF u
in ale
uw elijk
aart je
inn etje
Ġmilieu vriendelijke
Ġaf geb
Ġverhuis de
sd ame
ĠR ud
orm ulier
A ct
Ġincass o
vriend elijkheid
isc uss
Ġvoorbe houden
Ġ idd
od ox
ĠH ub
Ġspont ane
Ġvl inders
ĠLeeuw en
ĠJuni or
Ġdoel punten
Ġfas en
ouw e
Ġverle ent
Ġzacht er
cy cl
Ġslim mer
Ġ197 5
ĠK roon
Be halve
Ġcontin ent
Ġgrond water
ĠWil helm
Ġakoest ische
n ota
ge Ã¯n
Ġtest ament
reken ingen
un s
Ġverpakk ings
ĠS O
Ġkee per
Ġdi lemma
Ġescort eren
Ġbloot gesteld
ĠC NC
Ġtra mp
Ġf oute
ĠZ eeuwse
Ġrij school
Ġonder handelen
Ġp uin
V I
Ġgez w
ĠH ere
unn y
genees kunde
ĠUr ban
Ġkol om
Ġomgek eerde
ĠH aan
inder ing
ĠPre cies
Ġvibr ator
on iÃ«
Ġbinnen landse
Ġhoud baar
Ġbed oelen
ĠMar ke
Ġbe et
Â° .
Ġoog punt
ĠRe izen
Ġ9 78
ĠHou dt
ĠO ceaan
ĠScheven ingen
ĠD ik
erg elijke
Ġvraag stuk
Ġaangev allen
b ussen
at ine
Ġcompl imenten
ĠA pril
ĠKe izer
Ġaanv aardt
Ġzoo als
Ġbezicht igen
richt lijn
Ġversn elling
ĠS le
Ġvl oot
ĠEl isabeth
ĠV W
ec o
Ġopzicht en
ĠD al
Ġdus danig
B T
Ġzelfstand igen
ĠZ aandam
Ġgen en
ĠF ocus
Ġgig antisch
Ġletsel schade
verl of
ĠA ugust
Ġuitwiss elen
h ee
Ġbeelden de
H R
Ġrelax en
Ġgere g
Ġof zo
all ige
gr id
h oeren
rein en
richt er
Ġsk ills
ĠJ ozef
Ġkwest ies
ĠCar l
Ġsecund aire
o uren
l etter
im ens
inf rastructuur
¸ ı
Ġge filmd
V roe
el o
p reventie
ad i
st ract
z aag
ug t
Ġmee denken
Ġkeert je
Ġer onder
ĠV iv
ĠZe ist
Ġtien de
ĠErot isch
Ġbijge houden
Ġfel icit
Ġ197 8
Ġp urmerend
Ġst rekken
Ġkop iÃ«ren
Ġvol ken
onder nemer
d ans
Ġpak je
cu us
norm ale
Ġw iki
ĠG eil
Ġel le
ic ip
Ġsp oelen
Ġchem icaliÃ«n
Ġb ureaus
Ġvakk undige
ĠK h
Ġinter im
B reng
ĠV ir
de els
Ġautomatis ering
ĠVerd rag
Ġcit ro
Ġeigen aars
ĠSt one
ĠRe den
Ġmail s
ĠTechn ische
F A
Ġjurk je
f alen
ver plicht
Ġhe kel
Ġafge zet
Ġzen uwen
schapp ers
Ġst ellingen
ste st
ĠHeer len
ĠS W
ff ecten
Ġko elen
Ġrecht spraak
oc ument
ĠLa uren
ĠBe scherm
kl ass
Ġtoed ien
Ġc ris
Ġdiep ere
Gen iet
ĠLang s
Ġbestuur slid
sp ullen
ĠTim es
Ġverv uld
Ġhand bereik
H ele
ie ver
Ġkarakt ers
ĠMen g
Ġa mino
um er
ĠBal i
ĠSchot land
Ġab stra
un ingen
Ġjal oezie
Ġover dekte
Ġk uur
Ġl adder
ĠC E
Ġomgevings vergunning
Ġreclam eb
Ġsj aal
g oud
al eren
Ġsk iÃ«n
Ġdoel punt
Ġboek et
Ġkr oeg
Ġaf neemt
Ġs au
zee p
Ġt iel
Ġprogram meren
ou re
Ġst yling
Ġafval stoffen
kopp eling
Ġde clar
dig d
Ġprem ies
Ġf eb
mot oren
An dere
Ġro et
Ġon tevreden
vocht igheid
w ielen
Ġkers en
Ġjong etje
ĠSt or
Ġl acht
Ġdeel de
Ġp iep
Ġonge kende
Ġaan zetten
Af hankelijk
Ġvestigings nummer
Ġle pel
ak ra
dr aaid
Ġon her
ĠSov jet
Ġen velop
spat roon
Ġwer kend
Ġmeet ing
T om
ĠB ast
Ġaf rekenen
r ant
am ingen
Ġbo ard
entoon stelling
Ġ198 1
Ġ19 60
ĠVoor t
Ġbed iend
Ġopgel aden
Ġgebruik ten
Ġverfijn de
kle in
ĠRe gelmatig
Ġaf weging
Ġstand punten
begele ider
ĠgeÃ¯ mp
Ġcar bon
Ġvre zen
Ġdesign s
Ġsch ijven
Ġbe ken
Ġzonne bril
Ġzorgel oos
Ġuitge komen
Ġhen nep
ous se
gra den
ab ij
M oet
ul erings
str aling
Ġover weging
Ġp illen
ĠR i
ig o
Ġdre iging
Ġstralen de
ies sen
Ġt s
Ġbe er
ĠChrist ian
vle kken
Ġh elling
Ġglan zend
ur i
Ġho sp
bouw ers
Ġver werkings
Ġwaterd ichte
Ġl ow
Ġb oe
Ġgerecht elijke
Ġ197 9
pectie ven
g rij
Ġv iool
ĠK y
Dat ing
ĠbeÃ¯n vl
Ġw raak
ag d
k ader
Ġlie deren
Ġk oord
Ġmet sel
ui le
Ġuit pakken
Ġge pakt
ar ina
ĠOp a
L ED
ĠG eeft
D AM
ĠWil de
na uw
beur ten
am an
Ġro mans
Ġcoach en
v ulling
Ġver slaan
pl icatie
Ġverk leed
c are
Ġbed ank
P ort
elijk er
d ition
Ġbijzonder s
Ġobst akels
atie ke
Ġvoor zorg
ste mperatuur
Ġwoon ruimte
Ġp ompen
ke d
ĠP rachtig
ĠL ijkt
Ġaan winst
no veren
ĠL oon
its ing
Ġb ie
l anders
slachtoff er
Ġjaar rekening
Ġuit gaat
eigen aren
Ġg illend
afet y
ĠBo urg
Ġzomerm aanden
Ġn ylon
Ġverk oud
Ġwed uwe
gele iden
Ġb achelor
Ġteken t
sp agina
brow ser
Ġbed rukt
ran e
as a
Ġbasis onderwijs
Ġban aan
St aat
Ġinst alle
A z
V eil
Ġuitn odigen
Ġ ^
Ġpsychiat rische
Ġpl ot
Ġins uline
Ġasiel zoekers
B ar
a es
y ou
ĠAss oci
me et
Ġstand jes
ĠI e
itu te
re ff
Ġvol staat
ĠT ouch
itu eerd
Ġcontrole er
P at
Ġdr ang
Ġvol um
Ġuitgek ozen
lie den
Ġwaal wijk
Ġreferend um
over n
Ġbescherm ings
Ġoverb odige
p aard
Ġf us
Ġhoek je
plaat je
B oek
waard elijke
s yn
Ġaan ste
ĠB I
ĠHond a
uit slag
verb etering
Ġp oker
Ġmonitor ing
Min ister
part y
gel ingen
Ġv atten
k ost
or ium
Ġge al
ĠS erie
ĠNeger in
ĠSol utions
ĠCons umenten
Ġkwets baarheid
Ġmag n
Ġeenmans zaak
gevol g
al les
Ġmee geleverde
Ġbro k
Ġver overen
Ġinkomsten belasting
Ġdoor st
ĠJe ff
Ġgroot st
Ġontspannen d
Ġinv als
Ġsch aap
Ġbund elen
Ġgek leed
id act
Ġteken s
Leu ke
Ġschatt ig
ort eerd
ĠLie ver
Ġkerk elijke
Ġopvol gen
Ġaf stemming
Ġaantrekkelijk er
g i
ĠVeen endaal
Ġcarnav als
Ben ieuwd
sl anden
Ġst aaf
ĠHor eca
Ġor thop
ĠGem iddeld
Ġprevent ieve
ĠL ag
g nose
D O
all ic
ap ore
m y
Ġkennis geving
Ġparoch ie
k ans
par atie
Ġhoer tjes
Ġstra ffen
Ġoverzicht elijke
Ġhand doeken
Ġinstall ateur
Ġrecht streekse
ĠV est
Ġenerg ier
Ġtotstand koming
Ġwij de
Ġpuz zels
Ġbl aden
Ġoog sten
druk te
fot ograaf
Ġar riv
Ġtegen deel
Ġaf stemmen
ĠC R
Ġe em
ĠAustral ische
f red
blok jes
els ius
Ġst ip
Ġvern oemd
ĠL aw
oen de
ĠM ade
Ġon duid
ro men
ĠA ri
Ġplaf onds
Ġher kend
ĠMar y
Ġuitb raak
oft en
Ġz ucht
ĠHit ler
mat ten
Ġambassade ur
Ġzak jes
ve zels
Ġge pr
Ġgewicht s
G E
Ġon gelijk
Ġgesp reks
Ġem mer
Ġtatt oo
Ġventil ator
Ġacadem ische
ï ¸ı
p ui
Ġthuis werken
r in
Ġf auteuil
Ġbrouw erij
Ġwaarb innen
Ġdoel treffen
Ġverblijf s
ch eck
ĠRe gen
Ġsc Ã¨ne
n on
ĠV M
le uning
K amer
Ġk appers
Ġschol ing
Gro ot
sd uur
Ġvaard igheid
Ġcre aties
gel den
ĠIntern ationaal
zeker heid
Ġeng elen
Ġbel de
Ġreist ijd
ĠF und
ĠP K
Ġwin sten
Ġrecht spersoon
Ġsj abl
Ġtab ak
eer bare
Ġaf spelen
Ġp oets
Ġkonink lijke
Ġop hangen
Ġinst agram
aro k
Ġint rekken
Ġuit ingen
gesch oten
Te vens
P rachtige
ens ap
ĠN eer
Ġbelasting dienst
ĠB eel
Ġun der
ĠK asteel
Ġbed rog
Ġzorg vuldige
brand t
gel eerd
ĠT u
un it
ĠV alen
ĠVerk oop
Ġt Ã©
Ġwaar nemen
Ġco urg
Ġspoor weg
Ġlaw aai
ĠK vK
Ġexcurs ies
ĠT y
Ġment aliteit
ĠBinnen kort
ĠbeÃ«ind igd
Ġst elden
Ġd aalde
Ġbeh art
ĠDoor n
ar g
Nederland s
oc urren
Ġtum or
Ġavontuur lijke
d ossier
ð Ŀ
Ġduister nis
Ġ19 50
rit is
ĠWO Z
Ġopen lijk
Ġk Wh
ĠLes bische
Ġgast heer
m ij
Ġger uchten
Ġhand gemaakte
Ġten einde
Ġfamil ielid
Ġgemeen schappen
M art
iz igers
Ġopst art
Ġtijd loos
m aten
Ġsh oot
h ome
Ġpl ukken
ĠOpdracht nemer
Â ł
Ġbr oeken
rek kers
Ġbedrijf sk
beste ding
gere den
Ġpopulair der
Ġachter hoofd
rik anten
b is
Ġaccount s
Ġwaar naar
cor re
Ġ9 1
Ġover grote
Ġgelijk matig
Ġkle p
P eter
Ġimp os
ĠS H
Ġbestr ating
onom isch
Ġf rit
Ġs us
Ġsignific ant
ĠA ard
cont in
mogelijk heid
Ġbub bel
Ġb ieren
w erende
ru il
alt a
Ġriol ering
Ġwim pers
ik opter
ĠS ysteem
Ġvol waardige
ĠO d
G raven
Ġlegit im
Ġontste kingen
ĠK ijken
oll ow
Ġgeld igheid
ger ing
Ġn oden
ĠT C
ĠVeg as
Ġonderbouw d
Ġb acterie
Ġfoss iele
Ġkinder dag
g z
Ġz akt
Ġge esten
vorm ig
h it
ffen d
St art
ge daag
een de
Ġkon ings
S nel
ay er
Thuis ontvangst
Ġdes gewenst
ig a
Ġaanbe steding
Ġhy dro
Ġfas c
ĠIS BN
Ġopen lucht
M on
Ġj apan
az el
al ine
ger ust
Ġbek n
ĠMe i
Ġrecht op
ĠCol our
sp orten
Ġcerem onie
erm in
box en
Ġste ile
ĠChrist elijke
verse el
ul lingen
Ġre ading
Ġverw eer
Ġd ay
Ġverdie pt
ĠSt raf
Ġreger ings
let iek
Ġber ucht
Ġglan zende
Ġsl ager
Ġcirc us
Ġ196 8
Ġb ont
h eeft
out ing
Ġgemot iveerde
Ġdruk werk
ĠHolland s
Ġger uime
Ġover brengen
Ġontwer pt
Ġgebruikers naam
Ġmultifunction ele
Ġp se
be houd
comp etitie
7 00
mate urs
oll ig
ex pert
ĠCon cert
ĠAD HD
ven del
Ġsnel heden
st okken
ikk eld
Ġhouden d
Ġb id
he k
Ġb udg
ĠDe ut
Ġbl oeien
op ie
Ġdekbed over
ĠKrij g
Ġbesp reekbaar
ĠSe a
ĠN M
Ġdrast isch
p oot
K e
ass o
of oon
Ġdou ch
P I
Ġrad ic
ĠH O
b ou
Ġbeschad igde
ĠD U
ĠP unt
Ġvervol gd
ĠFin land
ĠE euw
om schrijving
Ġverbonden heid
Ġsm akelijk
Ġoper eren
ĠB oy
Ġopvol ging
Ġom ge
Ġdet ect
Ġwaar neming
Ġcrimin ele
Ġhorizont aal
ĠD raag
Ġresp onden
iss ion
Ġspijsverter ing
ĠL ieve
EM A
Ġb ac
u v
Ġon gebruik
Ġaf gelegen
H art
Ġonder ver
Ġch alet
Ġtw ist
ĠG enk
Ġstad huis
ĠW assen
Ġgerechtvaard igd
van a
ĠF ruit
Ġge iten
ĠKar in
eer lijke
h aard
Re ad
houden d
du iken
Ġsch een
chn ieken
over eenkomsten
ĠA bs
Ġcorru ptie
ĠP rachtige
Ġaan een
t z
oc o
Ġkw ast
Ġkap sel
ĠT osc
Ġafge wisseld
ĠNederland sche
Ġa en
Ġafspeel t
Ġtoel aten
Ġra uw
Ġproduct ies
Ġanalyt ische
Ġin getrokken
Ġtoeschouw ers
O ude
Ġform eel
Ġdi visie
Ġbl ouse
Ġblog post
ĠC er
ĠRu ud
ren de
Ġs ittard
g om
Ġopgest art
Ġon ont
Ġmen schen
ĠC RM
ĠJong eren
v elt
Ġuit val
__ __
ul i
Ġgel aats
Ġbel icht
ĠI ris
st yle
gel de
gevol ge
Ġm iste
l ij
m alen
wee s
bl r
ĠNat te
k ade
Ġcharm ante
is el
Ġblog gen
kol om
Ġp oot
Ġtussen komst
ĠR oll
Ġvakantie park
Ġop zett
zeg ging
d iploma
ĠDe kker
ĠN or
ĠE vang
ĠPol y
ĠMaat schappij
Ġe mb
ĠTe ams
ĠT OP
Ġsch ulde
Ġbelach elijk
Ġont vingen
ĠPlay Station
Ġmed io
Ġweg gelegd
Ġpall et
D i
S E
gl ans
ĠD et
com itÃ©
ff el
Ġtherm ostaat
Ġbe ach
ĠcafÃ© s
Ġcertific aten
ĠReg ering
pare erd
Ġbor r
ĠJ ones
in ers
sp aar
j acht
Ġvari aties
Ġsig aretten
ett y
Ġraakt en
bel ast
ouch er
ĠBinnen landse
ull etjes
Al lereerst
Ġl ike
ch i
Ġdi arree
ĠC MS
ĠVer a
v E
Ġann ulering
Ġgefinancier d
Ġav ocado
Ġetik et
coach ing
Ġsm eren
rid ge
Ġnag ellak
ant i
Ġsn oeien
ĠV alk
P L
sk racht
b aring
bo den
ĠLok ale
ui z
Ġde zelve
Ġz aaien
Ġongewen st
p ijp
Ġaf haal
Ġbi ografie
Ch rist
Ġfijn er
Ġpen nen
ĠD ark
ĠL ake
p et
Ġuitge drukt
ĠHoo geveen
sm useum
Ġpannen koeken
Ġsamen gewerkt
Ġ17 5
bep aling
ale er
AT IS
Ġvergoed ingen
Ġbizar re
ĠOnt vangst
re at
Ġer ectie
Ġroo sendaal
ic ken
Ġveget arische
Ġeduc atieve
f urt
R ot
ks els
ĠSol ar
ion aal
Ġwil l
ĠMo unt
ont jes
Ġbouw de
Ġdringen de
Ġk oren
Ġzu igt
Ġdr ingt
p m
leg ger
Ġmee sle
Ġvak bonden
ĠBrit ten
Ã ®
Ġbel anden
ĠGe v
Ġge fl
Ġk alf
ĠE L
Ġident ificatie
au er
.... ..
w ten
histor ische
Ġverl os
be zoekers
Ġ196 9
ĠHar der
m etje
lijst je
Ġmaster class
r un
Ġstat uten
l abel
Ġp ond
âĢ ĳ
ĠSn ijd
erv eer
ĠF ro
Ġbis schop
Ġaud it
Ġbesp reking
sterk te
Ġtar we
ĠAv ond
Ġlunch en
Ġwerk druk
ouver neur
mak elaar
Ġouderd om
Ġbed roeg
Ġform ulieren
Ġop vangen
aat jes
ĠS ong
Ġsp eer
Ġa kker
Ġgar derobe
rot s
Ġvoedings supp
Ġk week
ĠH oeren
Ġherstel t
spro ject
Ġrechter lijke
ver ordening
prof ielen
ĠMil f
il y
?? ?
ag u
Al tijd
za Ã¯
Ġz ielen
ĠIb iza
P oint
Ġh oorden
ĠSp ace
an gens
ĠG RO
Ġmantelzorg ers
ĠDuur zaam
unt y
ĠW iel
ĠOostenrijk se
L ieve
Ġnieuwsgier igheid
Ġmar mer
ĠD own
ĠCh allenge
aanb ied
onder deel
ĠAal st
ĠT ja
ort us
g assen
Ġlich amen
ĠbeÃ¯nvl oedt
ff ingen
F M
Ġfl or
ĠD ier
ĠGebruik ers
ĠV rede
Ġafz uigen
an as
ab or
way s
eu vre
zijd se
âĢĻ ?
ĠB oeren
Ġevang elie
eter a
Ġoppervl akk
Ġdriet al
av es
Ġk ookt
it eld
g al
sp ositie
Ġok Ã©
ĠOn langs
ind eling
Ġkle intje
Ġg rachten
Nieuw s
Wer eld
ĠG ids
ĠN EN
Ġom wonenden
ĠW eert
ĠO uden
ĠU RL
Ġtoevoeg ingen
len d
Ġlucht vochtigheid
Ġint r
ĠMob ile
Ġpitt ores
Ġverwij t
Ġgebouw de
uld igen
Vroe ger
ĠS oest
Ġgehand eld
Ġt rachten
ĠG uy
ĠWill iams
Ġwat ert
sc an
Ġfilt eren
Ġklassiek ers
ĠMe ijer
ĠT ai
d ragers
Ġwat ers
kop ers
kings kracht
Z oekt
Ġachter in
Ġrecht erkant
verb aal
Ġgevoel igheid
ĠT and
Ġafwiss elende
ĠE X
Ġpap er
Ġarrange menten
Ġklin isch
Ġp ell
ĠBern ard
Eer der
Ġprofit eer
ĠÃ ¢
druk king
G R
Ġcrimin elen
Ġzw aard
Ġt amelijk
Ġpresent eerde
rysl Ã¢n
Ġex cuus
n ormaal
Ġveren igings
be kw
Ġw a
Ġonderbouw ing
ĠGe west
Ġfl y
ĠHet e
Ġverstopp ing
ĠM eu
F in
Ġg ad
gele s
ĠChamp ions
ma kende
voor bere
Ġhy draul
ĠR ozen
Ġmo ge
gehe ugen
Ġna zi
v A
ĠSara h
Ġnag aan
Ġconvent ionele
ĠSeb ast
Ġsch ors
b reken
Ġmee gaan
ap lu
ĠOu der
ĠD anny
Ġleer jaar
Ġeerst volgende
ĠN l
id i
ĠL A
Ġcertific ering
ien ds
kel et
ag els
Ġduur zamer
Ġtr anny
Ġw oerden
Ġmet al
Ġgev oed
Ġvast en
Ġbinnen komen
ĠK as
Ġvrij gezellen
ĠV reem
Ġgen etische
ĠSp el
Ġrond lopen
Ġspel regels
Ġafger onde
ĠP od
! .
E d
ĠU MC
aan slag
Ġ4 000
Ġ19 20
Ġgeb aseerde
Ġill usie
Ġk ub
ĠH ind
opath ie
Ġcompens eren
omet rische
Ġaan gaande
ĠA ction
C omm
Ġvet zuren
Vol gende
Ġlog ica
Pl aats
Ġged uurd
prem ie
Ġvol sl
Ġtwijf elt
Ġmet af
ĠW ith
ĠÃ¡ l
Ġex press
' -
veil ige
Ġbe kennen
Ġgewoon weg
m ore
Ġdurf de
ĠSpot ify
Ġd iale
ĠPersoon lijke
Ġb ass
al ie
ag nie
Ġconcl uderen
cent ages
fin anc
Ġo a
Ġbe ek
Ġsal ades
vr ienden
Ġs etje
ĠLu xe
Ġopge hangen
Ġaut onomie
ĠHoll ywood
Ġind rukken
gev ingen
Ġzijn er
Ġselect eer
ĠZ ul
ogen e
Sex date
' )
od or
le kt
re ding
Ġgedefin ieerd
Ã Ĥ
Ġvoet gangers
ĠQu een
ĠB iden
Ġdro p
c ase
ot ton
Ġtab blad
je wel
Ġl onen
ĠN T
Ġbord je
Ġzee f
ĠSim pel
e ge
s essie
Ġkat hedraal
Ġd as
Hier bij
Ġtem pl
Ġaccept eert
Ġmas c
l ers
Ġdoorb raak
om ot
erv aringen
ov o
H otel
v atting
r t
Ġgeoptim aliseerd
Ġliefde vol
ĠL ut
ren e
Ġru ggen
Ġsp inazie
Ġvert alingen
Ġbelang hebbenden
ĠE T
Ġopl os
ĠMoham med
Ġbel oven
ver war
ĠNoor se
Ġvervang er
Ġbet rof
Ġopgev ol
Ġp ups
Ġjournalist iek
Ġmee werken
ic ult
Ġgeblokk eerd
Ã ī
Ġschaam te
Ġbeeld houw
ĠSk ype
op breng
mpos ium
ree ft
Ġneu rol
ĠR oze
erse y
Ġlever ingen
Ġoper aties
Ġdess ert
Ġuit sluiting
scomm issie
ĠF ol
Ġtrot se
Ġkrist al
Ġan us
Ġ aa
ĠZ ilver
Ġzel ve
Ġbeschouw ing
ĠV IP
Ġprest igieuze
Ġwer f
pl as
m t
Ġuitvoer ings
ĠMag ic
ĠM ill
Ġproject leider
Ġkl itten
Ġafst ude
ĠValle y
ĠR oe
del ige
Ġge gr
Ġst roming
Ġmerk baar
e isen
Ġi Deal
bs ites
Ġl elijk
Ġb ilj
ore aanse
ĠD j
Ġintroduc eren
Ġgeb reke
her lands
ok ter
ĠP resident
Ġtegemoet koming
d iner
ĠHall oween
m ast
ru cht
Ġged ownload
Ġdra den
Ġw olf
kl assen
Ġdiep ste
Ġre uze
ĠG rieks
Ġw i
Ġstok je
Ġall erm
ĠH erv
Ġon wijs
ĠRes ult
Ġadministr atief
all ers
Ġgar anties
d rie
Ġsinaas appel
Ġbuiten gewone
ĠK B
pl anner
200 7
Ġvoort reff
ĠIn derdaad
c il
Ġ( !)
uit voer
Ġgest ort
ĠM Ã¡
Ġjal oers
Ġrechts bijstand
gren zen
Ġexcurs ie
Ġingred iÃ«nt
ĠVictor ia
k b
ĠV elen
Ġpro tot
Ġgeb ieds
voor al
Ġgesl oopt
Ġre search
S tu
Ġred ding
Ġ197 6
Ġhoog uit
Ġt a
sl ang
oppervlak te
ss on
Ġbedre igingen
g ooien
ĠC amb
" )
Ġgoo ch
Ġsch ier
Ġaan gaat
Ġd ys
Ġdr iek
Ġseks ualiteit
Ġraads el
ink ers
ĠL ijn
Me de
nem end
Ġcode s
Ġgep re
pot ten
kn oop
Ġvere isen
ĠJ im
ĠG ijs
b uren
isch er
keur de
Ġij sb
ĠG erecht
Ġwinkel mand
l ift
u eerd
ĠR C
Ġde kt
Ġn oo
pl af
Ġdienst verband
ĠD A
versl aving
Ġduit sland
Ġdre igen
ĠvariÃ« rend
Ġaan voer
Ġlig ht
Ġuit spreken
Ġ10 5
Ġstand aarden
Ġliggen d
Ġdes ondanks
Ġtele com
sm on
A uteur
ĠM aan
Ġbehoor de
heu vel
Ġonder tekenen
Ġlink erkant
en a
ob o
ĠVoor af
Ġstee vast
Ġdonderdag avond
Ġser um
Ġhebben de
on ze
Ġment or
ĠF R
Ġ197 7
Ġbloed s
ĠM ov
Ġsch aak
Ġpu ppy
Ġsuggest ie
ĠMosk ou
g ooid
ĠTechn ology
ĠL isa
Ġknap per
Ġst ick
lie p
ged wongen
Ġx x
Ġle as
m oe
eld orf
Ġpred ikant
Ġtoe spraak
ĠPortuge se
Ġl ady
Ġe e
Ġdir igent
ann el
waar onder
Ġz ure
Ġopgevol gd
Ġv a
Ġ ans
Ġbe macht
O k
ĠW ars
Ġtro on
Ġst ief
Ã© Ã©l
oper atie
bew uste
ree pt
Ġve zel
Ġger et
arbe id
at ings
Ġmiddel eeuwen
Ġmaat st
Ġautom aat
ĠK W
B ER
ĠO ld
Ġgr ie
Ġbl oeit
Ġfil pjes
Â Ĵ
Ġafgest udeerd
f ijn
Ġk us
Ġz werf
Ġm ollige
hang ers
eel de
Ġop kn
Ġget oetst
Ġvan ochtend
ig ste
Ġopge sloten
Ġfranch ise
Ġan ker
ĠBru in
sch rijf
Ġvoor dracht
ĠV irtu
Ġbeant woordt
prof it
ĠN ok
cont ainer
Ġop wekken
il eren
ail y
Ġbere iding
ĠAn geles
Ġey ec
Ġgl orie
Ġdraaien de
Ġgel eefd
Ġzorg instellingen
ĠF ut
Ġij zeren
Ġstil stand
je ugd
Ġbron s
Ġbor deel
ĠP oort
Ġsche pping
n at
K waliteit
Ġro uter
Ġonzeker e
Ġrob ots
Ġop komende
Ġresult eerde
Ġeen duid
ijd recht
st eren
oze s
ĠHEER E
iden ce
desk undigen
Ġaf weer
Ġelast iek
Ġkalender jaar
Ġgewe ven
j assen
le pen
ĠPar ad
Ġbe oefenen
Y ou
Ġaansp reekt
Ġpil oot
Ġb oeg
ge zien
Ġuitge zocht
ĠInst itute
ĠreÃ« le
Ġf air
Ġlijn tjes
iz ier
D P
Ġbere idt
Ġkru ip
Ġbinnen komt
Ġplatform s
Ġvervangen de
Ġver deel
Ġrechts zaak
Ġte werk
gr oe
h aken
Ġschoon gemaakt
oog st
Ġenergiet ransitie
Stand aard
ilis eren
Ġbek ost
ĠHem el
Ġbij ten
Ġover dragen
Ġuit schakelen
Ġonge oorl
R uim
" :
ĠH orst
Ġplak jes
Ġvervol gen
Ġkn al
ĠB urgers
ĠE EN
Ġkap itein
Ġna den
v elen
ĠOver leg
ĠB ele
ĠLeg o
Ġborst kanker
ĠKru id
n t
Ġvernieuw ende
p osten
Ġbe ige
Ġzoek woorden
Ġgod delijke
Ġsl acht
Ġinsp ecteur
Bel angrijk
Ġkle intjes
ĠD onderdag
ĠW oerden
ĠHe ide
der ings
ĠFr iday
Ġversch aft
IN E
ĠL ul
w riter
Ġ/ /
ĠB es
ĠDaar op
Ġm yst
Ġlevens middelen
ĠNieuwe gein
ĠY v
bo ards
g han
Ġbeste mp
Ġleer zame
Ġing repen
ĠM os
Ġonbe w
I X
ĠIn n
m ir
ĠSt a
G aat
Ġbez ien
Ġdoorsn ee
ĠH aak
ĠE indelijk
Ġl ade
aft rek
Ġkolon iale
Ġbe middel
ĠM ET
ĠL ink
ister wijk
iss ers
Ġaantrek kingskracht
ĠN euk
ĠSt uk
Ġkun de
zelf sprekend
st il
K unst
Ġf Ã¼r
mat ch
arch ie
waard elijk
Ġvie ze
Ġdome inen
stij ging
in se
Ġpar ad
Ġa rab
Ġconsequ ent
ĠSte ve
ur ken
ĠP M
ĠSp uitende
Ġmac ro
pe il
M orgen
Ġer ed
r ia
iss a
rad io
verd rag
S A
Ġw onnen
Ġondeu gende
Ġst allen
Ġcont ributie
sk waliteit
ĠF a
ĠMe iden
Ġgoed s
ĠL eren
Ġeen d
Ġover wegingen
Ġpl a
Ġsl angen
Ġonder nomen
Ġo euvre
ĠAan melden
ĠM E
stal ig
zam ing
ail les
g ame
anc er
Ġwaar nemingen
Ġlangzamer hand
200 6
Ġbezig houden
ĠD ream
len zen
Ġbew ogen
Ġregen water
ĠAc c
Ġoef ent
Ġle ads
fig uur
wassen en
Ġvl ammen
ĠT L
ĠKat wijk
Ġbenodigd heden
Ġdat zelfde
Ġb aden
Ġlucht ig
ĠG oes
ok a
ĠJas per
Ġdep artement
ĠVeiligheid s
Ġaut os
V ers
Ġmisl ukte
Ġsch arn
Ġland ing
ĠLode wijk
l oor
Ġhoven iers
ij de
ank a
Ġkoolhydr aat
ĠKl ass
vol ume
Ġonverh oopt
Ġbr un
ĠL it
ĠPriv ate
ĠSo und
ĠF iat
erv aren
ĠMon ique
Ġges ign
Ġte kende
Ġthe aters
Ġgebruiks vriendelijke
Ġbestuurs recht
i kend
g od
Ġwen den
Ġ197 3
m uiden
b alt
ĠKro atiÃ«
io den
Ġsch akelaar
sch ieten
Ġe mpath
he ide
Ġall ocht
Ġec ologisch
Ġd ermat
Ġdu ikt
Ġgord ijn
Ġboek jes
ĠMul der
aan vallen
ĠN AS
Ġkop telefoon
oe stel
rijp elijk
Ġg oot
ĠR iver
ĠFre derik
Ġzwaar dere
Ġonge kend
Ġeen ig
Ġlang etermijn
ĠL ed
z ui
ĠAr ts
ab ine
m atie
IJ N
in val
ĠoriÃ«nt atie
Ġbet over
ik er
Ġst oof
ai res
V ER
Ġp ron
o a
ĠA le
Ġkoel ing
ĠOn ly
Ġade mend
ning meester
ĠM atch
spro cedure
Ġwezen lijk
i qu
ie kt
Ġchat s
Ġte goed
Ġgister avond
P riv
Ġjuni or
ĠEventu eel
Ġgeb und
Ġe ist
and elen
ĠT urn
Ġf eel
we k
Ġaf geven
ĠC ase
form ule
Ġonder zijde
sch uldig
Ġneer gelegd
vru cht
Ġmind fulness
ĠF ox
Ġoog opslag
Ġmon sters
Ġs ushi
Ġhoofd dorp
ĠLin ux
W erken
ĠH onden
Ġmee brengen
ken baar
Ġwe blog
Ġvorm geven
z etters
ier p
Ġsex huis
Ġmar ine
Ġmis leiden
Ġgl itter
ze il
ĠP oint
Ġet age
Ġst reken
Ġvert icaal
ĠO scar
Ġuit gelezen
Ġb oeien
ce an
Ġbericht geving
f ers
Ġfe atures
Ġtrac king
Ġpijn st
Ġregen boog
Ġou ds
f ree
Ġfl ora
Ġinf lu
Ġgrens overschrij
up unctuur
Ġmult in
ĠP ijn
Ġaanvaard ing
Ġgr anen
ĠB ah
Ġfil osoof
ruit ment
C ol
ke urs
Ġcrypt ocurren
Ġknuts elen
Ġop geleide
kle p
Ġros Ã©
U K
Ġon belangrijk
ĠV uur
we ide
ĠS in
ĠW ay
Ġaandu iding
Ġp oos
ge ur
gesch enk
fact oren
ĠG ooi
wer per
Ġdeb ut
g aten
st ock
Ġwat erm
gevoel igheid
ĠOl iv
gel oof
c ulaire
Ġverwezenlijk en
gr aat
Ġintroduc eert
ĠZ es
Ġparkeer garage
vre de
ĠEH BO
S L
ĠJ ol
Ġscheids rechter
ĠW enen
besparen de
ĠK oe
Ġo ste
Ġop getrokken
ĠK inky
Ġ12 8
Ġoblig aties
vl akken
Ġben auw
R ij
te elt
met ers
Ġ197 4
Ġb ow
vallen de
Ġvaria bele
Ġsch ets
Ġleidinggeven den
urover eenkomst
ĠC elsius
Ġhang lamp
o und
Ġvert oeven
ĠE ssen
Ġgedroog d
Ġsn or
Ġeduc atie
ĠDire ctor
ĠGemeen schap
Ġk in
Ġwinter maanden
bas ed
ĠP ow
Ġsch enk
vers n
Ġuit zetten
ĠM akkelijk
Ġre v
ĠB un
Ġlok ken
Ġvor k
Ġverst oren
Ġe co
Ġvert aalt
Ġpromin ente
Ġop druk
Pro beer
b ilair
C ent
Ġp ag
a ine
iver y
ĠA udio
Ġaan houdende
m oer
je b
ĠEen voudig
Ġoverwegen d
Ġonverm inderd
pl ac
sp ark
ĠIn ge
Ġv aag
M aandag
Ġinsch atting
ĠS ar
pl anning
ĠN on
Ġwind molens
Ġconfront atie
v oeg
Ġz eem
ĠS ee
ra ine
Ġinh eemse
itor is
Ġruim sch
up date
ĠL uister
ĠAn deren
Ġro eren
K orea
ĠS outh
em d
ĠS ha
Ġtelefoont je
Ġmas kers
ĠH uizen
ĠDub ai
Ġinformatie ve
ar ct
V ier
l t
Ġhe ads
ĠD rive
Ġop pakken
Ġbl oeiende
ĠAr thur
Ġpedagog isch
ĠC atering
Ġingen ieurs
amen teel
Ġsl anke
ur ig
ken merken
R ed
Ġtoev oegt
V erm
vel ings
Ġim provis
Ġre ad
Ġpriv aat
Ġl auw
air s
at ra
ĠO og
Ġon ly
Ġi DEAL
Ġbrand stoffen
Ġl oont
Ġm ol
ĠNat ure
j agen
Ġinstru cteur
Ġin noveren
Ġverh el
Ġe u
ĠVerg adering
vlucht en
Ġho stel
al o
ĠAl ler
y f
ur on
ĠSl ow
st ore
E cht
Ġbest s
ĠEconom ie
S im
ige erd
Ġant ieke
Ġcit rus
Ġw onden
Ġknel punten
Ġoper ationeel
Ġgevangen en
n d
Ġvloerk leed
ĠI ll
ĠEn ter
Onder zoek
Ġmon n
ĠRoemen iÃ«
fre qu
re atie
ĠCom pl
Ġversl eten
Ġbal ken
ĠP y
Ġkennis sen
Ġfile s
ĠHe ad
b raak
Ġsm elt
Ġonder water
ĠEen s
ik anten
Ġopw inden
Ġop warming
Ġprop ag
ĠBlauw e
bru ine
rit me
uit jes
ĠSl aap
fra me
ĠThe me
ĠA st
Ġduid t
ien ne
ĠK eulen
Ġgesch oven
Ġover sp
Ġsan itaire
ro les
Ġverd r
Ġpresent ator
Ġfinancier ings
oever ij
Ġfa una
ĠD iv
Ġinflu en
eeft ijd
Ġradi ator
Ġonderver deeld
ĠH air
Ġtru ck
Ġgeld ige
ĠH elen
Ġbesm ett
Ġdoorlopen d
ĠJac ques
Ġuitv allen
Ġ25 00
zonder d
Ġaan hanger
le u
Ġmar ge
Ġr idder
ĠRijks waterstaat
Ġpanor am
Ġcl ich
ĠSte el
Ġhind oestaanse
ĠT ony
ĠB oon
Ġrapport ages
ĠEn t
Ġdr ied
A t
m ooi
Ġverb inten
Ġoprecht e
w orp
Ġverbrand ing
Ġspect rum
Ġverw ant
ĠContin ue
ĠMar ine
Ġresponden ten
D irect
Ġc rowd
Ġgel uisterd
Ġstraat jes
ĠGrond wet
ĠRijs wijk
u Ã¼m
Ġvol houden
Ġbestuurs leden
Ġfeest jes
ĠCub a
Ġkenmer kend
Ġcamp us
ĠW are
gew eld
Ġz usters
do eleinden
Ġre us
ine zen
ĠH alf
ĠV L
M il
ur er
Ġk ass
Ġchron isch
in os
ul ator
be handelingen
uz z
oss er
Ġe ye
ĠOnder nemers
ze ilen
Ġhou vast
pa ir
Ġmyster ie
Ġzitten d
Ġlui ers
D ikke
s j
ĠTh erm
Ġbesch aving
Ġp eer
Ġact ualiteit
Ġzelf verzeker
l ock
ĠA ru
Ġover spel
de eltjes
ooi ing
ĠDe velopment
In st
Ġdi ers
ĠP oel
Ġchrist endom
Ġheu pen
Ġtoe gestuurd
D uur
Ġpas geboren
Ġzorg verlener
Ġmoe i
P ark
Ġstr ik
eil anden
Ġkring loop
Ġfarmaceut ische
b ow
Ġfun dering
Ġbox spring
Ġvloei baar
sch aat
am enten
Ġle gende
Ġverwij zingen
k ampen
Ġzo al
Ġneuk films
Ġjur ken
Ġa ustral
gord ijnen
Ġpadden stoelen
Ġconfigur atie
200 4
cy clus
Ġopslag ruimte
Ġs aaie
ĠEr vaar
ĠM oon
sch uur
Ġkoff ers
Ġd orst
ĠN iels
n atte
Ġtherm ische
Ġ197 2
ĠWil le
Ġm i
Ã¨ s
Ġker nen
Ġzen ding
ĠT eken
Ġuit keringen
reg lement
Ġverspre idt
Ġonzicht bare
ĠF arm
ĠKut je
ĠW out
Ġj am
ob b
d arm
Ġterug ge
Ġna z
Ġsloten maker
Ġam us
Ġs en
Ġgem at
ĠI erse
ĠHen ry
ĠMet al
Ġop houden
Ġwor ld
ĠSt ijl
ĠS witch
Ġte zamen
uw eel
Ġaf zet
ĠGent se
ĠDI Y
voor raad
ĠV ene
Ġob jectieve
Ã £
Ġvoor doet
ĠIn spectie
toe stellen
ĠD agen
B o
ag net
Ġgeret ourn
Ġtaal gebruik
f eld
Ġdrijven de
ĠH i
Ġweer sver
ĠPer u
Ġluid sprekers
gedaag de
Ġkleding stuk
Re cht
Ġerg onomische
Ġgep at
zak jes
Ġrand je
Ġenergiele verancier
Ġk oer
A ch
Ġstrip s
ĠGre at
ise ks
ĠZ om
Ġfem in
akt en
Ġverh olpen
ĠdiÃ« t
Ġboer derijen
Ġbl ader
ĠÃ ĺ
ĠP alm
Ã ¥
ĠP ant
W oon
Ġuit dro
ĠP im
Ġtra jecten
Ġduur dere
ĠgeÃ¯nteress eerden
Ġm uggen
ach els
e chte
Ġ196 7
Ġgarn alen
Ġconne ctie
G et
Ġinge stelde
ĠPl at
Ġat leten
ĠN aties
Ġsl ok
Ġgehe cht
ĠSt rand
Ġrevolution aire
Ġmeest ers
Ġev ident
mat igheid
app s
i res
Ġsc Ã¨nes
gez in
Ġherhaald elijk
Ġruimsch oots
ĠA sh
kan sen
ad voc
ĠJ A
gek eerd
ĠAl t
Ġ( '
Ġj o
erk erk
Ġlever ings
gevoel ig
Ġverh uist
Ġstro o
Ġdoor staan
u us
aan wijzing
Cont act
Ġcomp ost
ĠZuid oost
Ġplug in
Ġsamen komen
Ġl ant
uit val
ĠL ady
Ġuite inde
Ġskige bied
Ġm indset
ĠSS L
Ġdod elijke
Ġverh uurd
ĠArgent iniÃ«
ghan istan
Ġgegevens verwerking
ĠBlijk baar
in ema
Ġgek ru
Ġfir st
Ġaanm aak
gek regen
Ġopzeg ging
Ġmarkt leider
Ġp ush
Ġonder goed
m und
Ġenergiel abel
B us
Ġh ut
Ġbev ond
AL L
Ġhernieuw bare
Ġc ement
b oud
Ġwoensdag avond
Ġprob eerden
verm out
Ġo est
Ġcur ator
Ġp vc
Ġg idsen
U G
ĠDigit ale
bl oeding
ij gen
ĠH ay
Ġc ovid
Ġstart punt
Ġrechthoek ige
ĠP s
Ġim per
ĠE ten
Ġagress ieve
waart se
ĠCons erv
Ġvers leut
ĠĠĠĠ ĠĠĠĠ
Ġd rijft
Ġgear resteerd
Ġperiod ieke
Ġgeconcent reerd
ĠM ozes
Ġhor ror
ĠVl issingen
Ġoverhem d
Ġthe ele
ĠD ergelijke
Ġvoel baar
z iekenhuis
ĠCharl otte
il ia
Ġaf rond
Ġjeugd zorg
Ġsterk ere
] [
Ġbewonder ing
Ġwh at
Ged urende
beh ang
Ġdinsdag avond
Ġa mateurs
ĠBre xit
ĠN ext
Ġleg aal
Ġstad scentrum
Ġperc elen
Ġad apt
ĠVan avond
ĠL is
Ġt inder
Ġhart stochtelijk
Bij zonder
Ġis ole
Ġr ank
Ġbouw jaar
Ġbehoef tes
ĠâĢĺ âĢĻ
Ġverk eert
ast ische
ul le
ĠRand stad
ĠGR ATIS
Ġmar in
Ġtand vlees
Ġgezelschap sdame
ar range
ĠS CH
Ġge analys
Ġverfris sende
ĠSh ar
Ġsl ogan
m ogelijke
ĠCaliforn iÃ«
D onderdag
Ġtoe staan
or er
ĠS urf
ĠAnder zijds
Ġmo sterd
Ġep ide
A rab
b racht
ĠZand voort
Ġk rom
Ġuitk ijken
heids verzekering
Ġhe ffen
ĠT T
ign ons
Ġt urn
ter ing
Ġvreemd elingen
Ġgra ppen
Ġst uw
Ġouder wets
Ġpe sten
Ġn Ã©t
ĠT yp
ĠSand ra
Ġweef sels
Ġbe middeling
stellen d
ĠN am
ĠGel oof
ul um
hal ings
Ġver rijk
Ġwaar dig
ĠA re
Ġver geven
k as
Ġverg aderen
ĠB oot
Ġout s
ĠHier op
Ġinternet verbinding
Ġwas middel
pl anken
Ġagress ief
ĠP aas
Ġse dert
Ġ197 1
n ia
Ġdem ont
Ġgehand h
U X
Ġaan gren
[...]
