{"<s>":0,"<pad>":1,"</s>":2,"<unk>":3,"<mask>":4,"!":5,"\"":6,"#":7,"$":8,"%":9,"&":10,"'":11,"(":12,")":13,"*":14,"+":15,",":16,"-":17,".":18,"/":19,"0":20,"1":21,"2":22,"3":23,"4":24,"5":25,"6":26,"7":27,"8":28,"9":29,":":30,";":31,"<":32,"=":33,">":34,"?":35,"@":36,"A":37,"B":38,"C":39,"D":40,"E":41,"F":42,"G":43,"H":44,"I":45,"J":46,"K":47,"L":48,"M":49,"N":50,"O":51,"P":52,"Q":53,"R":54,"S":55,"T":56,"U":57,"V":58,"W":59,"X":60,"Y":61,"Z":62,"[":63,"\\":64,"]":65,"^":66,"_":67,"`":68,"a":69,"b":70,"c":71,"d":72,"e":73,"f":74,"g":75,"h":76,"i":77,"j":78,"k":79,"l":80,"m":81,"n":82,"o":83,"p":84,"q":85,"r":86,"s":87,"t":88,"u":89,"v":90,"w":91,"x":92,"y":93,"z":94,"{":95,"|":96,"}":97,"~":98,"¡":99,"¢":100,"£":101,"¤":102,"¥":103,"¦":104,"§":105,"¨":106,"©":107,"ª":108,"«":109,"¬":110,"®":111,"¯":112,"°":113,"±":114,"²":115,"³":116,"´":117,"µ":118,"¶":119,"·":120,"¸":121,"¹":122,"º":123,"»":124,"¼":125,"½":126,"¾":127,"¿":128,"À":129,"Á":130,"Â":131,"Ã":132,"Ä":133,"Å":134,"Æ":135,"Ç":136,"È":137,"É":138,"Ê":139,"Ë":140,"Ì":141,"Í":142,"Î":143,"Ï":144,"Ð":145,"Ñ":146,"Ò":147,"Ó":148,"Ô":149,"Õ":150,"Ö":151,"×":152,"Ø":153,"Ù":154,"Ú":155,"Û":156,"Ü":157,"Ý":158,"Þ":159,"ß":160,"à":161,"á":162,"â":163,"ã":164,"ä":165,"å":166,"æ":167,"ç":168,"è":169,"é":170,"ê":171,"ë":172,"ì":173,"í":174,"î":175,"ï":176,"ð":177,"ñ":178,"ò":179,"ó":180,"ô":181,"õ":182,"ö":183,"÷":184,"ø":185,"ù":186,"ú":187,"û":188,"ü":189,"ý":190,"þ":191,"ÿ":192,"Ā":193,"ā":194,"Ă":195,"ă":196,"Ą":197,"ą":198,"Ć":199,"ć":200,"Ĉ":201,"ĉ":202,"Ċ":203,"ċ":204,"Č":205,"č":206,"Ď":207,"ď":208,"Đ":209,"đ":210,"Ē":211,"ē":212,"Ĕ":213,"ĕ":214,"Ė":215,"ė":216,"Ę":217,"ę":218,"Ě":219,"ě":220,"Ĝ":221,"ĝ":222,"Ğ":223,"ğ":224,"Ġ":225,"ġ":226,"Ģ":227,"ģ":228,"Ĥ":229,"ĥ":230,"Ħ":231,"ħ":232,"Ĩ":233,"ĩ":234,"Ī":235,"ī":236,"Ĭ":237,"ĭ":238,"Į":239,"į":240,"İ":241,"ı":242,"Ĳ":243,"ĳ":244,"Ĵ":245,"ĵ":246,"Ķ":247,"ķ":248,"ĸ":249,"Ĺ":250,"ĺ":251,"Ļ":252,"ļ":253,"Ľ":254,"ľ":255,"Ŀ":256,"ŀ":257,"Ł":258,"ł":259,"Ń":260,"en":261,"er":262,"Ġd":263,"an":264,"Ġv":265,"in":266,"et":267,"el":268,"ij":269,"Ġo":270,"Ġh":271,"Ġde":272,"aa":273,"or":274,"Ġm":275,"st":276,"Ġb":277,"Ġw":278,"Ġg":279,"ie":280,"ch":281,"Ġe":282,"Ġt":283,"at":284,"Ġa":285,"Ġz":286,"is":287,"Ġvan":288,"Ġk":289,"Ġen":290,"oor":291,"it":292,"Ġn":293,"Ġeen":294,"aar":295,"Ġin":296,"on":297,"ing":298,"le":299,"Ġhet":300,"Ġs":301,"Ġge":302,"Ġp":303,"de":304,"der":305,"re":306,"oe":307,"den":308,"je":309,"ge":310,"ro":311,"Ġop":312,"Ġte":313,"ijk":314,"Ġver":315,"Ġvoor":316,"cht":317,"Ġbe":318,"al":319,"Ġis":320,"gen":321,"Ġu":322,"ken":323,"ar":324,"ijn":325,"Ġon":326,"ĠD":327,"Ġl":328,"ee":329,"om":330,"Ġal":331,"Ġmet":332,"eer":333,"ur":334,"Ġje":335,"ver":336,"Ġaan":337,"ik":338,"il":339,"ig":340,"Ġst":341,"ra":342,"ol":343,"un":344,"Ġdat":345,"iet":346,"ot":347,"and":348,"âĢ":349,"id":350,"as":351,"te":352,"Ġc":353,"am":354,"uw":355,"ven":356,"Ġom":357,"Ġzijn":358,"ze":359,"ĠH":360,"oo":361,"ct":362,"Ġer":363,"elijk":364,"aat":365,"sch":366,"ru":367,"Ġdie":368,"ok":369,"Ġf":370,"Ġuit":371,"Ġniet":372,"Ġhe":373,"ent":374,"ou":375,"og":376,"Ġj":377,"Ġwor":378,"ĠM":379,"ers":380,"rij":381,"ĠB":382,"ste":383,"ĠS":384,"kt":385,"ĠA":386,"Ġwe":387,"ft":388,"ele":389,"he":390,"ĠE":391,"Ġof":392,"Ġbij":393,"ĠDe":394,"ier":395,"Ġre":396,"ien":397,"us":398,"aan":399,"atie":400,"Ġle":401,"ag":402,"ant":403,"sen":404,"op":405,"aal":406,"Ġ1":407,"Ġover":408,"eld":409,"Ġook":410,"ĠV":411,"nen":412,"len":413,"ĠW":414,"ĠI":415,"ang":416,"ak":417,"ul":418,"es":419,"Ġals":420,"Ġ(":421,"erk":422,"Ġkun":423,"eren":424,"im":425,"ingen":426,"ĠN":427,"Ġik":428,"Ġ2":429,"ĠO":430,"Ġdoor":431,"Ġse":432,"se":433,"dt":434,"Ġheb":435,"Ġzo":436,"ten":437,"isch":438,"Ġdan":439,"sp":440,"be":441,"ad":442,"ap":443,"ĠG":444,"uur":445,"ic":446,"icht":447,"Ġwaar":448,"Ġze":449,"ve":450,"ĠâĢ":451,"Ġmaar":452,"Ġonder":453,"ĠT":454,"ĠP":455,"ige":456,"Ġsp":457,"ĠC":458,"em":459,"Ġnaar":460,"Ġkan":461,"Ġsch":462,"Ġaf":463,"ond":464,"Ġgr":465,"Ġpro":466,"Ġworden":467,"eel":468,"ut":469,"Ġdeze":470,"oet":471,"lijk":472,"elen":473,"ke":474,"ĠL":475,"oed":476,"ist":477,"Ġgeb":478,"eeft":479,"ĠZ":480,"Ġalle":481,"oen":482,"Ġwat":483,"ite":484,"Ġheeft":485,"Ġr":486,"ijd":487,"ander":488,"ĠK":489,"Ġont":490,"Ġsex":491,"oek":492,"âĢĻ":493,"pen":494,"heid":495,"ter":496,"ĠR":497,"uit":498,"rouw":499,"Ġwer":500,"Ġmeer":501,"ĠHet":502,"ische":503,"orm":504,"Ġwel":505,"ast":506,"Ġwordt":507,"od":508,"aag":509,"Ġtot":510,"elf":511,"ont":512,"ass":513,"ben":514,"Ġnog":515,"acht":516,"ind":517,"zen":518,"ĠJ":519,"..":520,"Ġvol":521,"Ġdit":522,"age":523,"ort":524,"sl":525,"ker":526,"omen":527,"um":528,"Ġhebben":529,"00":530,"oon":531,"De":532,"ies":533,"een":534,"art":535,"Ġander":536,"Ġma":537,"ieuw":538,"igen":539,"jes":540,"Ġme":541,"Ã©":542,"Ġpl":543,"aak":544,"ich":545,"Ã«":546,"Ġbet":547,"Ġwas":548,"ĠIn":549,"os":550,"ouw":551,"ere":552,"uis":553,"ia":554,"Ġgro":555,"Ġdaar":556,"dat":557,"Ġkunnen":558,"land":559,"ĠF":560,"ri":561,"Ġbl":562,"onder":563,"Ġwil":564,"Ġmoet":565,"Ġkl":566,"Ġmee":567,"ine":568,"sten":569,"Ġmen":570,"ion":571,"we":572,"Ġvrouw":573,"Ġgebru":574,"eu":575,"ff":576,"pl":577,"Ġveel":578,"Ġtoe":579,"Ġgem":580,"atis":581,"stel":582,"aten":583,"gel":584,"elijke":585,"wee":586,"Ġuw":587,"Ġgoed":588,"act":589,"men":590,"Ġgev":591,"aren":592,"Ġhier":593,"Ġ20":594,"Ġgeen":595,"Ġbed":596,"ks":597,"Ġwij":598,"Ġter":599,"Ġjaar":600,"af":601,"Ġhij":602,"amen":603,"ĠAl":604,"Ġnieuw":605,"Ġman":606,"iteit":607,"oc":608,"du":609,"Ġzich":610,"Ġonze":611,"voor":612,"ab":613,"Ġeer":614,"ale":615,"inder":616,"iek":617,"aakt":618,"ac":619,"org":620,"aam":621,"Ġons":622,"assage":623,"racht":624,"eder":625,"Ġhoe":626,"wij":627,"Ġ3":628,"Ġbel":629,"erd":630,"Ġwerk":631,"ief":632,"hou":633,"oord":634,"Ġsl":635,"oop":636,"innen":637,"Ġkle":638,"per":639,"oel":640,"ide":641,"Ġgez":642,"ĠâĢĺ":643,"Ġcom":644,"Ġmaken":645,"Ġzelf":646,"Ġmassage":647,"iÃ«":648,"uk":649,"als":650,"ir":651,"ings":652,"Ġandere":653,"Ġgebruik":654,"aard":655,"alen":656,"Ġmijn":657,"Ġgratis":658,"gev":659,"ma":660,"Ġna":661,"Ġgew":662,"Ġkunt":663,"Ġweer":664,"werk":665,"Ġhun":666,"chter":667,"els":668,"Ġel":669,"Ġhaar":670,"ren":671,"baar":672,"eerd":673,"ĠU":674,"ec":675,"Ġro":676,"Ġgen":677,"Ġeigen":678,"Ġbeg":679,"ĠEn":680,"ug":681,"uren":682,"ip":683,"Ġper":684,"wer":685,"ann":686,"Ġbest":687,"uid":688,"res":689,"eg":690,"oer":691,"ber":692,"oog":693,"ed":694,"Ġru":695,"atuur":696,"eten":697,"Ġnu":698,"open":699,"ogelijk":700,"Ġsn":701,"ui":702,"Ġversch":703,"Ġgaan":704,"schap":705,"geven":706,"ederland":707,"gt":708,"ĠEen":709,"of":710,"ub":711,"Ġtijd":712,"Ġcont":713,"Ġben":714,"Ġ-":715,"ran":716,"agen":717,"Ġdi":718,"Ġvr":719,"uiten":720,"Ġar":721,"Ġtegen":722,"ĠIk":723,"Ġex":724,"idd":725,"âĢĿ":726,"bij":727,"ctie":728,"Ġtwee":729,"tijd":730,"Ġmogelijk":731,"Ġto":732,"mer":733,"Het":734,"form":735,"Ġbeh":736,"Ġgaat":737,"ussen":738,"ijden":739,"Ġzou":740,"kken":741,"Ġdus":742,"oren":743,"kel":744,"Ġnieuwe":745,"van":746,"Ġdr":747,"vol":748,"rijk":749,"huis":750,"Ġzal":751,"Ġmensen":752,"nem":753,"ocht":754,"Ġhou":755,"iden":756,"Ġsamen":757,"Ġpers":758,"ne":759,"are":760,"Ġbesch":761,"me":762,"oven":763,"Ġmoo":764,"Ġverk":765,"ĠSt":766,"Ġkw":767,"Ġkom":768,"Ġie":769,"ater":770,"Ġplaat":771,"geb":772,"ĠDit":773,"Ġged":774,"Ġdoen":775,"akk":776,"Ġ4":777,"ds":778,"Ġkrij":779,").":780,"vang":781,"zelf":782,"Ġ201":783,"Ġeven":784,"Ġou":785,"illen":786,"Ġwerd":787,"ger":788,"Ġverb":789,"Ġbez":790,"Ġden":791,"Ġ5":792,"iv":793,"pp":794,"gens":795,"Ġvin":796,"oep":797,"Ġdag":798,"euken":799,"Ġkomen":800,"Ġad":801,"ster":802,"ell":803,"Ġhad":804,"...":805,"ĠNederland":806,"ilm":807,"Ġlang":808,"Ġcon":809,"ragen":810,"Ġstaat":811,"Ġalleen":812,"eem":813,"bs":814,"Ġgel":815,"Ġbinnen":816,"iets":817,"io":818,"ess":819,"Ġzoe":820,"ron":821,"ĠDat":822,"Ġheel":823,"dig":824,"ders":825,"ult":826,"ank":827,"rijf":828,"Ġeerste":829,"ĠâĢľ":830,"ĠWe":831,"Ġzoals":832,"Ġbelang":833,"pt":834,"Ġch":835,"dien":836,"onden":837,"Ġko":838,"Ġhand":839,"beeld":840,"ĠJe":841,"maal":842,"ment":843,"In":844,"Ġor":845,"aad":846,"kom":847,"ert":848,"Ġinter":849,"Ġblij":850,"Ã©n":851,"Ġvrouwen":852,"Ġnatuur":853,"heden":854,"aties":855,"sc":856,"Ġhel":857,"Ġprodu":858,"ree":859,"aast":860,"ust":861,"ce":862,"Ġlaat":863,"Ġgrote":864,"itie":865,"Ġhuis":866,"ĠDaar":867,"Ġelk":868,"ijken":869,"Ġleven":870,"Ġvert":871,"Ġmoe":872,"Ġzit":873,"lijke":874,"ĠMaar":875,"Ġkomt":876,"kend":877,"lie":878,"oeg":879,"Ġverschillen":880,"Ġecht":881,"Ġvrij":882,"Ġaltijd":883,"Ġzw":884,"Ġmin":885,"ss":886,"ĠDeze":887,"Ġzien":888,"if":889,"cten":890,"Ġhele":891,"Ġsnel":892,"int":893,"eling":894,"Ġ19":895,"oof":896,"tal":897,"erg":898,"stand":899,"Ġerot":900,"Ġpr":901,"odig":902,"ling":903,"komen":904,"ied":905,"Ġtussen":906,"etten":907,"ow":908,"ens":909,"Ġzorg":910,"av":911,"ijdens":912,"Ġgroot":913,"Ġaut":914,"uro":915,"elt":916,"ĠOp":917,"dere":918,"amer":919,"ard":920,"ĠâĢĵ":921,"ellen":922,"rek":923,"anden":924,"gr":925,"door":926,"ĠAls":927,"ĠOn":928,"est":929,"Ġkinder":930,"ullen":931,"Ġverschillende":932,"Ġvia":933,"au":934,"erm":935,"ĠVoor":936,"Ġzij":937,"Ġterug":938,"Ġtra":939,"iss":940,"Ġ'":941,"unt":942,"ood":943,"Ġgele":944,"anis":945,"Ġgesch":946,"all":947,"âĢ¦":948,"Ġwebs":949,"zoek":950,"Ġmij":951,"Ġpri":952,"oede":953,"line":954,"zien":955,"no":956,"allen":957,"ool":958,"eb":959,"Ġmo":960,"eek":961,"ink":962,"wik":963,"formatie":964,"Ġmoeten":965,"kker":966,"ĠEr":967,"Ġbeste":968,"ade":969,"Ġcontact":970,"pro":971,"co":972,"Ġbelangrijk":973,"wel":974,"Ġzoekt":975,"20":976,"anneer":977,"ĠÃ©":978,"bl":979,"ĠOok":980,"ame":981,"Ġachter":982,"erv":983,"aart":984,"eft":985,"ation":986,"pe":987,"Ġiets":988,"Ġrecht":989,"ding":990,"Ġhoog":991,"iding":992,"Ġprob":993,"Ġlaten":994,"Ġneuken":995,"zicht":996,"Ġken":997,"enten":998,"Ġzonder":999,"eert":1000,"oten":1001,"Ġ6":1002,"ram":1003,"anten":1004,"ark":1005,"Ġverh":1006,"Ġhem":1007,"Ġtoch":1008,"orgen":1009,"Ġplaats":1010,"Ġfilm":1011,"Ġher":1012,"Ġvl":1013,"dag":1014,"iken":1015,"eerde":1016,"Ġverg":1017,"aliteit":1018,"Ġbuiten":1019,"ieden":1020,"ĠMet":1021,"ruk":1022,"mee":1023,"woord":1024,"Ġomdat":1025,"Ġnodig":1026,"ikt":1027,"Ġjouw":1028,"Ġbep":1029,"Ġruim":1030,"Ġeens":1031,"Al":1032,"assen":1033,"deel":1034,"ĠÃ©Ã©n":1035,"ill":1036,"ud":1037,"Ġpersoon":1038,"iel":1039,"Ġweg":1040,"Ġbedrijf":1041,"amp":1042,"Ġra":1043,"ieren":1044,"deren":1045,"Ġdeel":1046,"arm":1047,"Ġnet":1048,"gevens":1049,"nl":1050,"Ġlig":1051,"Ġgemaakt":1052,"tra":1053,"Ġopen":1054,"rijven":1055,"ĠZo":1056,"ost":1057,"Ġseks":1058,"oort":1059,"Ġinformatie":1060,"voorbeeld":1061,"Ġgoede":1062,"urg":1063,"Ġelkaar":1064,"Ġbev":1065,"over":1066,"Ġstee":1067,"ina":1068,"Ġsu":1069,"ex":1070,"Ġweten":1071,"Ġspec":1072,"Een":1073,"Ġhebt":1074,"ggen":1075,"ect":1076,"cl":1077,"Ġaantal":1078,"Ġuur":1079,"Ġder":1080,"Ġwereld":1081,"Ġart":1082,"Ġstaan":1083,"Ġgeven":1084,"plaat":1085,"Ġalles":1086,"Ġjon":1087,"ĠBe":1088,"Ġvinden":1089,"man":1090,"ĠVan":1091,"ook":1092,"ffen":1093,"bare":1094,"Ġzoek":1095,"uurt":1096,"iÃ«n":1097,"recht":1098,"onen":1099,"Ġerotische":1100,"mat":1101,"vangst":1102,"Ġact":1103,"ces":1104,"olle":1105,"ijf":1106,"Ġaange":1107,"ay":1108,"Ġorg":1109,"Ġontwik":1110,"oem":1111,"ire":1112,"Ġten":1113,"Ġverl":1114,"vl":1115,"Ġtijdens":1116,"Ġsteeds":1117,"Ġthuis":1118,"Ġwerken":1119,"Ġverz":1120,"Ġkinderen":1121,"Ġvolgen":1122,"rijs":1123,"ple":1124,"ĠZe":1125,"Ġmaakt":1126,"Ġgek":1127,"Ġdien":1128,"ari":1129,"Ġkut":1130,"anc":1131,"Ġpart":1132,"Ġvaak":1133,"nis":1134,"staan":1135,"oeken":1136,"Ġonline":1137,"Ġlu":1138,"Ġgeh":1139,"Ik":1140,"Ġieder":1141,"Ġvak":1142,"ĠBij":1143,"oot":1144,"ĠAn":1145,"igheid":1146,"ĠVer":1147,"ieke":1148,"),":1149,"'s":1150,"Ġwebsite":1151,"Ġbent":1152,"omm":1153,"qu":1154,"Ġ10":1155,"emen":1156,"Ġerv":1157,"Ġple":1158,"ile":1159,"midd":1160,"Ġfot":1161,"Ġgeld":1162,"ett":1163,"Ġ\"":1164,"Ġ7":1165,"Ġvorm":1166,"Ġverder":1167,"ichting":1168,"waar":1169,"tu":1170,"Ġwillen":1171,"Ġlekker":1172,"alis":1173,"aken":1174,"ĠHier":1175,"Ġgraag":1176,"ĠCh":1177,"oofd":1178,"cent":1179,"Ġrij":1180,"ef":1181,"Ġbijvoorbeeld":1182,"Ġland":1183,"ject":1184,"ob":1185,"Ã¯":1186,"Ġmooie":1187,"eil":1188,"aas":1189,"Ġjij":1190,"Ġboven":1191,"Ġerg":1192,"ĠHij":1193,"ure":1194,"Ġzeker":1195,"achten":1196,"Ġ8":1197,"Ġzeer":1198,"ader":1199,"Ġkeer":1200,"Ġjaren":1201,"Ġber":1202,"chn":1203,"Ġverm":1204,"Ġverw":1205,"Ġpre":1206,"iging":1207,"ĠWij":1208,"scort":1209,"Ġmag":1210,"weg":1211,"Ġreg":1212,"ees":1213,"urs":1214,"ĠSp":1215,"Ġwater":1216,"antie":1217,"veel":1218,"Ġmis":1219,"Ġgl":1220,"Ġdire":1221,"Ġminder":1222,"arkt":1223,"Ġmaat":1224,"Ġvast":1225,"raag":1226,"Ġger":1227,"end":1228,"vers":1229,"na":1230,"oeren":1231,"iaal":1232,"Ġpor":1233,"Ġwaren":1234,"Ġvolle":1235,"Ġmanier":1236,"Ġmooi":1237,"houden":1238,"king":1239,"Ġorganis":1240,"rie":1241,"oos":1242,"igd":1243,"Ġrond":1244,"Ġwin":1245,"stelling":1246,"Ġkrijgen":1247,"Ġvragen":1248,"Ġvraag":1249,"Ġbere":1250,"Ġac":1251,"Ġsle":1252,"Ġlever":1253,"uin":1254,"gaan":1255,"Ġstr":1256,"aring":1257,"ach":1258,"Ġmeest":1259,"ive":1260,"Ġnatuurlijk":1261,"burg":1262,"Ġoor":1263,"zaam":1264,"oning":1265,"ĠSch":1266,"Ġbas":1267,"iend":1268,"doen":1269,"mand":1270,"hand":1271,"iz":1272,"Ġbesl":1273,"Ġaanb":1274,"Ġâ":1275,"Ġhouden":1276,"Ġapp":1277,"Ġmil":1278,"akkelijk":1279,"Ġnemen":1280,"Ġwant":1281,"Ġwelke":1282,"Ġgebruikt":1283,"zonder":1284,"voer":1285,"Ġbew":1286,"eken":1287,"Ġ200":1288,"Ġprive":1289,"ieten":1290,"Ġverd":1291,"Ġgesp":1292,"ans":1293,"les":1294,"gd":1295,"geving":1296,"elden":1297,"Ġthe":1298,"Ġopt":1299,"ice":1300,"Ġvind":1301,"etje":1302,"Ġpol":1303,"mm":1304,"Ġweet":1305,"Ġmed":1306,"rag":1307,"gem":1308,"zij":1309,"und":1310,"Ġzullen":1311,"Ġmom":1312,"Ġregel":1313,"Ġescort":1314,"zelfde":1315,"bed":1316,"Ġboek":1317,"uz":1318,"gele":1319,"Ġide":1320,"Ġgeeft":1321,"Ġzodat":1322,"ail":1323,"zet":1324,"Ġres":1325,"mst":1326,"raak":1327,"yst":1328,"Ġgewoon":1329,"Ġbren":1330,"Ġdrie":1331,"Ġgere":1332,"Ġgebruiken":1333,"Ġhuid":1334,"Ġadv":1335,"Ġbr":1336,"Ġproble":1337,"Ĥ¬":1338,"oss":1339,"olog":1340,"gang":1341,"Ġkijken":1342,"Ġprof":1343,"erdam":1344,"reken":1345,"Ġ9":1346,"Ġhoofd":1347,"aald":1348,"kl":1349,"Als":1350,"con":1351,"Ġlicht":1352,"Ġkn":1353,"Ġwanneer":1354,"Ġbeter":1355,"Ġheer":1356,"eter":1357,"one":1358,"Ġbuurt":1359,"msterdam":1360,"Ġeind":1361,"Ġ0":1362,"Ġextra":1363,"oud":1364,"bo":1365,"str":1366,"amelijk":1367,"Ġtoen":1368,"ord":1369,"komst":1370,"Ġ&":1371,"Ġsm":1372,"Ġdating":1373,"Ġauto":1374,"eur":1375,"ĠOm":1376,"Ġlaatste":1377,"Ġartik":1378,"Ġbasis":1379,"Ġvooral":1380,"Ġ18":1381,"ijnen":1382,"houd":1383,"Ġzelfs":1384,"Ġanders":1385,"Ġonderzoek":1386,"akken":1387,"itu":1388,"Ġget":1389,"Ġfoto":1390,"Ġjul":1391,"bin":1392,"Ġstad":1393,"Ġste":1394,"ĠDoor":1395,"Ġmidd":1396,"gest":1397,"ulp":1398,"ha":1399,"Ġwilt":1400,"uist":1401,"ler":1402,"Ġelke":1403,"Ġkleine":1404,"Ġinst":1405,"Op":1406,"ins":1407,"stellen":1408,"oge":1409,"ĠDan":1410,"Ġtele":1411,"naast":1412,"Ġim":1413,"oms":1414,"Ġstuk":1415,"Ġblijven":1416,"Ġopl":1417,"gram":1418,"bouw":1419,"Ġmede":1420,"Ġveil":1421,"iale":1422,"sche":1423,"Ġgest":1424,"Ġdagen":1425,"Ġmoment":1426,"Ġbeschik":1427,"app":1428,"Ġweek":1429,"ĠâĤ¬":1430,"wijs":1431,"ĠWat":1432,"reven":1433,"arte":1434,"net":1435,"annen":1436,"ĠGe":1437,"rit":1438,"Ġgemeen":1439,"ode":1440,"ange":1441,"ner":1442,"000":1443,"ga":1444,"antwoord":1445,"ĠLe":1446,"Ġ[":1447,"ib":1448,"ĠEuro":1449,"ras":1450,"Ġzon":1451,"ogen":1452,"com":1453,"Ġkwaliteit":1454,"Ġvindt":1455,"Ġbehand":1456,"dracht":1457,"Ġdirect":1458,"iviteit":1459,"Ġjou":1460,"Ġ15":1461,"Ġslecht":1462,"kele":1463,"Ġkie":1464,"lingen":1465,"Ġ12":1466,"Ġvanaf":1467,"her":1468,"Ġaanv":1469,"vest":1470,"oorden":1471,"Ġpaar":1472,"agina":1473,"Ġtre":1474,"ium":1475,"Ġzorgen":1476,"ate":1477,"Ġcl":1478,"Ġrel":1479,"Ġbouw":1480,"ooit":1481,"raf":1482,"Ġhelemaal":1483,"Ġkon":1484,"slag":1485,"ysteem":1486,"nieuw":1487,"ï¼":1488,"ĠGr":1489,".âĢĿ":1490,"eest":1491,"rum":1492,"Ġlief":1493,"kende":1494,"ijkt":1495,"werking":1496,"Ġkrijgt":1497,"Ġkosten":1498,"Ġgeval":1499,"red":1500,"rot":1501,"Ġdoel":1502,"pa":1503,"Ġgebe":1504,"Ġgegevens":1505,"Ġbek":1506,"Ġeff":1507,"Ġzie":1508,"Ġele":1509,"aanse":1510,"Ġproducten":1511,"hop":1512,"Ġfun":1513,"Ġhelpen":1514,"ys":1515,"isten":1516,"Ġklein":1517,"Ġvolgende":1518,"Ġspeel":1519,"ĠBel":1520,"Ġun":1521,"get":1522,"Ġduid":1523,"aling":1524,"oelen":1525,"ergie":1526,"alt":1527,"ving":1528,"Ġdoet":1529,"Ġontwikkel":1530,"ek":1531,"atief":1532,"entie":1533,"Ġligt":1534,"aalde":1535,"Ġzitten":1536,"oef":1537,"mb":1538,"Ġpracht":1539,"Ġwaardoor":1540,"Ġvier":1541,"Ġallemaal":1542,"angen":1543,"pr":1544,"ial":1545,"Ġporno":1546,"Ġbeteken":1547,"aden":1548,"schien":1549,"Ġkop":1550,"Ġiedereen":1551,"Ġtechn":1552,"Ġprijs":1553,"Ġgroe":1554,"Ġcolle":1555,"Ġind":1556,"Ġduur":1557,"tje":1558,"Ġklaar":1559,"vangen":1560,"ruik":1561,"sk":1562,"Ġleuk":1563,"Ġenkele":1564,"ï¼ļ":1565,"spraak":1566,"Ġga":1567,"vert":1568,"our":1569,"Ġechter":1570,"Ġkennis":1571,"Ġ,":1572,"zeker":1573,"Ġkant":1574,"inds":1575,"sb":1576,"euze":1577,"Ã«n":1578,"Ġwaarin":1579,"erie":1580,"ress":1581,"Ġcomp":1582,"Ġvoorzien":1583,"Ġvide":1584,"Ġfl":1585,"Ġleer":1586,"iedt":1587,"rakt":1588,"ĠMar":1589,"ĠHoe":1590,"Ġnooit":1591,"ĠAr":1592,"Voor":1593,"Ġeuro":1594,"Ġgrond":1595,"Ġuitge":1596,"Ġcor":1597,"schapp":1598,"sel":1599,"uizen":1600,"Ġmaand":1601,"uiste":1602,"delen":1603,"Ġwerkt":1604,"Ġruimte":1605,"gramma":1606,"Ġan":1607,"ĠPro":1608,"Ġchat":1609,"aakte":1610,"Ġinge":1611,"Ġopge":1612,"Ġverander":1613,"leiding":1614,"iÃ«le":1615,"Ġkleur":1616,"Ġeerst":1617,"elde":1618,"Ġstand":1619,"ĠRe":1620,"room":1621,"ummer":1622,"pakk":1623,"Ġblijft":1624,"date":1625,"Ġstap":1626,"nemers":1627,"Ġjuiste":1628,"wijl":1629,"ubl":1630,"Ġgehe":1631,"kamer":1632,"Ġnamelijk":1633,"Ġsterk":1634,"Ġwerden":1635,"rik":1636,"aire":1637,"ign":1638,"dam":1639,"Ġzowel":1640,"Ġafge":1641,"Ġbekend":1642,"Ġbieden":1643,"Ġwaarbij":1644,"Ġrest":1645,"amil":1646,"Ġkeuze":1647,"ute":1648,"Ġoude":1649,"Ġkind":1650,"Ġtweede":1651,"Ġcent":1652,"ack":1653,"Ġlich":1654,"ĠFran":1655,"Ġreken":1656,"ids":1657,"werp":1658,"Ġschool":1659,"Ġmeis":1660,"ichten":1661,"ris":1662,"Ġproduct":1663,"Ġartikel":1664,"We":1665,"oopt":1666,"Ġgroep":1667,"pass":1668,"Ġontvangst":1669,"val":1670,"On":1671,"Ġfin":1672,"oden":1673,"Ġeenv":1674,"met":1675,"Ġtop":1676,"out":1677,"mber":1678,"Ġbiedt":1679,"Ġnaam":1680,"Ġneem":1681,"air":1682,"Ġteam":1683,"up":1684,"Ġbijzonder":1685,"ervice":1686,"Ġav":1687,"bel":1688,"leg":1689,"aars":1690,"ames":1691,"verse":1692,"ijna":1693,"Ġrol":1694,"reg":1695,"urt":1696,"Ġiemand":1697,"rouwen":1698,"Ġvanuit":1699,"Deze":1700,"ĠBl":1701,"Ġleu":1702,"Ġkwam":1703,"rokken":1704,"ijen":1705,"Ġgeile":1706,"reden":1707,"daag":1708,"ĠWil":1709,"19":1710,"ĠNa":1711,"Ġmod":1712,"Ġgevol":1713,"inig":1714,"Ġbele":1715,"Ġbre":1716,"atieve":1717,"Ġ/":1718,"Ġoff":1719,"Ġsoc":1720,"Ġcre":1721,"Ġvoet":1722,"ĠSex":1723,"mp":1724,"Ġvriend":1725,"clus":1726,"Ġmater":1727,"etail":1728,"min":1729,"Ġresult":1730,"veren":1731,"ĠAlle":1732,"ets":1733,"Ġhen":1734,"vin":1735,"Ġvers":1736,"rijd":1737,"Ġduidelijk":1738,"Ġbezoek":1739,"werken":1740,"Ġjullie":1741,"Ġwie":1742,"erde":1743,"Ġbrengen":1744,"Ġtelef":1745,"ĠOf":1746,"ong":1747,"Ġniets":1748,"Ġtrain":1749,"Ġzorgt":1750,"Ã¯n":1751,"ĠNederlandse":1752,"osten":1753,"goed":1754,"Ġtuin":1755,"Ġgebied":1756,"Ġvoldoen":1757,"ific":1758,"Ġgemeente":1759,"Ġmarkt":1760,"Ġrust":1761,"ax":1762,"ick":1763,"Ġvele":1764,"erecht":1765,"ĠDie":1766,"Ġverwij":1767,"ente":1768,"ĠY":1769,"ijl":1770,"dacht":1771,"50":1772,"Ġzeggen":1773,"Ġervoor":1774,"Ġint":1775,"genomen":1776,"Ġenergie":1777,"rol":1778,"elingen":1779,"Ġervaring":1780,"ucht":1781,"Ġcombin":1782,"Ġdik":1783,"ck":1784,"Ġsc":1785,"Ġspelen":1786,"Ġzetten":1787,"Ġdaarom":1788,"Ġkort":1789,"Ġ.":1790,"ov":1791,"yn":1792,"orte":1793,"Ġomgeving":1794,"Ġmuz":1795,"orden":1796,"enen":1797,"Ġpat":1798,"Ġverst":1799,"mers":1800,"ession":1801,"olen":1802,"Ġbestaat":1803,"Ġprakt":1804,"olland":1805,"orp":1806,"spro":1807,"Ġ30":1808,"az":1809,"gelopen":1810,"onde":1811,"leden":1812,"kelijk":1813,"Ġ100":1814,"nemen":1815,"ator":1816,"ering":1817,"uten":1818,"pte":1819,"Ġklanten":1820,"Ġvolgens":1821,"Ġonderste":1822,"Ġ16":1823,"Je":1824,"ontvangst":1825,"ijst":1826,"Ġkiezen":1827,"Ġstellen":1828,"oudig":1829,"Ġzoeken":1830,"Ġlichaam":1831,"Ġbestaan":1832,"ĠTe":1833,"volgens":1834,"Ġging":1835,"ante":1836,"ites":1837,"Bij":1838,"Ġwoning":1839,"21":1840,"ĠDaarnaast":1841,"Ġspel":1842,"cept":1843,"Ġmaan":1844,"aaf":1845,"erende":1846,"Ġbijna":1847,"Ġlucht":1848,"Ġdruk":1849,"terdam":1850,"Ġkracht":1851,"och":1852,"Ġker":1853,"iger":1854,"Ġdiverse":1855,"Ġsite":1856,"Ġbro":1857,"Ġgedaan":1858,"ister":1859,"ankelijk":1860,"hem":1861,"imaal":1862,"Ġblijk":1863,"Ġzom":1864,"Ġfamil":1865,"wez":1866,"Ġgezond":1867,"Ġvolledig":1868,"ĠAmsterdam":1869,"omst":1870,"Ġpas":1871,"Ġtran":1872,"Ġloc":1873,"ĠDen":1874,"its":1875,"ĠPl":1876,"Ġvor":1877,"Ġbetre":1878,"iode":1879,"Ġwit":1880,"ĠEl":1881,"Ġverv":1882,"Ġ14":1883,"Ġeigenlijk":1884,"Ġne":1885,"Ġhadden":1886,"Ġziet":1887,"ĠGro":1888,"Ġmot":1889,"Ġzegt":1890,"10":1891,"Ġkunst":1892,"Ġdenken":1893,"unten":1894,"Ġeten":1895,"Ġplek":1896,"Ġwoon":1897,"Ġvis":1898,"Ġbedrijven":1899,"Ġopdracht":1900,"Ġstu":1901,"oft":1902,"gegevens":1903,"Ġhart":1904,"Ġhard":1905,"Ġperf":1906,"Ġ|":1907,"Ġtek":1908,"âĢĻ.":1909,"Ġbeetje":1910,"Dit":1911,"Ġ17":1912,"Ġpos":1913,"orie":1914,"Ġfijn":1915,"Ġgevoel":1916,"Ġwand":1917,"Ġvideo":1918,"Ġkre":1919,"Ġjong":1920,"Ġi":1921,"plaats":1922,"Ġplaatsen":1923,"Ġvoed":1924,"Ġgeschikt":1925,"Ġnl":1926,"ateg":1927,"Ġdes":1928,"Ġkans":1929,"isc":1930,"ieve":1931,"ico":1932,"ry":1933,"Met":1934,"weest":1935,"Ġmisschien":1936,"Ġdec":1937,"Ġlast":1938,"ER":1939,"oll":1940,"att":1941,"ons":1942,"Ġidee":1943,"Ġgenoeg":1944,"cont":1945,"Ġleren":1946,"Ġvoel":1947,"uele":1948,"auw":1949,"Ġhoge":1950,"Ġï¼ļ":1951,"Ġhal":1952,"Ġongev":1953,"ww":1954,"Ġlater":1955,"Ġverhaal":1956,"Ġcomm":1957,"atten":1958,"Ã¨":1959,"Ġlijkt":1960,"Ġoploss":1961,"aap":1962,"Ġgeweest":1963,"Ġleuke":1964,"ome":1965,"Ġsoort":1966,"Ã³":1967,"Ġsport":1968,"Ġlid":1969,"oerd":1970,"werpen":1971,"30":1972,"Ġsoms":1973,"aur":1974,"Ġvakantie":1975,"Ġklant":1976,"Ġgelijk":1977,"ratie":1978,"Ġweinig":1979,"inn":1980,"ruct":1981,"ĠKl":1982,"Ġmaanden":1983,"igheden":1984,"Ġant":1985,"Er":1986,"Ġterwijl":1987,"ĠVol":1988,"Ġvoort":1989,"Ġaandacht":1990,"Ġdingen":1991,"igh":1992,"aalt":1993,"Ġuiter":1994,"ese":1995,"inde":1996,"oom":1997,"imburg":1998,"ĠUit":1999,"Ġlangs":2000,"Ġmeeste":2001,"Ġpriv":2002,"ase":2003,"mail":2004,"ise":2005,"Ġgep":2006,"eenkomst":2007,"Ġco":2008,"Ġreden":2009,"Ġverpakk":2010,"Ġhulp":2011,"Ġmilj":2012,"cces":2013,"ips":2014,"Ġtoek":2015,"Ġeenvoudig":2016,"ore":2017,"lei":2018,"euw":2019,"Ġmogelijkheden":2020,"verd":2021,"Ġvoorkomen":2022,"Ġenige":2023,"dst":2024,"Ġdienst":2025,"Ġbru":2026,"Ġmakkelijk":2027,"Ġhoogte":2028,"icatie":2029,"gesteld":2030,"zak":2031,"dige":2032,"Ġwen":2033,"Ġaanwez":2034,"ĠThe":2035,"che":2036,"ara":2037,"Ġstart":2038,"Ġlange":2039,"Ġmannen":2040,"abel":2041,"sloten":2042,"elijks":2043,"Ġfe":2044,"ix":2045,"Ġ50":2046,"pjes":2047,"matig":2048,"Ġorganisatie":2049,"Ġweken":2050,"Ġmeerdere":2051,"ĠBelg":2052,"Ġzat":2053,"Ġjuist":2054,"rekken":2055,"Ġelekt":2056,"EN":2057,"Ġwarm":2058,"Ġbeeld":2059,"koop":2060,"sland":2061,"sex":2062,"Ġontwikk":2063,"Ġfinanc":2064,"rift":2065,"Ġet":2066,"Ġuitgeb":2067,"Ġbetekent":2068,"ts":2069,"Ġpagina":2070,"Ġproject":2071,"aris":2072,"uil":2073,"oorten":2074,"Ġsuper":2075,"ilijk":2076,"Ġdetail":2077,"Ġbeschikbaar":2078,"iÃ«nten":2079,"oemen":2080,"Ġbegin":2081,"Ġgebouw":2082,"derd":2083,"Ġinsp":2084,"Ġprofession":2085,"otel":2086,"vis":2087,"Ġmens":2088,"Ġ...":2089,"yp":2090,"Ġmedewerk":2091,"zorg":2092,"Ġdicht":2093,"nemer":2094,"off":2095,"ĠVl":2096,"Ġsitu":2097,"Ġkopen":2098,"aut":2099,"film":2100,"Ġeerder":2101,"Ġweb":2102,"afel":2103,"Ġprachtige":2104,"Ġtoepass":2105,"Ġpar":2106,"Ġpop":2107,"Ġble":2108,"Ġinf":2109,"Ġaller":2110,"waard":2111,"sy":2112,"br":2113,"Ġlos":2114,"keur":2115,"Ġprobleem":2116,"Ġtoekomst":2117,"Ġschoon":2118,"Ġtien":2119,"Ġactiviteit":2120,"aste":2121,"ging":2122,"ĠIs":2123,"âĢľ":2124,"Ġmiddel":2125,"Ġbesp":2126,"Wij":2127,"Ġslechts":2128,"Ġdro":2129,"Ġmoeilijk":2130,"ologie":2131,"Ġminuten":2132,"Ġ11":2133,"ph":2134,"Ġmogen":2135,"ĠOnder":2136,"onnen":2137,"Ġsucces":2138,"cies":2139,"sm":2140,"Ġlopen":2141,"Ġoud":2142,"Ġ25":2143,"Ġsh":2144,"Ġonge":2145,"cte":2146,"idden":2147,"ukk":2148,"stellingen":2149,"Ġtelefoon":2150,"punt":2151,"Ġpassen":2152,"zetten":2153,"merik":2154,"Ġverpakking":2155,"Ġpij":2156,"Ġdenk":2157,"Ġvergelijk":2158,"Ġmuziek":2159,"Ġ2020":2160,"Ġnorm":2161,"Ġ:":2162,"pel":2163,"Ġcons":2164,"Ġlezen":2165,"spron":2166,"Ġvandaag":2167,"vens":2168,"Ġx":2169,"Ġpast":2170,"ĠDuit":2171,"ĠAf":2172,"kk":2173,"Ġzaken":2174,"sh":2175,"Ġrekening":2176,"Ġbor":2177,"ĠZij":2178,"ian":2179,"oenen":2180,"mming":2181,"Ġterecht":2182,"Ġgar":2183,"Ġwaarde":2184,"actie":2185,"lo":2186,"ĠAan":2187,"rab":2188,"menten":2189,"Ġap":2190,"ĠÂ":2191,"Ġavond":2192,"merk":2193,"eed":2194,"anu":2195,"Ġpolitie":2196,"ction":2197,"ĠNieuw":2198,"kle":2199,"kant":2200,"Ġzoveel":2201,"Ġbi":2202,"vel":2203,"Ġbepaalde":2204,"Ġgemakkelijk":2205,"itt":2206,"Ġreis":2207,"ĠOver":2208,"Ġliggen":2209,"schappen":2210,"Ġverantwoord":2211,"Ġenorm":2212,"Ġ24":2213,"gels":2214,"Ġgezien":2215,"Ġafgelopen":2216,"Ġoog":2217,"Ġmax":2218,"Ġpark":2219,"Ġmerk":2220,"Ġgelegen":2221,"uld":2222,"oepen":2223,"Ġongeveer":2224,"Ġnaast":2225,"Ġdezelfde":2226,"ĠGod":2227,"trecht":2228,"ijs":2229,"log":2230,"Ġsinds":2231,"Ġzak":2232,"waarden":2233,"Ġonbe":2234,"ype":2235,"ino":2236,"won":2237,"Ġgeleden":2238,"iep":2239,"fin":2240,"ĠLees":2241,"ruim":2242,"Ġsy":2243,"kop":2244,"Ġhoudt":2245,"sluit":2246,"St":2247,"ident":2248,"stof":2249,"dan":2250,"staande":2251,"Ġneg":2252,"ationale":2253,"Ġlok":2254,"igit":2255,"ulier":2256,"asting":2257,"oh":2258,"rist":2259,"Ġdelen":2260,"ĠgeÃ¯n":2261,"Ġkeuken":2262,"Ġzouden":2263,"Ġontvangen":2264,"oemd":2265,"Ġacc":2266,"Ġnederland":2267,"dr":2268,"gever":2269,"En":2270,"Ġcm":2271,"Ġmoest":2272,"bal":2273,"Ġgeweld":2274,"Ġpubl":2275,"pers":2276,"ĠGratis":2277,"jaar":2278,"Ġgra":2279,"Ġwinkel":2280,"rijzen":2281,"indelijk":2282,"spra":2283,"achte":2284,"Ġstem":2285,"ĠWaar":2286,"Ġwet":2287,"ager":2288,"Ġgeheel":2289,"igde":2290,"fort":2291,"ity":2292,"Ġnood":2293,"Ġgrootste":2294,"Ġbestuur":2295,"heids":2296,"ove":2297,"itter":2298,"Ġ13":2299,"wege":2300,"ument":2301,"Ġgenieten":2302,"Ġbekijken":2303,"asten":2304,"Ġontde":2305,"Ġechte":2306,"Ġvijf":2307,"Ġprogramma":2308,"Ġth":2309,"Ġob":2310,"Ġform":2311,"Ġgroter":2312,"Ġris":2313,"th":2314,"hankelijk":2315,"Ġhog":2316,"mot":2317,"ommige":2318,"iele":2319,"Ġadvies":2320,"lex":2321,"Ġadvert":2322,"ody":2323,"stuk":2324,"Ġkleuren":2325,"volle":2326,"vorm":2327,"ctor":2328,"Ġpersoonlijke":2329,"Ġred":2330,"Ġontvang":2331,"Ġfamilie":2332,"uss":2333,"Ġperiode":2334,"Ġproblemen":2335,"schijn":2336,"Om":2337,"Ġnat":2338,"ĠX":2339,"handel":2340,"Ġheerlijk":2341,"Ġbetalen":2342,"Ġaard":2343,"lem":2344,"Ġouders":2345,"Ġzin":2346,"Ġeeuw":2347,"rip":2348,"ette":2349,"Ġondersteun":2350,"opt":2351,"plicht":2352,"wijk":2353,"iveau":2354,"role":2355,"ÂŃ":2356,"ue":2357,"use":2358,"ober":2359,"ene":2360,"Ġvervolgens":2361,"hal":2362,"werkt":2363,"Ġbegele":2364,"Ġbezig":2365,"erend":2366,"eeuw":2367,"oit":2368,"Ġafspraak":2369,"chten":2370,"Ġhoeveel":2371,"ukkig":2372,"ĠUn":2373,"ule":2374,"iment":2375,"Ġbad":2376,"ĠEurop":2377,"ende":2378,"Ġblijkt":2379,"Ġleeft":2380,"Ġbal":2381,"Ġfeit":2382,"resent":2383,"iers":2384,"gemeen":2385,"Ġcomple":2386,"Wat":2387,"gericht":2388,"Ġneemt":2389,"Ġfeest":2390,"Ġprecies":2391,"Ġconc":2392,"anuari":2393,"iÃ«nt":2394,"Ġgezocht":2395,"port":2396,"veil":2397,"Ġadres":2398,"Van":2399,"vent":2400,"Ġjezelf":2401,"Ġdo":2402,"Ġmeter":2403,"elijkheid":2404,"Ġbescherm":2405,"Ġcoron":2406,"Ġpersonen":2407,"Ġinternet":2408,"Ġmoeder":2409,"Ġeffect":2410,"ath":2411,"jecten":2412,"gevoerd":2413,"zer":2414,"ivers":2415,"Ġgegeven":2416,"Ġservice":2417,"Ġuitgebre":2418,"Ġfil":2419,"ĠMe":2420,"regelen":2421,"oppen":2422,"Ġtoege":2423,"Ġplan":2424,"Ġhetzelfde":2425,"Ġkrijg":2426,"offen":2427,"middels":2428,"izoen":2429,"Ġwaarom":2430,"tjes":2431,"Ġwaarmee":2432,"ware":2433,"Ġmeteen":2434,"Ġlaag":2435,"tern":2436,"Ġoorspron":2437,"Ġbeginnen":2438,"Ġles":2439,"Ġenkel":2440,"Ġhoeft":2441,".âĢĻ":2442,"inden":2443,"Ġzee":2444,"Ġdraa":2445,"Ġcommun":2446,"tre":2447,"Ġsexdate":2448,"Ġjanuari":2449,"Ġvre":2450,"Ġproces":2451,"ieu":2452,"kelijke":2453,"ĠNiet":2454,"Ġanderen":2455,"vie":2456,"wor":2457,"organis":2458,"Ġiedere":2459,"Ġbehandeling":2460,"issie":2461,"Ġopnieuw":2462,"Ġlanger":2463,"mak":2464,"12":2465,"licht":2466,"Ġnacht":2467,"ain":2468,"ĠOnze":2469,"schrij":2470,"Ġwaarop":2471,"deeld":2472,"Ġkru":2473,"herap":2474,"feer":2475,"Ġuitv":2476,"ima":2477,"ssel":2478,"Ġwee":2479,"del":2480,"Ġsub":2481,"grond":2482,"beh":2483,"Ġdoe":2484,"Ġloop":2485,"Ġontwikkeling":2486,"Ġsysteem":2487,"Ġhanden":2488,"Ġfilms":2489,"Ġbelangrijke":2490,"Ġvoldoende":2491,"vrij":2492,"Ġheen":2493,"Ġjonge":2494,"ĠAmerik":2495,"Ġwedst":2496,"ning":2497,"Ġuitvoer":2498,"Ġbetrokken":2499,"Ġrot":2500,"maken":2501,"markt":2502,"bet":2503,"Ġstud":2504,"tes":2505,"reek":2506,"ĠWanneer":2507,"Ġnad":2508,"Ġschade":2509,"conom":2510,"fl":2511,"Ġlimburg":2512,"Ġamb":2513,"Ġkorte":2514,"Ġkaart":2515,"âĢĻ,":2516,"Ġverwacht":2517,"ete":2518,"Ġkoff":2519,"Ġass":2520,"groep":2521,"mper":2522,"Ġbrand":2523,"Ġkijk":2524,"Ġhalen":2525,"berg":2526,"Ã¶":2527,"ring":2528,"18":2529,"rak":2530,"richt":2531,"Ġverzeker":2532,"erken":2533,"Ġhuidige":2534,"Ġboeken":2535,"Ġuite":2536,"Ġcam":2537,"avond":2538,"sluiten":2539,"Ġdoc":2540,"oegen":2541,"Ġvalt":2542,"uni":2543,"Ġdikke":2544,"Ġlog":2545,"Ġregio":2546,"uim":2547,"anger":2548,"!!":2549,"ĠâĢ¦":2550,"Ġfiets":2551,"Ġvond":2552,"Ġwilde":2553,"ĠCl":2554,"Ġacht":2555,"Ġbeide":2556,"Ġslag":2557,"Ġziek":2558,"iter":2559,"Ġcult":2560,"raad":2561,"Ġkreeg":2562,"Ġdon":2563,"staat":2564,"Ġactiviteiten":2565,"Ġschil":2566,"Ġmaart":2567,"Ġdigit":2568,"Ġautom":2569,"anning":2570,"enties":2571,"Ġcombinatie":2572,"plaatst":2573,"Ġmedewerkers":2574,"Ġactie":2575,"Ġogen":2576,"gelijk":2577,"ps":2578,"Ġindien":2579,"zing":2580,"ica":2581,"Ġmob":2582,"anen":2583,"amers":2584,"Ġoverzicht":2585,"Ġdank":2586,"tt":2587,"ines":2588,"ijven":2589,"Ġgezell":2590,"Ġafstand":2591,"ox":2592,"âĢĿ,":2593,"bedrijf":2594,"Ġtoepassing":2595,"Ġintern":2596,"Ġwijze":2597,"sgegevens":2598,"Ġdames":2599,"mijn":2600,"Ġliefde":2601,"Ġarbe":2602,"leven":2603,"Dat":2604,"Ġpraktijk":2605,"clusief":2606,"Ġmogelijkheid":2607,"ĠWel":2608,"ah":2609,"produ":2610,"Ġrec":2611,"ozen":2612,"Ġsche":2613,"Ġvlie":2614,"Ġslaap":2615,"Ġvle":2616,"rus":2617,"Ġrisico":2618,"middel":2619,"omp":2620,"ĠDaarom":2621,"Ġleden":2622,"Ġgang":2623,"win":2624,"Ġgeworden":2625,"Ġsituatie":2626,"ĠAd":2627,"Ġperson":2628,"Ġserie":2629,"Ġwoord":2630,"ikken":2631,"ition":2632,"Ġsamenwerking":2633,"slagen":2634,"maat":2635,"ĠBen":2636,"aurant":2637,"oningen":2638,"zame":2639,"Ġgeldt":2640,"Ġeventu":2641,"Ġmeisjes":2642,"wegen":2643,"ienden":2644,"Ġnieuws":2645,"Ġmoder":2646,"vrouw":2647,"Ġteken":2648,"Ġstuden":2649,"ĠBr":2650,"Ġ2019":2651,"aby":2652,"ooi":2653,"Ġvolledige":2654,"aarde":2655,"ĠNu":2656,"Ġdaarna":2657,"Ġvormen":2658,"Ġveiligheid":2659,"Ġhoor":2660,"ioen":2661,"Ġsoorten":2662,"vloed":2663,"ieken":2664,"aus":2665,"schijnlijk":2666,"par":2667,"wassen":2668,"Ġderde":2669,"Ġoplossing":2670,"cam":2671,"Ġfor":2672,"jar":2673,"Ġdak":2674,"uldig":2675,"etjes":2676,"Ġwaarvan":2677,"Ġtotaal":2678,"ities":2679,"Ġmooiste":2680,"bere":2681,"Ġdate":2682,"Ġlocatie":2683,"Ġzet":2684,"aand":2685,"erdag":2686,"boek":2687,"rein":2688,"Ġaanwezig":2689,"ĠMijn":2690,"ĠBru":2691,"Ġpopul":2692,"ptember":2693,"dem":2694,"Ġdaarbij":2695,"Ġdru":2696,"Ġverzam":2697,"zijn":2698,"oemde":2699,"dra":2700,"Ġspecif":2701,"Ġ40":2702,"Ġzicht":2703,"Ġonderwijs":2704,"igingen":2705,"Ġnauw":2706,"ograf":2707,"Ġaanp":2708,"ĠÃ©n":2709,"ĠTh":2710,"oeld":2711,"Ġmon":2712,"komt":2713,"ĠZw":2714,"moet":2715,"Ġcas":2716,"ĠQ":2717,"Ġthuisontvangst":2718,"Ġy":2719,"druk":2720,"Ġdiensten":2721,"ember":2722,"urk":2723,"Ġzichzelf":2724,"Ġpijn":2725,"chine":2726,"Ġmedia":2727,"sych":2728,"Ġkost":2729,"AN":2730,"ĠRot":2731,"bele":2732,"Ook":2733,"Ġvoer":2734,"Ġprijzen":2735,"ectie":2736,"Ġbloed":2737,"Ġdient":2738,"ĠHe":2739,"Ġopv":2740,"Ġaangeb":2741,"Ġwijn":2742,"Ġcomfort":2743,"Ġgevallen":2744,"Ġdieren":2745,"ĠDus":2746,"izen":2747,"straat":2748,"Ġpap":2749,"15":2750,"Ġexper":2751,"Ġbegint":2752,"Ġ199":2753,"Ġwerkzaam":2754,"Ġleveren":2755,"Ġfab":2756,"pport":2757,"Ġhar":2758,"Ġgehad":2759,"stemming":2760,"arket":2761,"Ġappar":2762,"Ġrelatie":2763,"eens":2764,"Ġpositie":2765,"oper":2766,"zier":2767,"ondag":2768,"view":2769,"zel":2770,"igt":2771,"Ġmat":2772,"ureau":2773,"loop":2774,"Ġprocent":2775,"uter":2776,"Ġeinde":2777,"ĠEx":2778,"Ġresultaat":2779,"Ġregelmatig":2780,"Ġbody":2781,"Na":2782,"wezen":2783,"verb":2784,"gemen":2785,"zo":2786,"Ġ2018":2787,"Ġmail":2788,"ĠNoord":2789,"Ġonderdeel":2790,"Ġbedrijfs":2791,"Ġverbet":2792,"Ġmaak":2793,"Wil":2794,"Ġving":2795,"ĠZijn":2796,"Ã¼":2797,"xe":2798,"Ġmeisje":2799,"uik":2800,"Ġelektr":2801,"Ġseptember":2802,"weer":2803,"Ġbetreft":2804,"Ġkil":2805,"Ġverkl":2806,"Ġaanbod":2807,"Ġbank":2808,"cties":2809,"Ġkerk":2810,"oth":2811,"Ġmiljoen":2812,"bren":2813,"Ġberoep":2814,"Ġhoop":2815,"iedenis":2816,"ebru":2817,"oogle":2818,"ĠSte":2819,"Ġkap":2820,"Ġblog":2821,"Ġmei":2822,"baarheid":2823,"Ġtekst":2824,"Ġbevat":2825,"Ġlie":2826,"Ġwoorden":2827,"gemene":2828,"Ġverplicht":2829,"nummer":2830,"Ġrijden":2831,"Ġamsterdam":2832,"Ġhoren":2833,"hoven":2834,"ime":2835,"umenten":2836,"Ġkr":2837,"Ġzwem":2838,"ĠJan":2839,"lopen":2840,"Ġokt":2841,"roken":2842,"Ver":2843,"Ġinstall":2844,"Ġervaren":2845,"ĠGel":2846,"Ġlevens":2847,"lang":2848,"gende":2849,"Ġ21":2850,"ĠMeer":2851,"Ġmeestal":2852,"aliseren":2853,"Ġhotel":2854,"Ġverkrij":2855,"Ġonver":2856,".\"":2857,"ift":2858,"apt":2859,"Ġlin":2860,"Ġstil":2861,"spre":2862,"igers":2863,"rijden":2864,"Ġjuni":2865,"istische":2866,"gebouw":2867,"ialen":2868,"oeder":2869,"Ġsfeer":2870,"Ġsociale":2871,"irc":2872,"Ġleggen":2873,"Ġmidden":2874,"kw":2875,"Ġveroor":2876,"Ġtal":2877,"count":2878,"tens":2879,"Ġmateriaal":2880,"Ġtw":2881,"Ġlanden":2882,"Ġinteress":2883,"Ġgenomen":2884,"Ġpost":2885,"nel":2886,"Maar":2887,"âĢĿ.":2888,"Ġpot":2889,"urende":2890,"Ġnummer":2891,"Ġstond":2892,"pril":2893,"Ġmond":2894,"Ġneu":2895,"apen":2896,"Ġgemidd":2897,"Ġooit":2898,"Ġleeftijd":2899,"vr":2900,"idt":2901,"Ġontwerp":2902,"ĠBoven":2903,"Be":2904,"Ġperfect":2905,"Ġtoegang":2906,"Ġstandaard":2907,"inst":2908,"rive":2909,"Ġhelpt":2910,"ider":2911,"Ġneer":2912,"ieel":2913,"Ġveilig":2914,"gebied":2915,"ugd":2916,"Ġfact":2917,"ude":2918,"Ġoktober":2919,"Ġ2021":2920,"Ġent":2921,"ĠEuropese":2922,"Ġobject":2923,"11":2924,"Ġrijk":2925,"uut":2926,"Ġactief":2927,"ots":2928,"ermen":2929,"lijn":2930,"Ġlijst":2931,"ĠSh":2932,"Ġseizoen":2933,"kun":2934,"gew":2935,"oes":2936,"Ġschrijven":2937,"Ġzomer":2938,"oi":2939,"Ġdecember":2940,"Ġervan":2941,"Ġglas":2942,"ebruari":2943,"Ġgenoemd":2944,"ake":2945,"Ġstijl":2946,"Ġhor":2947,"Ġplat":2948,"eef":2949,"Ġgesprek":2950,"Ġuiteindelijk":2951,"school":2952,"Ġbegrij":2953,"Ġlokale":2954,"ged":2955,"ĠWant":2956,"regen":2957,"bank":2958,"Ġinzicht":2959,"Ġdraag":2960,"Ġdaarmee":2961,"rotische":2962,"Ġholland":2963,"IN":2964,"Ġbijzondere":2965,"verlen":2966,"Ġwensen":2967,"olf":2968,"water":2969,"geld":2970,"Ġontstaan":2971,"Ġvrienden":2972,"eller":2973,"ĠNeem":2974,"Ġstof":2975,"ĉĊ":2976,"Ġgevonden":2977,"sport":2978,"hol":2979,"Ġhout":2980,"Ġqu":2981,"ock":2982,"Ġverschil":2983,"Ġdisc":2984,"oy":2985,"bre":2986,"ovember":2987,"ĠâĢĻ":2988,"Ġsmaak":2989,"Ġleiden":2990,"Ġaant":2991,"acy":2992,"zie":2993,"issen":2994,"ĠAnt":2995,"Ġbelangrijkste":2996,"ars":2997,"raal":2998,"gelegd":2999,"Ġsim":3000,"Ġvroeg":3001,"Ġuitste":3002,"utt":3003,"Ġkennen":3004,"rekking":3005,"zoeken":3006,"Ġtips":3007,"ĠZuid":3008,"oeien":3009,"antra":3010,"isen":3011,"Ġ22":3012,"Ġvader":3013,"Ġhalf":3014,"orten":3015,"Ġrichting":3016,"bon":3017,"asse":3018,"Ġeconom":3019,"oeden":3020,"elk":3021,"Ġallerlei":3022,"ĠNe":3023,"part":3024,"Ġcollega":3025,"Ġtrouw":3026,"iliteit":3027,"Ġpersoonlijk":3028,"Ġpunt":3029,"Ġband":3030,"Ġvoordat":3031,"Ġdorp":3032,"rale":3033,"Ġfiet":3034,"ĠSl":3035,"Ġapril":3036,"Ġbur":3037,"ĠMen":3038,"Ġkamer":3039,"âĢĺ":3040,"veld":3041,"Ġrestaurant":3042,"Ġfebruari":3043,"dagen":3044,"Ġpersoonsgegevens":3045,"Ġhoger":3046,"Ġges":3047,"Ġkoop":3048,"Ġcurs":3049,"Ġtev":3050,"Ġdragen":3051,"mateur":3052,"appen":3053,"Ġbericht":3054,"Ġrechts":3055,"Ġbevest":3056,"Ġdefin":3057,"des":3058,"Ġcamp":3059,"Hoe":3060,"ruit":3061,"past":3062,"Ġspra":3063,"mal":3064,"Ġontmoet":3065,"Ġvallen":3066,"ĠRotterdam":3067,"Ġunieke":3068,"Ġmaakte":3069,"spel":3070,"Ġvanwege":3071,"name":3072,"useum":3073,"Ġpass":3074,"Ġgehouden":3075,"Door":3076,"Ġinmiddels":3077,"Ġinhoud":3078,"Ġdood":3079,"Ġaanbied":3080,"Ġproberen":3081,"ash":3082,"Ġnatuurlijke":3083,"imale":3084,"isteren":3085,"Ġgevolg":3086,"rabant":3087,"ract":3088,"Ġspeciale":3089,"het":3090,"Ġpartijen":3091,"Ġalgemeen":3092,"Ġkoffie":3093,"Ġverzorg":3094,"Ġnovember":3095,"Ġhond":3096,"Ġcar":3097,"Ġsommige":3098,"16":3099,"Ġgeme":3100,"ecte":3101,"zaak":3102,"irus":3103,"oegd":3104,"vinc":3105,"isme":3106,"dienst":3107,"Ġmeester":3108,"Ġand":3109,"Ġople":3110,"stad":3111,"Ġhuur":3112,"Ġgebeur":3113,"Ġlul":3114,"Ġzuid":3115,"Ġdeur":3116,"gesch":3117,"Ġster":3118,"Ġanal":3119,"ĠEuropa":3120,"Ġloopt":3121,"kijk":3122,"Ġzei":3123,"Ġouder":3124,"heb":3125,"Ġstelt":3126,"Ġbeweg":3127,"Ġmodel":3128,"Ġtri":3129,"Ġbus":3130,"Ġvolwassen":3131,"Ġbos":3132,"ĠSe":3133,"Ġing":3134,"kosten":3135,"Ġzaterdag":3136,"nov":3137,"Ġmaatregelen":3138,"Ġopleiding":3139,"Ġoorspronkelijke":3140,"Ġfunctie":3141,"Ġoffer":3142,"Ġmaatschapp":3143,"ande":3144,"Ġtaal":3145,"ĠGoogle":3146,"Ġhy":3147,"hemale":3148,"ble":3149,"Ġveren":3150,"Ġlen":3151,"okken":3152,"istratie":3153,"erkt":3154,"Ġontvangt":3155,"halen":3156,"Ġwijz":3157,"Ġvloer":3158,"inding":3159,"Ġontwikkelen":3160,"Ġtafel":3161,"will":3162,"kens":3163,"contact":3164,"wagen":3165,"reekt":3166,"deling":3167,"Ġtrad":3168,"ategorie":3169,"standigheden":3170,"Ġvoelt":3171,"Ġbrengt":3172,"middelen":3173,"ĠcreÃ«":3174,"Ġuitgevoerd":3175,"uigen":3176,"Ġzes":3177,"17":3178,"Ġprima":3179,"oftware":3180,"ĠPar":3181,"to":3182,"Ġbedrag":3183,"woorden":3184,"Ġgezicht":3185,"Ġkutje":3186,"toe":3187,"Ġ2017":3188,"iti":3189,"arts":3190,"wijf":3191,"Ġspeciaal":3192,"zijd":3193,"ient":3194,"ĠMan":3195,"Ġzondag":3196,"Ġklim":3197,"Ġbeper":3198,"Ġhiervoor":3199,"Ġniveau":3200,"bad":3201,"Ġmeiden":3202,"undige":3203,"ĠTer":3204,"Ġpartner":3205,"Ġbreed":3206,"Ġdaarvan":3207,"Ġrotterdam":3208,"gro":3209,"Ge":3210,"ownl":3211,"Ġpresent":3212,"iem":3213,"Ġmotor":3214,"Ġinspir":3215,"Ġfunction":3216,"Ġvoeren":3217,"raagd":3218,"//":3219,"amera":3220,"ivid":3221,"....":3222,"Ġbereiken":3223,"igin":3224,"verzeker":3225,"ownlo":3226,"etter":3227,"uurd":3228,"Ġpartij":3229,"schrift":3230,"Ġbron":3231,"Ġvac":3232,"Ġgebracht":3233,"Ġgeze":3234,"best":3235,"Ġat":3236,"Ġmocht":3237,"Ġplezier":3238,"Ġzwarte":3239,"tegen":3240,"ĠHeb":3241,"ologische":3242,"ialis":3243,"Ġlive":3244,"waarde":3245,"arketing":3246,"ret":3247,"Ġ2016":3248,"ung":3249,"Ġwedstrijd":3250,"Ġverkoop":3251,"Ġbaby":3252,"Ġja":3253,"Ġoef":3254,"Ġvoorwaarden":3255,"scherm":3256,"Ġstel":3257,"Ġcollectie":3258,"Ġgebeurt":3259,"Ġvlak":3260,"Ġgedrag":3261,"40":3262,"Ġgesl":3263,"Ġprachtig":3264,"komsten":3265,"Ġantwoord":3266,"Ġmerken":3267,"olie":3268,"Ġbesluit":3269,"Ġbedoeld":3270,"Ġwaarschijnlijk":3271,"Ġverbl":3272,"Ġricht":3273,"Ġtoev":3274,"aringen":3275,"Ġgezondheid":3276,"Ġovereenkomst":3277,"Ġsal":3278,"://":3279,"Ġkonden":3280,"vlak":3281,"Ġschrij":3282,"Ġwachten":3283,"Ġstraat":3284,"stelde":3285,"istor":3286,"Ġbewust":3287,"Ġpsych":3288,"yl":3289,"atisch":3290,"ĠUtrecht":3291,"anken":3292,"Ġkm":3293,"akt":3294,"Ġbepaald":3295,"ight":3296,"Ġdata":3297,"Ġwinter":3298,"ĠHierdoor":3299,"icro":3300,"wiss":3301,"Ġzaak":3302,"Ġdonker":3303,"Ġinvloed":3304,"Ġspecial":3305,"Ġpan":3306,"Ġlees":3307,"Ġadvis":3308,"Ġgeplaatst":3309,"inc":3310,"Ġvervangen":3311,"ĠLaat":3312,"ote":3313,"ole":3314,"Ġreed":3315,"zijde":3316,"wit":3317,"gend":3318,"ĠFl":3319,"ĠBer":3320,"inken":3321,"Ġkomende":3322,"md":3323,"ĠNatuur":3324,"elling":3325,"ĠBovendien":3326,"ja":3327,"Ġoverheid":3328,"Ġcook":3329,"inderen":3330,"Ġkleding":3331,"Ġhierbij":3332,"Ġspeelt":3333,"Ġgesteld":3334,"Ġclub":3335,"itief":3336,"ruimte":3337,"loos":3338,"Ġzonne":3339,"Ġleg":3340,"Ġthema":3341,"ĠTijdens":3342,"Ġgeg":3343,"Ġvoelen":3344,"pakt":3345,"Ġproductie":3346,"ED":3347,"Ġzag":3348,"AR":3349,"ĠZie":3350,"danks":3351,"ĠItal":3352,"Ġup":3353,"Ġstij":3354,"Ġoffic":3355,"Ġvertellen":3356,"Ġfys":3357,"ille":3358,"azen":3359,"ĠfinanciÃ«le":3360,"spl":3361,"Ġ23":3362,"stal":3363,"jarige":3364,"Ġvaste":3365,"Ġbestaande":3366,"do":3367,"akel":3368,"Ġpubliek":3369,"kaart":3370,"Ġfilmpjes":3371,"ĠÃ":3372,"ull":3373,"ielen":3374,",-":3375,"dering":3376,"Ġbar":3377,"Ġgericht":3378,"oto":3379,"ners":3380,"otte":3381,"otheek":3382,"regel":3383,"Ġzwart":3384,"hous":3385,"spraken":3386,"blijven":3387,"ĠCor":3388,"Ġbouwen":3389,"Ġbestellen":3390,"Ġstev":3391,"Ġleerlingen":3392,"aceb":3393,"Ġuiteraard":3394,"Ġheerlijke":3395,"ructuur":3396,"iemand":3397,"ĠTwee":3398,"Ġzwaar":3399,"Ġinv":3400,"Ġrug":3401,"agement":3402,"Ġzieken":3403,"aro":3404,"oest":3405,"oekt":3406,"Ġkerst":3407,"Ġconst":3408,"ĠPr":3409,"Ġdirecte":3410,"systeem":3411,"Ġha":3412,"Ġindivid":3413,"Ġmass":3414,"Ġgekozen":3415,"nst":3416,"Ġgekomen":3417,"ĠJoh":3418,"Ġdagelijks":3419,"Ġontsp":3420,"ĠHel":3421,"Ġvoorbij":3422,"Ġwitte":3423,"Ġgeluid":3424,"Ġstappen":3425,"iversiteit":3426,"aarten":3427,"ement":3428,"Ġopgenomen":3429,"Ġtro":3430,"Ġstrand":3431,"Ġbekende":3432,"ugust":3433,"Ġvij":3434,"Ġtermijn":3435,"woners":3436,"Ġoma":3437,"Ġmeld":3438,"Ġvolgt":3439,"Ġsele":3440,"Ġwonen":3441,"ĠNederlands":3442,"ĠVeel":3443,"Ġvoorbeeld":3444,"stemen":3445,"60":3446,"Ġkantoor":3447,"Ġall":3448,"Ġbak":3449,"ĠCent":3450,"Ġjuli":3451,"Ġbetaal":3452,"ĠBelgiÃ«":3453,"avor":3454,"Daar":3455,"Ġwind":3456,"ieur":3457,"Ġgebruikers":3458,"Ġbezoekers":3459,"14":3460,"Ġas":3461,"Ġoudere":3462,"Ġnetwerk":3463,"Ġlekkere":3464,"Ġresp":3465,"Ġtemper":3466,"Ġbepalen":3467,"Ġafhankelijk":3468,"Ġcontrole":3469,"oze":3470,"Ġfant":3471,"Ġmaterialen":3472,"atische":3473,"Ġverwijderen":3474,"Ġraad":3475,"sluiting":3476,"indt":3477,"reef":3478,"Ġdub":3479,"Ġresultaten":3480,"Ġziekte":3481,"ortiment":3482,"Ġamateur":3483,"Ġtraining":3484,"Ġ60":3485,"Ġdeed":3486,"uiden":3487,"Ġvooraf":3488,"ffende":3489,"Ġsec":3490,"Zo":3491,"Ġcentrum":3492,"acties":3493,"25":3494,"Ġpe":3495,"enk":3496,"teel":3497,"dek":3498,"Ġgener":3499,"iste":3500,"Ġgoedkop":3501,"ĠFrank":3502,"astic":3503,"Ġtest":3504,"Ġjeugd":3505,"heen":3506,"Ġgeschiedenis":3507,"Ġtoer":3508,"iks":3509,"Ġtrans":3510,"Ġkwamen":3511,"Ġovereen":3512,"beelden":3513,"Ġtrekken":3514,"acebook":3515,"Ġrad":3516,"Ġveroorz":3517,"Ġbegon":3518,"Ġvorige":3519,"Ġklachten":3520,"Ġduurzaam":3521,"utie":3522,"Ġregels":3523,"Ġkat":3524,"itel":3525,"Ġondernem":3526,"Ġneger":3527,"sproken":3528,"Ġstudenten":3529,"woordig":3530,"Ġeet":3531,"Ġliefst":3532,"ĠGeen":3533,"gl":3534,"Ġprest":3535,"Ġwaaronder":3536,"Ġnoodzak":3537,"Ġtype":3538,"Ġimp":3539,"houder":3540,"Ġbeheer":3541,"oeding":3542,"arten":3543,"dust":3544,"idingen":3545,"Ġsk":3546,"Ġimmers":3547,"Ġbestelling":3548,"ueel":3549,"hode":3550,"Ġdetails":3551,"Ġwar":3552,"Ġke":3553,"Ġsprake":3554,"bang":3555,"ogelijke":3556,"Ġmm":3557,"ĠOmdat":3558,"rank":3559,"Ġpolit":3560,"ĠNaast":3561,"Ġuitvoering":3562,"ace":3563,"zingen":3564,"Ġdiep":3565,"Ġverantwoordelijk":3566,"Ġvrijdag":3567,"Ġverbeteren":3568,"EL":3569,"Ġsturen":3570,"Ġnot":3571,"Ġ#":3572,"ĠKamer":3573,"kast":3574,"Ġonderdelen":3575,"vast":3576,"gez":3577,"Ġregen":3578,"13":3579,"ippen":3580,"kshop":3581,"dus":3582,"Ġonderhoud":3583,"Ġspecifieke":3584,"Ġpunten":3585,"Ġ2015":3586,"Ġmoeite":3587,"Ġdochter":3588,"Ġshemale":3589,"Ġdaardoor":3590,"Ġvertrouwen":3591,"arie":3592,"ane":3593,"Ġtevens":3594,"elle":3595,"Ġvoorbere":3596,"Ġgeloof":3597,"Ġcompl":3598,"ĠNet":3599,"uc":3600,"Ġdesign":3601,"Ġverzoek":3602,"rassen":3603,"Ġtieten":3604,"vering":3605,"iete":3606,"Ġenthous":3607,"Ġderg":3608,"Ġassortiment":3609,"Ġgezegd":3610,"Ġbedoel":3611,"Ġpakk":3612,"erse":3613,"Ġhang":3614,"Ġvroe":3615,"Ġmoderne":3616,"huizen":3617,"anders":3618,"Ġverdw":3619,"Ġprivacy":3620,"Ġfavor":3621,"ĠIndien":3622,"Ġbereik":3623,"Ġindruk":3624,"ĠBekijk":3625,"Ġarch":3626,"ĠCon":3627,"Ġverhalen":3628,"arakt":3629,"ance":3630,"Ġbeveil":3631,"Ġpersoneel":3632,"ĠTot":3633,"ĠMin":3634,"teken":3635,"Ġtantra":3636,"etting":3637,"uff":3638,"ly":3639,"centrum":3640,"Ġlink":3641,"adres":3642,"ugustus":3643,"ĠToch":3644,"zend":3645,"Ġwist":3646,"daan":3647,"sn":3648,"Ġsites":3649,"ecten":3650,"Ġlijn":3651,"Ġdaarvoor":3652,"inen":3653,"ose":3654,"ĠHaag":3655,"Ġjongeren":3656,"Ġklass":3657,"Ġherken":3658,"Ġprovinc":3659,"Wanneer":3660,"Ġval":3661,"Ġkent":3662,"risis":3663,"Ġvocht":3664,"fer":3665,"Ġbaan":3666,"Ġorigin":3667,"Ġgewen":3668,"mon":3669,"houding":3670,"hoek":3671,"ourn":3672,"dragen":3673,"gbaar":3674,"Ġdigitale":3675,"vriend":3676,"amb":3677,"wet":3678,"Ġ28":3679,"Ġtegelijk":3680,"Ġdoos":3681,"Ġspreken":3682,"Ġnamen":3683,"Ġsteun":3684,"Ġvoordeel":3685,"ĠCO":3686,"ĠOnt":3687,"pan":3688,"Ġinfo":3689,"ĠHeer":3690,"prijs":3691,"aai":3692,"inter":3693,"Ġarbeids":3694,"ĠVerder":3695,"gebruik":3696,"ĠErotische":3697,"Ġgezet":3698,"repen":3699,"rent":3700,"ĠGeb":3701,"Ġbeperk":3702,"Ġaccount":3703,"derland":3704,"Ġperfecte":3705,"ĠâĢŀ":3706,"oont":3707,"Ġjur":3708,"Ġgast":3709,"ĠAmerikaanse":3710,"Ġbuitenland":3711,"Ġgeleverd":3712,"Ġkilom":3713,"Ġontwikkeld":3714,"onds":3715,"Ġabs":3716,"Ġprojecten":3717,"Ġvrijwill":3718,"Ġwacht":3719,"Ġname":3720,"ĠOr":3721,"Ġolie":3722,"rom":3723,"Ġbetrekking":3724,"Ġweekend":3725,"Ġvraagt":3726,"Ġblauw":3727,"Ġinnov":3728,"Ġang":3729,"Ġwerkzaamheden":3730,"Ġoper":3731,"Ġlag":3732,"kort":3733,"zitter":3734,"Ġdou":3735,"ĠInd":3736,"Ġalgemene":3737,"ertific":3738,"Ġvoorn":3739,"Ġtr":3740,"ams":3741,"ĠHaar":3742,"Ġreactie":3743,"ĠWie":3744,"Ġbelasting":3745,"kracht":3746,"Ġvlucht":3747,"Ġ27":3748,"Ġoveral":3749,"Ġaangeboden":3750,"ouwen":3751,"ampen":3752,"Ġinclusief":3753,"Ġsluiten":3754,"bru":3755,"ĠGen":3756,"Ġmaximaal":3757,"ĠCar":3758,"Ġnoord":3759,"isschien":3760,"unst":3761,"Ġtab":3762,"Ġbetrouw":3763,"Ġ+":3764,"leggen":3765,"Ġgeschreven":3766,"estiv":3767,"standig":3768,"ĠSamen":3769,"Ġhtt":3770,"Ġnou":3771,"Ġvolg":3772,"Ġplanten":3773,"derdaad":3774,"Ġene":3775,"Ġzacht":3776,"old":3777,"hout":3778,"Ġtevreden":3779,"Ġuitdag":3780,"ats":3781,"gemaakt":3782,"Ġversie":3783,"ĠVeren":3784,"Ġcasino":3785,"ĠWest":3786,"genaam":3787,"Ġovertu":3788,"igens":3789,"Ġmogelijke":3790,"Ġdier":3791,"ijt":3792,"herapie":3793,"Ġetc":3794,"inkels":3795,"ĠToen":3796,"Ġwarmte":3797,"Ġprofessionele":3798,"machine":3799,"Ġverband":3800,"worpen":3801,"ðŁ":3802,"Ġverkeer":3803,"Ġcultuur":3804,"Ġbleek":3805,"Ġorganisaties":3806,"Ġfr":3807,"Ġroute":3808,"Onze":3809,"leur":3810,"ĠSc":3811,"Ġkarakt":3812,"Ġbetere":3813,"meer":3814,"Ġcompleet":3815,"Ġgelukkig":3816,"Ġword":3817,"ĠIeder":3818,"ET":3819,"Ġgeef":3820,"âĢ¦]":3821,"veen":3822,"aagd":3823,"wikkel":3824,"Ġbeoord":3825,"Ġbeschikt":3826,"ijme":3827,"'.":3828,"rast":3829,"Ġgeboren":3830,"ST":3831,"Ġaugustus":3832,"Ġopper":3833,"Ġondersteuning":3834,"uig":3835,"Ġhandig":3836,"Ġuitgebreid":3837,"Ġgevolgen":3838,"Ġschilder":3839,"ama":3840,"Ġwww":3841,"Ġbood":3842,"Ġvaker":3843,"ijmegen":3844,"Ġverkopen":3845,"Ġenorme":3846,"Ġlesb":3847,"omenteel":3848,"keken":3849,"Ġscher":3850,"ĠChrist":3851,"pje":3852,"Ġliever":3853,"Ġvertelt":3854,"Ġsoftware":3855,"Ġreeds":3856,"Ġhelaas":3857,"Ġser":3858,"Ġuitvoeren":3859,"Ġeil":3860,"Ġlevert":3861,"mogelijk":3862,"Ġgekregen":3863,"Ġartikelen":3864,"Ġgevaar":3865,"Ġsneller":3866,"park":3867,"Ġbegonnen":3868,"inkt":3869,"blad":3870,"Ġcommunicatie":3871,"Ġiniti":3872,"ĠAc":3873,"sdag":3874,"Ġgroeien":3875,"\",":3876,"roep":3877,"Ġgroen":3878,"Ġhoeren":3879,"eland":3880,"punten":3881,"esl":3882,"Ġ26":3883,"oorn":3884,"ederl":3885,"Ġlinks":3886,"Ġstat":3887,"elijkse":3888,"Ġplant":3889,"rekt":3890,"Ġkoel":3891,"Ġgeest":3892,"Ġcomputer":3893,"Ġkutjes":3894,"Ġinternationale":3895,"oude":3896,"adering":3897,"80":3898,"ĠAut":3899,"Ġapparte":3900,"Ġwerking":3901,"denken":3902,"Ġzoon":3903,"hoog":3904,"verl":3905,"Ġondersche":3906,"Ġtrio":3907,"oond":3908,"Ġvoordelen":3909,"Ġnoemen":3910,"ics":3911,"Ġmacht":3912,"Ġverdien":3913,"Ġpijpen":3914,"by":3915,"ĠApp":3916,"Ġwebcam":3917,"Ġspuiten":3918,"Ġvari":3919,"Ġcookies":3920,"Ġ?":3921,"ĠPer":3922,"baan":3923,"Ġuitstr":3924,"Af":3925,"ĠGem":3926,"kers":3927,"ish":3928,"Ġplannen":3929,"ĠpatiÃ«nten":3930,"Ġcade":3931,"oei":3932,"Ġbovendien":3933,"ationaal":3934,"rim":3935,"Ġindust":3936,"ona":3937,"ĠZelf":3938,"maar":3939,"Ġit":3940,"ĠPa":3941,"ĠSu":3942,"stoffen":3943,"ĠEngel":3944,"ĠMed":3945,"Ġ2014":3946,"Ġcamera":3947,"Ġflex":3948,"ser":3949,"Ġaanzien":3950,"que":3951,"istr":3952,"Ġmar":3953,"Ġvreem":3954,"tussen":3955,"Ġluxe":3956,"Ġvermeld":3957,"kn":3958,"Ġgezin":3959,"Ġverbonden":3960,"plaatsen":3961,"Ġruime":3962,"ĠGa":3963,"Ġjaarlijk":3964,"lement":3965,"duc":3966,"ĠPh":3967,"Ġgaf":3968,"Ġdeelnemers":3969,"Ġhelft":3970,"pleeg":3971,"Ġverlen":3972,"ike":3973,"Ġrode":3974,"Ġstudie":3975,"reerd":3976,"Ġrondom":3977,"schrijving":3978,"kan":3979,"Ġduurzame":3980,"Ġniemand":3981,"Ġadvertenties":3982,"Ġdownlo":3983,"Ġrechter":3984,"Ġnormaal":3985,"Ġontb":3986,"ĠBar":3987,"meester":3988,"Ġomstandigheden":3989,"ĠVolgens":3990,"Ġol":3991,"Ben":3992,"erst":3993,"roon":3994,"yt":3995,"Ġcoach":3996,"sid":3997,"Ġsterke":3998,"cin":3999,"Ġbadkamer":4000,"Ġmilieu":4001,"vaart":4002,"Ġdenkt":4003,"ĠInst":4004,"Ġgedurende":4005,"Ġsluit":4006,"Ġnadat":4007,"ages":4008,"niet":4009,"ĠEU":4010,"ĠZorg":4011,"200":4012,"Ġdankzij":4013,"gent":4014,"ĠSint":4015,"pos":4016,"Ġminister":4017,"Ġleef":4018,"Ġvit":4019,"Ġplastic":4020,"let":4021,"Ġernst":4022,"west":4023,"Ġnatte":4024,"Ġverkrijgbaar":4025,"Ġcirc":4026,"RO":4027,"vak":4028,"Ġcond":4029,"Ġslot":4030,"Ġ[âĢ¦]":4031,"Ġinzet":4032,"richting":4033,"verk":4034,"Ġbot":4035,"ocol":4036,"Ġopnemen":4037,"ĠBo":4038,"orn":4039,"Ġstrijd":4040,"Ġworkshop":4041,"Ġgehele":4042,"Ġveranderen":4043,"Ġverf":4044,"Ġgede":4045,"gere":4046,"Ġonaf":4047,"Ġhoort":4048,"Ġmarketing":4049,"Ġvest":4050,"Ġfijne":4051,"winkel":4052,"Ġaanvraag":4053,"oefte":4054,"Ġgec":4055,"Ġemot":4056,"orst":4057,"programma":4058,"Ġdu":4059,"Ġliter":4060,"omin":4061,"Ġaltern":4062,"Ġcursus":4063,"Ġerop":4064,"rend":4065,"Ġbeelden":4066,"visie":4067,"Ġhouten":4068,"Ġuitzicht":4069,"Ġtoestemming":4070,"Ġpartic":4071,"Ġgroene":4072,"Ġfabrik":4073,"akker":4074,"ateriaal":4075,"Ġbrood":4076,"Ġporn":4077,"Ġverlie":4078,"gaande":4079,"Ġkamp":4080,"Ġfietsen":4081,"odige":4082,"Ġtenzij":4083,"Ġrijpe":4084,"gte":4085,"dro":4086,"Ġpen":4087,"cedu":4088,"Ġgrotere":4089,"Ġbewon":4090,"ai":4091,"Ġgebeuren":4092,"press":4093,"Ġsmart":4094,"Ġinderdaad":4095,"Ġident":4096,"Ġgegaan":4097,"Ġleiding":4098,"oeven":4099,"Ġautomatisch":4100,"Ġstroom":4101,"unch":4102,"Ġprovincie":4103,"ulling":4104,"iner":4105,"Ġborsten":4106,"naar":4107,"Ġout":4108,"gave":4109,"incip":4110,"ijnt":4111,"Ġniks":4112,"Ġgingen":4113,"rest":4114,"Ġinterieur":4115,"Ġkarakter":4116,"Ġbescherming":4117,"An":4118,"Ġve":4119,"band":4120,"schak":4121,"Ġzul":4122,"Ġwijk":4123,"Ġmaandag":4124,"Ġbezoeken":4125,"ĠVlaam":4126,"Ġinwoners":4127,"Ġzult":4128,"Ġreger":4129,"ĠTra":4130,"Ġnoodzakelijk":4131,"onderdag":4132,"aseerd":4133,"zw":4134,"Ġhiervan":4135,"Ġaanm":4136,"Ġwett":4137,"Ġbehulp":4138,"gegeven":4139,"Ġhistor":4140,"Ġhieronder":4141,"ĠKon":4142,"Ġondernemers":4143,"Ġbeperkt":4144,"ĠcreÃ«ren":4145,"Ġfree":4146,"ĠSm":4147,"Heb":4148,"Ġslim":4149,"Ġdroog":4150,"Ġcategorie":4151,"oensdag":4152,"Ġadmin":4153,"Ġsol":4154,"ield":4155,"Ġgevest":4156,"Ġoverl":4157,"urf":4158,"ĠComm":4159,"Ġmeesteres":4160,"iness":4161,"Ġbrief":4162,"ĠGron":4163,"Ġkader":4164,"OR":4165,"Hier":4166,"Ġhonden":4167,"Ġnam":4168,"adem":4169,"oster":4170,"Ġbuur":4171,"Ġwebsites":4172,"Ġtha":4173,"Ġergens":4174,"Ġvere":4175,"beheer":4176,"iot":4177,"mod":4178,"Ġfruit":4179,"ĠDuitsland":4180,"ĠHer":4181,"Ġvoedsel":4182,"Ġrapport":4183,"Ġdetailhandel":4184,"deelte":4185,"Ġideaal":4186,"steen":4187,"Ġgasten":4188,"Mijn":4189,"eeld":4190,"isse":4191,"andaag":4192,"Ġwebshop":4193,"Ġrele":4194,"ric":4195,"Ġeisen":4196,"arch":4197,"Ġdienen":4198,"xt":4199,"outen":4200,"Ġlastig":4201,"Ġvoeding":4202,"nog":4203,"ummers":4204,"oeid":4205,"fun":4206,"70":4207,"Ġdw":4208,"ĠDenk":4209,"Ġtechnische":4210,"Ġtent":4211,"alist":4212,"Ġgangbang":4213,"Ġzeven":4214,"Sex":4215,"Ġsens":4216,"esse":4217,"Vol":4218,"Ġvooruit":4219,"Ġoorlog":4220,"24":4221,"ĠWer":4222,"Ġgerust":4223,"ĠVanaf":4224,"Ġongel":4225,"reen":4226,"Ġvrijblijven":4227,"Ġprett":4228,"Ġbeleid":4229,"vallen":4230,"Ġ80":4231,"Ġorganiseren":4232,"Ġklimaat":4233,"nhem":4234,"ĠNew":4235,"Ġzwanger":4236,"Ġpad":4237,"verm":4238,"Ġervaringen":4239,"Ġterras":4240,"ĠiP":4241,"Ġgroei":4242,"Ġverleden":4243,"Ġsexfilm":4244,"Ġvlees":4245,"Ġren":4246,"Ġverspre":4247,"Ġfra":4248,"Ġfris":4249,"estival":4250,"Ġwens":4251,"ius":4252,"Ġwarme":4253,"ĠVrouw":4254,"Ġvrije":4255,"Ġbehoor":4256,"Ġorde":4257,"Ġgesloten":4258,"ikte":4259,"aster":4260,"rijke":4261,"ĠTw":4262,"Ġess":4263,"ĠTen":4264,"Ġeffic":4265,"Ġtechnologie":4266,"own":4267,"ĠFacebook":4268,"Ġtemperatuur":4269,"Ġgas":4270,"Ġvuur":4271,"Ġuitstraling":4272,"Ġgevraagd":4273,"Ġflexib":4274,"uleren":4275,"ijfers":4276,"Ġ29":4277,"eerden":4278,"Ġweder":4279,"aw":4280,"ĠCom":4281,"Ġwelkom":4282,"Ġvermogen":4283,"Ġdergelijke":4284,"Ġspannen":4285,"ĠKijk":4286,"Ġgeil":4287,"leving":4288,"code":4289,"comm":4290,"Ġrood":4291,"zending":4292,"nes":4293,"Ġoptie":4294,"sluitend":4295,"Ġgewicht":4296,"ĠHar":4297,"AT":4298,"achtoff":4299,"Ġeventuele":4300,"Ġvog":4301,"Ġdacht":4302,"Ġaanra":4303,"gaat":4304,"stra":4305,"Ġpakken":4306,"Ġ198":4307,"Ġkwart":4308,"Ġport":4309,"Ġverwachten":4310,"oriteit":4311,"inner":4312,"ĠprivÃ©":4313,"Ġeventueel":4314,"Ġintens":4315,"Ġvar":4316,"Ġallen":4317,"onie":4318,"Ã¡":4319,"Ġwaard":4320,"Ġhyp":4321,"Ġ*":4322,"tie":4323,"Ġret":4324,"Ġinform":4325,"mmen":4326,"lijst":4327,"Ġven":4328,"Ġutrecht":4329,"AL":4330,"Ġbesloten":4331,"vinden":4332,"merken":4333,"Ġparkeer":4334,"Ġaldus":4335,"Ġaarde":4336,"elende":4337,"Ġkilometer":4338,"Ġwetenschapp":4339,"Ġpens":4340,"Ġvet":4341,"Ġpositieve":4342,"Ġsteden":4343,"Ġbesliss":4344,"Ġstra":4345,"Ġhoeveelheid":4346,"mede":4347,"aats":4348,"Ġ2013":4349,"ux":4350,"Ġspelers":4351,"tegr":4352,"riesland":4353,"Ġmanieren":4354,"Ġsnelle":4355,"Ġmodellen":4356,"Ġgespec":4357,"Ġgezonde":4358,"Ġbeweging":4359,"Tijdens":4360,"Ġij":4361,"gezet":4362,"\".":4363,"Ġhom":4364,"Ġgef":4365,"Ġgoedkoop":4366,"45":4367,"ppen":4368,"wekken":4369,"Ġhonder":4370,"Ġstarten":4371,"Ġafbeeld":4372,"wijd":4373,"Ġplatform":4374,"wat":4375,"Ġrecept":4376,"Ġdrinken":4377,"Ġoverleg":4378,"ĠCont":4379,"ĠDank":4380,"Ġtrot":4381,"Ġbode":4382,"Ġbetaling":4383,"Ġstim":4384,"Ġwiss":4385,"ertijd":4386,"Ġvoetbal":4387,"aanderen":4388,"Ġgroningen":4389,"illa":4390,"beurt":4391,"Ġtoet":4392,"Ġoplossingen":4393,"22":4394,"pagina":4395,"Ġaft":4396,"Ġbeschermen":4397,"-,":4398,"Ġed":4399,"Ġca":4400,"ĠDuitse":4401,"opp":4402,"Ġdaad":4403,"Ġbloemen":4404,"Ġprem":4405,"Ġideale":4406,"Ġgerecht":4407,"CH":4408,"Ġrustig":4409,"Ġstrateg":4410,"Ġasp":4411,"Ġelektrische":4412,"ones":4413,"Ġ!":4414,"Ġwerknemers":4415,"Ġmening":4416,"Ġrepar":4417,"itten":4418,"uze":4419,"insdag":4420,"Ġabsol":4421,"vaard":4422,"reeks":4423,"Ġgroepen":4424,"ĠRaad":4425,"Ġliet":4426,"Ġlage":4427,"oires":4428,"Ġmult":4429,"ĠII":4430,"Ġshow":4431,"ĠInter":4432,"Ġwinnen":4433,"Ġ35":4434,"Ġinstru":4435,"oudige":4436,"Ġzichtbaar":4437,"Ġreizen":4438,"Ġonderwerp":4439,"yse":4440,"Ġgebaseerd":4441,"dom":4442,"ouden":4443,"udget":4444,"ĠðŁ":4445,"Ġkiest":4446,"Ġaanbieding":4447,"kamers":4448,"Ġstukje":4449,"ooien":4450,"proces":4451,"Ġenthousi":4452,"Ġhoek":4453,"Ġgemiddelde":4454,"Ġtijden":4455,"vester":4456,"stijl":4457,"Ġsimpel":4458,"Ġpod":4459,"Ġverkocht":4460,"Ġgoe":4461,"Ġontdekken":4462,"reet":4463,"Ġproduc":4464,"ssen":4465,"eiden":4466,"Ġdatum":4467,"Ġjongens":4468,"irl":4469,"Ġstuur":4470,"Ġcentraal":4471,"ilet":4472,"Ġberg":4473,"Ġontworpen":4474,"Ġbetaald":4475,"Ġronde":4476,"Ġaanbe":4477,"Ġziekenhuis":4478,"alle":4479,"Ġangst":4480,"Ġverbeter":4481,"Gr":4482,"Ġraden":4483,"bert":4484,"Ġpraten":4485,"irt":4486,"Ġdoordat":4487,"riv":4488,"Ġwelk":4489,"Ġcontrol":4490,"Ġgoud":4491,"Ġoptreden":4492,"box":4493,"Ġset":4494,"AM":4495,"ĠQu":4496,"ĠAlleen":4497,"waardige":4498,"Ġafle":4499,"Ġuitgebreide":4500,"iders":4501,"Ġvergelijken":4502,"Ġwinst":4503,"Ġtradition":4504,"Ġzover":4505,".,":4506,"ĠideeÃ«n":4507,"ID":4508,"Aan":4509,"OS":4510,"Ġzoo":4511,"Ġbegrijpen":4512,"sbe":4513,"Ġvoorraad":4514,"Alle":4515,"Ġachtergrond":4516,"Ġbijdra":4517,"mel":4518,"zus":4519,"Ġmuur":4520,"Ġfantast":4521,"Ġbijdrage":4522,"Ġbewoners":4523,"Ġgezellig":4524,"Ġtoegev":4525,"Ġschreef":4526,"aans":4527,"Ġerotisch":4528,"ON":4529,"aaien":4530,"ancier":4531,"Ġgewerkt":4532,"ĠLand":4533,"Ġhuw":4534,"ES":4535,"Ġvoorl":4536,"stukken":4537,"Ġpak":4538,"tegenwoord":4539,"opend":4540,"Ġtv":4541,"Ġvergeten":4542,"arden":4543,"verg":4544,"yc":4545,"iaanse":4546,"Ġtegenwoordig":4547,"ures":4548,"Ġaanpak":4549,"agne":4550,"rust":4551,"ĠMon":4552,"Ġbegeleiding":4553,"Ġletter":4554,"Ġeigenaar":4555,"Ġbehoefte":4556,"ĠMaak":4557,"neem":4558,"ĠNederl":4559,"essoires":4560,"randen":4561,"ĠBinnen":4562,"Ġuitzonder":4563,"oorte":4564,"Ġcorre":4565,"Ã¨re":4566,"Ġkwij":4567,"club":4568,"plan":4569,"Ġaantrek":4570,"rukt":4571,"Ġstress":4572,"verlening":4573,"Ġprofiel":4574,"Ã³Ã³":4575,"gist":4576,"enn":4577,"ammer":4578,"Ġbetreffende":4579,"Ġtitel":4580,"ustr":4581,"Ġoefen":4582,"Ġoverw":4583,"90":4584,"IS":4585,"schreven":4586,"Ġvervol":4587,"Ġadvoc":4588,"Ġopzicht":4589,"Ġcap":4590,"itect":4591,"bum":4592,"ĠGl":4593,"Ġenerg":4594,"Onder":4595,"Ġverkoper":4596,"Ġkunsten":4597,"Ġscherm":4598,"Ġbevindt":4599,"ĠHolland":4600,"Ġdraagt":4601,"elend":4602,"ctief":4603,"Ġonderzoeken":4604,"Ġ2012":4605,"ipl":4606,"techn":4607,"ĠDaarna":4608,"Ġgespecialis":4609,"ĠPol":4610,"gra":4611,"Ġbellen":4612,"Ġvertrouw":4613,"Ġsign":4614,"wacht":4615,"Ġtwijf":4616,"Ġjongen":4617,"Over":4618,"Ġgebouwd":4619,"Ġbevol":4620,"Ġhoogste":4621,"Ġleidt":4622,"Ġstoppen":4623,"Ġinteressant":4624,"Ġerf":4625,"ĠWor":4626,"Ġbehoe":4627,"Ġwoningen":4628,"Ġzen":4629,"Ġboot":4630,"Ġontstaat":4631,"Ġrealiseren":4632,"Ġkab":4633,"plic":4634,"Ġwellicht":4635,"Ġgelderland":4636,"Ġtiener":4637,"Ġgevestigd":4638,"za":4639,"ĠFrankrijk":4640,"houdt":4641,"gelegen":4642,"Ġprincip":4643,"Ġpapier":4644,"Ġoptimaal":4645,"Ġkrit":4646,"Ġ70":4647,"vies":4648,"Ġuren":4649,"Ġenz":4650,"Ġgelden":4651,"test":4652,"atter":4653,"Ġmeub":4654,"mans":4655,"www":4656,"Ġstrak":4657,"unning":4658,"Ġkern":4659,"Ġminimaal":4660,"Ġafspraken":4661,"Ġveld":4662,"ĠPrive":4663,"',":4664,"Ġleert":4665,"Ġregering":4666,"ringen":4667,"reep":4668,"ieuwd":4669,"Ġvorig":4670,"AS":4671,"95":4672,"Ġnab":4673,"imum":4674,"Ġterrein":4675,"ĠSport":4676,"ĠCo":4677,"Ġcontin":4678,"Ġmaal":4679,"Ġpolitieke":4680,"ografie":4681,"Ġgeorganis":4682,"ĠMisschien":4683,"raagt":4684,"ĠâĢĶ":4685,"ĠVia":4686,"zettend":4687,"sprakelijk":4688,"ĠBelgische":4689,"Ġextre":4690,"alingen":4691,"Ġmiddelen":4692,"beg":4693,"Ġvervoer":4694,"ĠKort":4695,"Ġmomenteel":4696,"Ġingred":4697,"ici":4698,"Ġfac":4699,"ĠBed":4700,"Ġtel":4701,"Ġkast":4702,"gene":4703,"Ġeiland":4704,"Ġdeb":4705,"ĠGer":4706,"achtig":4707,"Ġdem":4708,"vuldig":4709,"bers":4710,"put":4711,"ĠStichting":4712,"Ġfavoriete":4713,"BO":4714,"Ġverster":4715,"Ġgeweldig":4716,"Ġvernieuw":4717,"Ġscholen":4718,"Ġplekken":4719,"Ġabon":4720,"reda":4721,"Ġvoedings":4722,"Ġpijp":4723,"Ġtoon":4724,"Â°":4725,"Ġgelegenheid":4726,"ĠAm":4727,"Ġaankoop":4728,"Ġtoeg":4729,"Ġverblijf":4730,"ĠWet":4731,"ĠOost":4732,"Ġmoesten":4733,"Ġharde":4734,"Ġflink":4735,"Ġbodem":4736,"Ġarm":4737,"Ġrand":4738,"Ġschrift":4739,"onderzoek":4740,"gevers":4741,"bedrijven":4742,"Ġpakket":4743,"Ġfoc":4744,"Ġsamenleving":4745,"Ġbloem":4746,"ĠGebruik":4747,"Ġkopp":4748,"eden":4749,"ĠPaul":4750,"Ġdonderdag":4751,"ĠNatuurlijk":4752,"Ġkwijt":4753,"rans":4754,"Ġdaarnaast":4755,"hel":4756,"Ġstraf":4757,"rachten":4758,"Ġvriendin":4759,"Ġpopulair":4760,"ĠGroningen":4761,"Ġhangen":4762,"ilburg":4763,"ower":4764,"Ġsubsid":4765,"Ġverle":4766,"ors":4767,"Ġverwerkt":4768,"Ġopmerk":4769,"Ġwoensdag":4770,"Ġuniek":4771,"Ġontspannen":4772,"doet":4773,"warm":4774,"Ġmedic":4775,"uwe":4776,"Waar":4777,"igings":4778,"Ġcontract":4779,"Ġheet":4780,"Ġvolk":4781,"ĠCan":4782,"haven":4783,"ges":4784,"Ġofferte":4785,"Ġdagelijkse":4786,"IT":4787,"Ġaute":4788,"Ġsexy":4789,"Ġoverigens":4790,"Sp":4791,"Ġblad":4792,"wereld":4793,"Ġtegenover":4794,"El":4795,"Ġzwembad":4796,"Ġ90":4797,"Ġlab":4798,"Ġnegerin":4799,"udio":4800,"kap":4801,"raaf":4802,"ije":4803,"chines":4804,"datum":4805,"Ġproef":4806,"Ġvroeger":4807,"maak":4808,"Ġsexcontact":4809,"Ġnederlandse":4810,"Ġgemeenten":4811,"Ġzeg":4812,"sters":4813,"mere":4814,"CT":4815,"Ġconcur":4816,"Ġwinkels":4817,"ura":4818,"chen":4819,"Ġgeweldige":4820,"Ġ31":4821,"ness":4822,"icit":4823,"Ġkijkt":4824,"ĠDaarbij":4825,"Ġdre":4826,"Ġpositief":4827,"rel":4828,"Ġfabrikant":4829,"Ġpolitiek":4830,"Ã«l":4831,"Ġadvertentie":4832,"vat":4833,"Ġverbinding":4834,"Ġondersteunen":4835,"Ġverj":4836,"Ġhangt":4837,"uif":4838,"appy":4839,"ĠHand":4840,"Ġrechten":4841,"ĠBrussel":4842,"Ġondernemer":4843,"Ġhaag":4844,"ĠKle":4845,"inten":4846,"Ġsoep":4847,"schrijven":4848,"verzekering":4849,"Ġblok":4850,"ĠZoals":4851,"23":4852,"Ġhoef":4853,"schede":4854,"rand":4855,"aarden":4856,"Ġhiermee":4857,"ĠBrit":4858,"rem":4859,"iegel":4860,"richten":4861,"Ġkregen":4862,"bak":4863,"Ġtrots":4864,"Ġwerkgever":4865,".)":4866,"Ġalsof":4867,"gers":4868,"Ġontzettend":4869,"hang":4870,"Ġbegrip":4871,"persoon":4872,"rukken":4873,"Ġverwerken":4874,"Ġzand":4875,"Ġgewenste":4876,"eters":4877,"Ġmont":4878,"Ġbedien":4879,"geen":4880,"Ġopenbaar":4881,"Ġescorts":4882,"rib":4883,"Ġvrijwel":4884,"eks":4885,"Ġgesproken":4886,"Ġgezellige":4887,"adigd":4888,"ĠFranse":4889,"Ġschad":4890,"Ġaansch":4891,"Ġstoffen":4892,"alk":4893,"Ġkwal":4894,"Ġontwikkelingen":4895,"Ġtyp":4896,"Ġinvester":4897,"alm":4898,"Ġsuik":4899,"Ġbo":4900,"Ġgraf":4901,"ĠLa":4902,"feest":4903,"Ġvoorkeur":4904,"erij":4905,"kunde":4906,"Ġhoud":4907,"Ġvergro":4908,"dert":4909,"ementen":4910,"Ġdiscuss":4911,"Ġdroom":4912,"apan":4913,"Ġbord":4914,"Ġfout":4915,"heer":4916,"Ġredenen":4917,"ĠHuis":4918,"Ġtonen":4919,"Ġvrijheid":4920,"Ġsmartph":4921,"Pro":4922,"Ġonderneming":4923,"spec":4924,"inke":4925,"Ġbereikt":4926,"gekomen":4927,"Ġvoeten":4928,"din":4929,"Ġdaarin":4930,"fr":4931,"beleid":4932,"Ġexpert":4933,"Ġslachtoff":4934,"verh":4935,"Ġgeniet":4936,"Ġoriginele":4937,"Ġboer":4938,"aderen":4939,"Sch":4940,"Naast":4941,"ĠKom":4942,"ĠTweede":4943,"Ġstop":4944,"ton":4945,"ld":4946,"Ġderden":4947,"ĠStaten":4948,"halve":4949,"haald":4950,"Ġoverleden":4951,"mond":4952,"Ġduizen":4953,"boven":4954,"Ġdesk":4955,"Ġton":4956,"Ġvrijblijvend":4957,"ĠReg":4958,"acte":4959,"Ġgrens":4960,"ĠSn":4961,"merc":4962,"duid":4963,"Ġtechniek":4964,"Ġnodige":4965,"ĠâĢ¢":4966,"99":4967,"Ġvoornamelijk":4968,"hy":4969,"Ġmobiele":4970,"resident":4971,"die":4972,"Ġfles":4973,"Ġsector":4974,"ĠIJ":4975,"lees":4976,"andid":4977,"Ġbier":4978,"Ġgoedkope":4979,"Ġoppervlak":4980,"cel":4981,"Ġaanget":4982,"Ġaansprakelijk":4983,"Ġapparaat":4984,"Ġverzorgen":4985,"Ġeenmaal":4986,"Ġei":4987,"Ġ197":4988,"ĠJezus":4989,"bureau":4990,"Ġhelder":4991,"Ġhot":4992,"Ġsteen":4993,"Ġschoenen":4994,"ieter":4995,"Ġtotale":4996,"Ġboom":4997,"Ġsier":4998,"merkt":4999,"Ġkont":5000,"Ġmate":5001,"Ġkamers":5002,"Ġvrijwilligers":5003,"Ġlessen":5004,"Ġblik":5005,"ĠOpen":5006,"Ze":5007,"ĠDel":5008,"Ġinstallatie":5009,"gar":5010,"Ġgedeelte":5011,"ĠEind":5012,"Ġmethode":5013,"Ġopgericht":5014,"Ġbezorg":5015,"lijnen":5016,"ooie":5017,"Ġgarantie":5018,"loze":5019,"Ġaanleiding":5020,"Ġnieuwste":5021,"doende":5022,"Ġnag":5023,"ideo":5024,"Ġinitiatief":5025,"ema":5026,"Ġsocial":5027,"Ġuitdaging":5028,"umin":5029,"ĠSoms":5030,"Ġdinsdag":5031,"Ġpensioen":5032,"malige":5033,"65":5034,"Ġmas":5035,"Ġvliegt":5036,"ĠPers":5037,"ĠElke":5038,"ĠVr":5039,"ĠArt":5040,"ating":5041,"Ġwint":5042,"Ġtand":5043,"Ġbleef":5044,"naam":5045,"âĢĭ":5046,"Ã©l":5047,"intig":5048,"brengen":5049,"Ġwaarvoor":5050,"Ġmiddag":5051,"ĠGelukkig":5052,"Ġhttps":5053,"ĠAlles":5054,"ĠMich":5055,"zaken":5056,"Ġgeur":5057,"ĠMil":5058,"ĠBra":5059,"oorde":5060,"blemen":5061,"Ġinc":5062,"inf":5063,"Ġgeregeld":5064,"Ġ45":5065,"ĠNieuwe":5066,"Ġbehouden":5067,"Ġthee":5068,"Ġ2010":5069,"Ġafval":5070,"Ġbon":5071,"Ġonderstaande":5072,"Re":5073,"asis":5074,"ĠWereld":5075,"Ġsneeuw":5076,"essie":5077,"Ġwh":5078,"Ġinvest":5079,"Ġhuren":5080,"ĠpatiÃ«nt":5081,"ilver":5082,"ĠGrote":5083,"ĠCol":5084,"Ġuitstekende":5085,"Ġvoren":5086,"Ġvoertu":5087,"achtige":5088,"pten":5089,"Ġeerlijk":5090,"kundige":5091,"ochten":5092,"kten":5093,"mis":5094,"Ġdraaien":5095,"ĠMag":5096,"Ġreser":5097,"ĠUw":5098,"35":5099,"derij":5100,"Ġveroorzaakt":5101,"pot":5102,"ym":5103,"Ġuitsluitend":5104,"Ġgedachten":5105,"Ġ>":5106,"rika":5107,"Ġschrijft":5108,"Ġherinner":5109,"itte":5110,"Ġgezamen":5111,"gesp":5112,"Ġerbij":5113,"Ġ2011":5114,"riÃ«":5115,"Ġontbij":5116,"ĠJa":5117,"ĠRijk":5118,"Ġgeregist":5119,"Ġduurt":5120,"Gratis":5121,"Ġdownloaden":5122,"riek":5123,"cohol":5124,"Ġverloren":5125,"ĠKan":5126,"Ġmelk":5127,"olatie":5128,"Ġvanzelf":5129,"hof":5130,"Ġgemiddeld":5131,"wijz":5132,"Ġdocument":5133,"ict":5134,"Ġwandel":5135,"schuw":5136,"ĠMer":5137,"Ġgeboorte":5138,"Ġborst":5139,"Ġvereniging":5140,"Ġarts":5141,"ossen":5142,"wijze":5143,"Ġby":5144,"Ġware":5145,"Te":5146,"ork":5147,"Ġvertegenwoord":5148,"Uit":5149,"ynam":5150,"ih":5151,"Ġkeur":5152,"Ġmedische":5153,"ational":5154,"Ġla":5155,"Ġstab":5156,"Ġmezelf":5157,"Ġbrabant":5158,"Ġstro":5159,"Ġcombineren":5160,"kennen":5161,"handeling":5162,"Ġ;":5163,"Ja":5164,"eut":5165,"Ġgeorganiseerd":5166,"ĠPark":5167,"Ġbezit":5168,"Ġqua":5169,"Ġmassages":5170,"ows":5171,"Ġzachte":5172,"Ġbewegen":5173,"hone":5174,"Ġverhoog":5175,"Ġstukken":5176,"go":5177,"ĠWaarom":5178,"ankt":5179,"eloos":5180,"Ġbeschouw":5181,"Ġvaard":5182,"Ġveilige":5183,"cm":5184,"Ġcomplete":5185,"streeks":5186,"Â®":5187,"ouder":5188,"Ġhogere":5189,"ĠIsra":5190,"pol":5191,"inet":5192,"cedure":5193,"Ġzware":5194,"esp":5195,"Ġtoilet":5196,"nement":5197,"Ġadem":5198,"chtend":5199,"Ġhierdoor":5200,"gde":5201,"Ġkies":5202,"Ġkeren":5203,"vraag":5204,"Ġburger":5205,"Ġleeg":5206,"ĠKlik":5207,"Ġselectie":5208,"Ġuitger":5209,"ald":5210,"Ġopdrachtgever":5211,"Ġbomen":5212,"Ġgraden":5213,"aciteit":5214,"ruc":5215,"rimin":5216,"Ġfuncties":5217,"Ġrit":5218,"kering":5219,"aliseerd":5220,"Ġbudget":5221,"ĠSinds":5222,"Ġzogenaam":5223,"Ġzoet":5224,"Ġ500":5225,"oun":5226,"passen":5227,"Ġondanks":5228,"opl":5229,"urele":5230,"kte":5231,"Ġredelijk":5232,"ijssel":5233,"auto":5234,"kleur":5235,"ĠPart":5236,"med":5237,"Ġsleut":5238,"Ġeenvoudige":5239,"ĠWh":5240,"Ġgay":5241,"ĠFin":5242,"wijzen":5243,"Ġsociaal":5244,"ĠLeu":5245,"Ġmorgen":5246,"Ġeindhoven":5247,"wen":5248,"matige":5249,"Ġlijken":5250,"ĠMart":5251,"ĠStaat":5252,"Ġlegt":5253,"Ġcijfers":5254,"Ġheren":5255,"Ġdraad":5256,"ims":5257,"ĠingrediÃ«nten":5258,"Ġtrein":5259,"ĠVrouwen":5260,"gie":5261,"ĠSoc":5262,"Ġrespect":5263,"Ġgebruikte":5264,"Ġlichte":5265,"ĠEven":5266,"eltjes":5267,"Ã¶r":5268,".'":5269,"ala":5270,"ranje":5271,"Ġklassieke":5272,"Ġafkomst":5273,"Ġlager":5274,"Ġoverige":5275,"Ġlunch":5276,"Ġmicro":5277,"Ġtemp":5278,"bar":5279,"Ġmeet":5280,"Ġpartners":5281,"Ġverwarm":5282,"Ġinkomen":5283,"iens":5284,"Ġaanbieden":5285,"ologisch":5286,"Ġriv":5287,"Ġheden":5288,"Ġbang":5289,"houders":5290,"isterie":5291,"Ġslapen":5292,"Ġadviseren":5293,"oma":5294,"Ġavont":5295,"Ġhuizen":5296,"Ġvirus":5297,"Ġkor":5298,"Ġgekocht":5299,"Ġnoem":5300,"elect":5301,"Ġaanvragen":5302,"Ġaangepast":5303,"bergen":5304,"ĠWater":5305,"Ġvoorzitter":5306,"Ġbestemd":5307,"Ġaccessoires":5308,"Ġaangegeven":5309,"Ġbalans":5310,"Ġbeffen":5311,"appar":5312,"Ġspullen":5313,"Ġcompet":5314,"uliere":5315,"Ġreacties":5316,"Ġvullen":5317,"Ġgren":5318,"ageren":5319,"Ch":5320,"Ġdaarop":5321,"Ġcorona":5322,"IJ":5323,"ĠKies":5324,"Ġdis":5325,"Ġrechtbank":5326,"Ġverlies":5327,"afÃ©":5328,"Ġdrank":5329,"ĠUS":5330,"Ġeindelijk":5331,"Ġochtend":5332,"anje":5333,"Ġuitleg":5334,"Ġbeschrij":5335,"Ġgevangen":5336,"slaan":5337,"Ġdaadwerk":5338,"66":5339,"Ġdeuren":5340,"aardag":5341,"Ġkorting":5342,"alisatie":5343,"Ġzomaar":5344,"Ġbestand":5345,"ana":5346,"Ġlengte":5347,"amine":5348,"Ġaangezien":5349,"Ġgoederen":5350,"omein":5351,"ĠHoog":5352,"ĠEd":5353,"ĠAb":5354,"ankelijke":5355,"Ġverpakt":5356,"Nu":5357,"ye":5358,"Ġverde":5359,"Ar":5360,"oost":5361,"voering":5362,"uminium":5363,"plant":5364,"middag":5365,"Ġtraditionele":5366,"Ġindividuele":5367,"entieel":5368,"anne":5369,"ructie":5370,"Ġneuk":5371,"ĠPe":5372,"Ġwagen":5373,"Ġhers":5374,"Ġtoel":5375,"ĠSy":5376,"ontwikkel":5377,"ĠVooral":5378,"gebouwd":5379,"Ġconcept":5380,"owel":5381,"Ġontwerpen":5382,"Ġbeschikking":5383,"Ġbereid":5384,"ament":5385,"ĠDankzij":5386,"ĠDr":5387,"Ġsnelheid":5388,"Ġbevatten":5389,"Ġimpact":5390,"Ġhaal":5391,"vloer":5392,"Ã³Ã³r":5393,"Ġvoorbeelden":5394,"Ġvacat":5395,"Ġverrassen":5396,"zi":5397,"Ġbeschikken":5398,"Ġpassie":5399,"ĠKonink":5400,"27":5401,"Ġvro":5402,"reis":5403,"ĠEscort":5404,"oging":5405,"sd":5406,"ĠHierbij":5407,"Ġinspiratie":5408,"Ġtrouwens":5409,"Ġherstel":5410,"Ġverandering":5411,"oken":5412,"Ġstemmen":5413,"DA":5414,"Ġkansen":5415,"Ġraken":5416,"Ġappartement":5417,"Ġnaakt":5418,"bi":5419,"Ġpriveontvangst":5420,"ĠEer":5421,"Ġkoning":5422,"zocht":5423,"itair":5424,"hoe":5425,"ĠDes":5426,"ĠHoewel":5427,"Ġtool":5428,"eltje":5429,"Ġgemeent":5430,"Ġnauwelijks":5431,"Ġtaak":5432,"prof":5433,"Ġ=":5434,"zoals":5435,"Ġab":5436,"Ġbetekenis":5437,"Ġnaakte":5438,"Ġgeluk":5439,"Ġdoorgaan":5440,"Ġschrijf":5441,"ĠGoed":5442,"Ġdatings":5443,"Ġcontent":5444,"Ġtrek":5445,"ften":5446,"aptop":5447,"Ġnummers":5448,"geleverd":5449,"Ġgecon":5450,"Ġverkie":5451,"ĠTop":5452,"ĠAir":5453,"ĠVlaamse":5454,"adat":5455,"Ġtrekt":5456,"ĠKn":5457,"Ġpublic":5458,"Ġmakkelijker":5459,"Ġlas":5460,"Ġgecom":5461,"Ġpand":5462,"Ġonderwerpen":5463,"spar":5464,"Ġreview":5465,"Ġbehoorlijk":5466,"reerde":5467,"zers":5468,"Ġenig":5469,"cor":5470,"ĠWillem":5471,"gebracht":5472,"Is":5473,"anties":5474,"Ġinstellingen":5475,"uiven":5476,"ranche":5477,"obby":5478,"Le":5479,"ique":5480,"ĠKoop":5481,"Ġspecialist":5482,"Ġrelatief":5483,"ĠPort":5484,"wand":5485,"ads":5486,"ĠSk":5487,"Ġconcurr":5488,"urgers":5489,"Ġonderhouden":5490,"Ġafdeling":5491,"ĠNeuken":5492,"ĠMassage":5493,"ĠVrij":5494,"una":5495,"Ġeconomische":5496,"kleding":5497,"Ġingezet":5498,"Ġverdiep":5499,"Ġdirecteur":5500,"Ġspreekt":5501,"daagse":5502,"Ġtoegankelijk":5503,"ous":5504,"ĠKe":5505,"Ġlevering":5506,"Ġtransport":5507,"Ġgewone":5508,"ĠBuiten":5509,"uste":5510,"cepten":5511,"atieven":5512,"iÃ«ren":5513,"raan":5514,"Ġdoelen":5515,"formulier":5516,"Ġbrede":5517,"itaire":5518,"Ġdraait":5519,"laag":5520,"uf":5521,"ĠMo":5522,"ĠUiter":5523,"Ġopties":5524,"activiteit":5525,"teg":5526,"fil":5527,"Ġvormt":5528,"langs":5529,"ĠBet":5530,"Ġhandige":5531,"Ġnormale":5532,"oloog":5533,"Ġuiterlijk":5534,"Ġwest":5535,"Ġrekenen":5536,"Ġrichten":5537,"Ġuitbre":5538,"Ġgram":5539,"Ġbevolking":5540,"Ġgod":5541,"Ġcamping":5542,"yle":5543,"Ġbestel":5544,"ublic":5545,"voet":5546,"pat":5547,"Ġsing":5548,"olpen":5549,"Ġgespeeld":5550,"Ġwoonkamer":5551,"Ġwegen":5552,"Ġdel":5553,"ĠOnline":5554,"Ġgeslacht":5555,"ukt":5556,"Ġzout":5557,"entiÃ«le":5558,"schil":5559,"Ġevenement":5560,"Ġvisie":5561,"Ġintegr":5562,"Ġafd":5563,"Ġhuwelijk":5564,"Ġgenees":5565,"pens":5566,"Ġtoegevoegd":5567,"Ġverantwoordelijkheid":5568,"Ġpraktische":5569,"Ġuitst":5570,"leed":5571,"ionele":5572,"ĠBest":5573,"Ġbeneden":5574,"lig":5575,"Ġding":5576,"Ġgeopend":5577,"Ġeconomie":5578,"Ġprettig":5579,"28":5580,"bron":5581,"EO":5582,"Ġgene":5583,"Ġtesten":5584,"zijds":5585,"Ġvru":5586,"ĠChina":5587,"Ġterugk":5588,"uziek":5589,"bescherm":5590,"ĠVaak":5591,"Ġcomfortabel":5592,"ĠNog":5593,"Ġesc":5594,"ervic":5595,"Ġhopen":5596,"gemeester":5597,"Ġhistorische":5598,"ugen":5599,"Ġerotiek":5600,"Ġsyn":5601,"Ġverwerking":5602,"ouch":5603,"Ġnijmegen":5604,"ĠWerk":5605,"Ġpopulaire":5606,"Ġmix":5607,"Ġhum":5608,"Ġbestemming":5609,"Ġmobiel":5610,"Ġverminder":5611,"Ġindustrie":5612,"ĠPas":5613,"ĠOl":5614,"Ġul":5615,"Ġinteresse":5616,"Ġmy":5617,"Ġlandschap":5618,"ĠLet":5619,"ĠBre":5620,"Ġrecl":5621,"Ġzol":5622,"ĠAll":5623,"ĠSuper":5624,"Ġregelen":5625,"Ġmomenten":5626,"Ġklas":5627,"ĠHeeft":5628,"Ġgeleid":5629,"Ġduidelijke":5630,"EM":5631,"aler":5632,"Ġcontacten":5633,"kwaliteit":5634,"rukte":5635,"Ġvent":5636,"back":5637,"ĠVervolgens":5638,"Ġgaten":5639,"affen":5640,"boom":5641,"Ġbehoren":5642,"Ġoven":5643,"Ġgevolgd":5644,"Ġoptim":5645,"iat":5646,"Ġgame":5647,"Kl":5648,"aven":5649,"Ġingericht":5650,"ĠLekker":5651,"Ġgespecialiseerd":5652,"Ġmachine":5653,"Ġnationale":5654,"Ġcommerc":5655,"Ġmuseum":5656,"ikel":5657,"Ġakk":5658,"ott":5659,"atting":5660,"Ġdouche":5661,"Ġ2009":5662,"Ġnogal":5663,"Ġaangev":5664,"Ġalcohol":5665,"Ġprint":5666,"foon":5667,"row":5668,"ĠAp":5669,"Ġinterview":5670,"Ġann":5671,"Ġlangzaam":5672,"Ġsituaties":5673,"iefde":5674,"75":5675,"aastricht":5676,"arief":5677,"Ġverdere":5678,"Ġlied":5679,"Ġlat":5680,"26":5681,"Ġneukt":5682,"Ġpub":5683,"Ġneus":5684,"verde":5685,"Ġopvallen":5686,"Ġdun":5687,"Ġkook":5688,"Ġgebieden":5689,"Ġeigenschappen":5690,"Ġlesbische":5691,"bus":5692,"Ġalbum":5693,"Ġaanvullen":5694,"Ġopa":5695,"groepen":5696,"gevoel":5697,"waardig":5698,"Ġcit":5699,"Ġslechte":5700,"agram":5701,"Ġkool":5702,"Ġluisteren":5703,"Ġafw":5704,"):":5705,"Ġhoeven":5706,"ĠZod":5707,"organisatie":5708,"Ġreageren":5709,"âĢĵ":5710,"ĠUiteraard":5711,"Ġalvast":5712,"Ġrein":5713,"Ġeffectief":5714,"Ġstructuur":5715,"kamp":5716,"ieuze":5717,"houds":5718,"ĠgeÃ¯":5719,"Ġbureau":5720,"war":5721,"Ġgebouwen":5722,"Ġoorzaak":5723,"Ġvolwassenen":5724,"wedst":5725,"Ġsymb":5726,"Ġgebruiker":5727,"vereniging":5728,"Ġdans":5729,"Ġteksten":5730,"Ġdefinities":5731,"Ġbehandeld":5732,"Ġstation":5733,"Ġeveneens":5734,"Ġontmoeten":5735,"Ġbereken":5736,"ith":5737,"itor":5738,"omgeving":5739,"Ġberichten":5740,"Ġkandid":5741,"Ġklinkt":5742,"Ġbespreken":5743,"ĠPeter":5744,"Ġvervang":5745,"Ġuitstekend":5746,"ronische":5747,"elaar":5748,"Ġref":5749,"Ġvierde":5750,"Ġopening":5751,"Ġeruit":5752,"aanb":5753,"Ġhete":5754,"Ġverjaardag":5755,"stens":5756,"ĠJac":5757,"Ġviel":5758,"Ġoordeel":5759,"onk":5760,"Ġspoor":5761,"Ġsmartphone":5762,"IV":5763,"ĠRob":5764,"Ġgeloven":5765,"Ġrob":5766,"stem":5767,"Ġspoed":5768,"Ġmeen":5769,"Ġklus":5770,"uwen":5771,"foort":5772,"Ġmilf":5773,"Hij":5774,"Ġzui":5775,"Ġaangesloten":5776,"ream":5777,"roffen":5778,"Ġbatter":5779,"ining":5780,"Ġnabij":5781,"Ġtelefon":5782,"pakket":5783,"ĠgeÃ¯nter":5784,"immer":5785,"Ġfre":5786,"Volgens":5787,"Ġopenbare":5788,"uru":5789,"Ġtaken":5790,"Ġreeks":5791,"Ġuitspraak":5792,"Ġpijpbeurt":5793,"Ġbevor":5794,"gif":5795,"gestelde":5796,"materiaal":5797,"Nederland":5798,"Ġevenementen":5799,"Ġmedewerker":5800,"Ġtegelijkertijd":5801,"Ġkust":5802,"Ġfig":5803,"Ġvingeren":5804,"Ġvijft":5805,"Ġpaard":5806,"Ġcentrale":5807,"Ġboeren":5808,"uy":5809,"maakt":5810,"Ġaccept":5811,"ĠJapan":5812,"diensten":5813,"Ġmuzik":5814,"Ġzogenaamde":5815,"Ġijs":5816,"Ġmaten":5817,"ript":5818,"ĠLimburg":5819,"Ġarchitect":5820,"Ġchem":5821,"Ġonmiddel":5822,"Ġ2008":5823,"Ġverlichting":5824,"Ġlaptop":5825,"Ġchatten":5826,"ions":5827,"The":5828,"Ġkaarten":5829,"Ġgebruiks":5830,"rok":5831,"Ġcomplex":5832,"Ġelementen":5833,"Ġwezen":5834,"Ġwettelijke":5835,"maker":5836,"Ġdame":5837,"Ġtoevoegen":5838,"Ġstoel":5839,"Ġstevig":5840,"achter":5841,"Ġprincipe":5842,"44":5843,"ube":5844,"ĠOns":5845,"ĠAntwerpen":5846,"zon":5847,"ĠMocht":5848,"Ġbewijs":5849,"vrouwen":5850,"oorlog":5851,"Ġleek":5852,"EG":5853,"ipp":5854,"Ġbijdragen":5855,"Ġtap":5856,"Ġ75":5857,"Ġontbijt":5858,"breng":5859,"Ġslaan":5860,"bruik":5861,"tel":5862,"Ġbenieuwd":5863,"Ġopenen":5864,"PS":5865,"Ġcadeau":5866,"ĠZeker":5867,"Ġjurid":5868,"Ġtechnieken":5869,"herapeut":5870,"Ġvoorstellen":5871,"ductie":5872,"anciers":5873,"Ġlamp":5874,"da":5875,"Ġdubbel":5876,"gek":5877,"akers":5878,"post":5879,"Ġvoordel":5880,"Ġcode":5881,"Ġbuik":5882,"Ġfysieke":5883,"prob":5884,"ĠFrans":5885,"Ġtrap":5886,"riet":5887,"ĠJohn":5888,"Ġwoont":5889,"Ġcontroleren":5890,"Ġbetaalt":5891,"Ġmelden":5892,"panelen":5893,"Ġ150":5894,"Ġknap":5895,"ulden":5896,"Ġliep":5897,"ĠKerk":5898,"Ġveg":5899,"ikk":5900,"ĠvÃ³Ã³r":5901,"Ġwijven":5902,"uck":5903,"Ġgebrek":5904,"sbr":5905,"33":5906,"Ġklasse":5907,"Ġbesparen":5908,"ical":5909,"Ġshop":5910,"Ġdonkere":5911,"schoenen":5912,"ĠCas":5913,"Ġraam":5914,"rood":5915,"alve":5916,"agno":5917,"ijm":5918,"ĠSur":5919,"ilen":5920,"werkers":5921,"ĠGra":5922,"Ġontst":5923,"eca":5924,"ĠMax":5925,"gs":5926,"Ġdek":5927,"dur":5928,"Ġcrisis":5929,"ĠSim":5930,"Ġvergelijking":5931,"aker":5932,"Ġheil":5933,"Ġzwolle":5934,"Ġverdienen":5935,"ĠMa":5936,"Ġgebeurten":5937,"ĠBrand":5938,"Ġ2000":5939,"Ġaanbiedingen":5940,"ollen":5941,"ĠYou":5942,"Ġill":5943,"Ġlocaties":5944,"Ġkruis":5945,"Ġuiteen":5946,"Ġklik":5947,"ulaire":5948,"Ġopzichte":5949,"Ġzeeland":5950,"eukt":5951,"autom":5952,"Ġsterren":5953,"Ġnetjes":5954,"zins":5955,"producten":5956,"Ġtoont":5957,"avirus":5958,"Ġopbouw":5959,"produc":5960,"ĠTevens":5961,"abele":5962,"Ġverzamelen":5963,"Ġmaximale":5964,"Ġouderen":5965,"Ġzonn":5966,"partij":5967,"Ġtrend":5968,"Ġnutt":5969,"ĠHelaas":5970,"genda":5971,"Ġcal":5972,"ĠThuis":5973,"station":5974,"ĠTV":5975,"ĠColle":5976,"Ġgolf":5977,"the":5978,"oegde":5979,"Ġopgel":5980,"Ġwandelen":5981,"lam":5982,"Ġdecor":5983,"chat":5984,"--":5985,"ĠIS":5986,"Ġpaarden":5987,"Ġoptimale":5988,"ca":5989,"Ġaluminium":5990,"ĠDon":5991,"rechten":5992,"Ġoffertes":5993,"Ġboodschap":5994,"Ġchocol":5995,"Ġverwijderd":5996,"Ġjaarlijks":5997,"ĠOosten":5998,"Ġbeslissing":5999,"kerk":6000,"Ġinzetten":6001,"Ġintro":6002,"Ġwedstrijden":6003,"ĠPat":6004,"Ġoverst":6005,"undig":6006,"ĠVerenigde":6007,"Ġabsoluut":6008,"Ġbox":6009,"Pl":6010,"Ġmiljard":6011,"Ġteveel":6012,"Ġsystemen":6013,"Ġvoldoet":6014,"ĠLED":6015,"Ġgeheim":6016,"Ġtwintig":6017,"pas":6018,"Ġtoezicht":6019,"ĠHeel":6020,"ĠRes":6021,"Ġformulier":6022,"Ġlood":6023,"Ġinteressante":6024,"Ġexter":6025,"Ġhierover":6026,"Ġcommunic":6027,"Ġdaadwerkelijk":6028,"Ġomzet":6029,"stoel":6030,"ĠIsraÃ«l":6031,"Ġdiscussie":6032,"Ġ123":6033,"alon":6034,"Ġfase":6035,"Ġknop":6036,"Ġlogo":6037,"Ġhappy":6038,"Ġbeleven":6039,"Ġlach":6040,"chte":6041,"Ġvoelde":6042,"Ġgezondheids":6043,"ĠVlaanderen":6044,"ĠEngels":6045,"denk":6046,"ĠiPhone":6047,"overeenkomst":6048,"âĢ¦.":6049,"informatie":6050,"inky":6051,"VV":6052,"Ġgeholpen":6053,"ife":6054,"ĠGroot":6055,"ĠDag":6056,"Ġraakt":6057,"rieven":6058,"ĠMidd":6059,"aft":6060,"Ġwaarna":6061,"Ġingev":6062,"fab":6063,"orno":6064,"Ġgemak":6065,"Ġburgers":6066,"ĠÂ»":6067,"result":6068,"mpt":6069,"Ġprobeert":6070,"spreken":6071,"Ġlangere":6072,"Ġvolop":6073,"Ġslaapkamer":6074,"29":6075,"ham":6076,"ales":6077,"voorzien":6078,"Indien":6079,"rÃ¨":6080,"Ġbereikbaar":6081,"stijd":6082,"ora":6083,"ĠWind":6084,"Ġonzeker":6085,"Ġgenoemde":6086,"Ġschak":6087,"inese":6088,"ĠKar":6089,"Ġner":6090,"iciteit":6091,"ĠbeÃ¯n":6092,"foto":6093,"Ġeene":6094,"Ġam":6095,"Ġ300":6096,"Ġwereldwijd":6097,"Ġsuiker":6098,"Ġklacht":6099,"Ġtas":6100,"Ġrente":6101,"cy":6102,"Ġenthousiast":6103,"Ġschip":6104,"broek":6105,"controle":6106,"Ġstraks":6107,"Ġvaardigheden":6108,"Ġgedacht":6109,"empl":6110,"Ġaanpass":6111,"Ġvastgesteld":6112,"Ġschuld":6113,"Ġkunststof":6114,"ultuur":6115,"Ġmaatschappij":6116,"Ġbeschreven":6117,"Ġonvol":6118,"Ġveranderingen":6119,"sver":6120,"ini":6121,"Ġitem":6122,"zee":6123,"âĤ¬":6124,"riÃ¨re":6125,"bord":6126,"Ġvoorsp":6127,"Ġkar":6128,"Ġdichter":6129,"iezen":6130,"oods":6131,"arieven":6132,"Ġbehandelen":6133,"Ġerin":6134,"Ġstevige":6135,"kmaar":6136,"ĠVerk":6137,"ikke":6138,"Ġanti":6139,"ĠVS":6140,"Ġzwangerschap":6141,"Ġkeuzes":6142,"Ġbelangen":6143,"01":6144,"Ġzelfstandig":6145,"Holland":6146,"Ġafsche":6147,"ĠEindhoven":6148,"ĠKen":6149,"woning":6150,"osc":6151,"eck":6152,"Ġgerechten":6153,"Ġaandoen":6154,"Ġrechtstreeks":6155,"iere":6156,"Ġlook":6157,"zinn":6158,"Ġverliezen":6159,"ĠUniversiteit":6160,"Ġzorgvuldig":6161,"ĠMensen":6162,"ella":6163,"ĠHiermee":6164,"Ġblauwe":6165,"staand":6166,"ituut":6167,"nodig":6168,"schriften":6169,"utten":6170,"Ġmaatschappelijke":6171,"ony":6172,"Ġwerkelijk":6173,"Ġstrategie":6174,"vingen":6175,"Bl":6176,"Ġpassende":6177,"Ġkoud":6178,"ĠVal":6179,"erkant":6180,"mersfoort":6181,"Ġkwest":6182,"istisch":6183,"boeken":6184,"Ġdert":6185,"Ġverdeeld":6186,"Ġbedoeling":6187,"Ġmel":6188,"Ġomhoog":6189,"Ġaanbie":6190,"Ġment":6191,"ĠIedereen":6192,"ĠIntern":6193,"Ġdienstverlening":6194,"dating":6195,"geet":6196,"Ġuitdruk":6197,"Ã©t":6198,"ĠDi":6199,"Ġ06":6200,"ĠFr":6201,"Ġfilmpje":6202,"Heeft":6203,"Ġtrainingen":6204,"Ġkruiden":6205,"aads":6206,"weet":6207,"ĠBijvoorbeeld":6208,"Ġsuccesvol":6209,"Ġhandel":6210,"Ġgehaald":6211,"aardoor":6212,"Ġtijdelijk":6213,"Ġversl":6214,"Ġschaal":6215,"ĠVen":6216,"ĠSpanje":6217,"ĠGent":6218,"Ġverlaten":6219,"positie":6220,"Ġaank":6221,"Ġomt":6222,"lin":6223,"Ġafgesloten":6224,"Ġfocus":6225,"nam":6226,"Ġaanmerk":6227,"Ġakkoord":6228,"leider":6229,"Ġconcent":6230,"Ġtentoon":6231,"Ġalweer":6232,"Ġgereed":6233,"ĠIT":6234,"Ġdist":6235,"ĠProf":6236,"Ġtijdje":6237,"Wilt":6238,"Ġsporten":6239,"Ã¶rdin":6240,"ĠTurk":6241,"ĠBeg":6242,"ĠComp":6243,"Ġplus":6244,"Ġineens":6245,"Veel":6246,"Ġconsument":6247,"Ġeffecten":6248,"BS":6249,"Ġjourn":6250,"Ġabonnement":6251,"reng":6252,"Ġactieve":6253,"Die":6254,"ada":6255,"Ġtoegepast":6256,"ĠBos":6257,"RA":6258,"Ġteams":6259,"bli":6260,"Ġeditie":6261,"speel":6262,"Ġloon":6263,"Ġnegatieve":6264,"Ġvoorkomt":6265,"Ġbergen":6266,"Ġprestaties":6267,"Ġgesprekken":6268,"Ġhoer":6269,"Ġaanpassen":6270,"Ġvergoeding":6271,"weging":6272,"schen":6273,"vragen":6274,"Ġaansluit":6275,"Ġidentiteit":6276,"PN":6277,"ĠJul":6278,"Ġbese":6279,"ermeer":6280,"ziet":6281,"ervaring":6282,"ommod":6283,"Ġhoogwaardige":6284,"Ġkol":6285,"Ġzakelijke":6286,"Ġgehoord":6287,"Ġwerknemer":6288,"Ġgrij":6289,"ĠBur":6290,"Ġstonden":6291,"periode":6292,"hebbers":6293,"Ã¤":6294,"uters":6295,"ĠFor":6296,"Ġsta":6297,"Ġtoegestaan":6298,"Ġwerkte":6299,"Ġbinnenkort":6300,"ollicit":6301,"ĠNat":6302,"hent":6303,"Ġtax":6304,"duur":6305,"Ġyog":6306,"Ġspecifiek":6307,"Ġwijf":6308,"Ġgemeenschap":6309,"rass":6310,"Ġfit":6311,"Ġvoorstel":6312,"rop":6313,"indien":6314,"Ġdubbele":6315,"ĠâĢĭ":6316,"ĠJon":6317,"Ġopslag":6318,"ĠSommige":6319,"Sinds":6320,"38":6321,"Ġgelezen":6322,"rediet":6323,"Ġbetrouwbare":6324,"ĠRad":6325,"Ġwonder":6326,"ĠTegen":6327,"Ġprofessioneel":6328,"Ġopgeslagen":6329,"nacht":6330,"dy":6331,"Ġvoortd":6332,"zin":6333,"ffe":6334,"Ġadministratie":6335,"ificatie":6336,"Ġwandeling":6337,"Ġradio":6338,"Ġgeneukt":6339,"chem":6340,"Ieder":6341,"ters":6342,"gifte":6343,"pijn":6344,"zaal":6345,"Ġstaal":6346,"genen":6347,"ĠHen":6348,"Ġfan":6349,"Ġtranspar":6350,"Ġvoorlop":6351,"gevende":6352,"gratis":6353,"ĠofficiÃ«le":6354,"belasting":6355,"week":6356,"Ġschr":6357,"Ġbelast":6358,"Ġtij":6359,"Ġrelig":6360,"Ġafkomstig":6361,"Ġbeant":6362,"Ġhalve":6363,"ĠRen":6364,"Ġball":6365,"Ġlandbouw":6366,"akte":6367,"hankelijke":6368,"Ġtelefoonnummer":6369,"Ġgestart":6370,"ĠZelfs":6371,"ĠNederlanders":6372,"Ġalternatief":6373,"Ġalsnog":6374,"Ġenschede":6375,"IE":6376,"Wie":6377,"Ġadressen":6378,"CO":6379,"Ġleest":6380,"play":6381,"kantoor":6382,"Ġreage":6383,"Ġofficieel":6384,"ush":6385,"ola":6386,"front":6387,"ĠWilt":6388,"ouders":6389,"Ġfriesland":6390,"metingen":6391,"Ġversn":6392,"gebieden":6393,"Ġhaven":6394,"Ġtelkens":6395,"tuin":6396,"Ġbehoort":6397,"ĠApple":6398,"mailadres":6399,"Ġir":6400,"sem":6401,"Ġveranderd":6402,"Ġherstellen":6403,"Ġkwets":6404,"Ġonbed":6405,"vrije":6406,"Ġec":6407,"genoot":6408,"wicht":6409,"vermogen":6410,"Ġacties":6411,"Ġgisteren":6412,"iende":6413,"ulatie":6414,"Ġhierin":6415,"poort":6416,"ĠDoe":6417,"beek":6418,"Ġaandeel":6419,"lopende":6420,"werker":6421,"icus":6422,"ĠdÃ©":6423,"vo":6424,"uden":6425,"Ġvonden":6426,"Ġbracht":6427,"Ġblote":6428,"rische":6429,"aders":6430,"Ġaccommod":6431,"splan":6432,"ĠHoge":6433,"Ġfactoren":6434,"gerecht":6435,"ĠOude":6436,"Ġvolgend":6437,"films":6438,"Wel":6439,"gelaten":6440,"Ġwetenschap":6441,"ĠWelke":6442,"urend":6443,"idings":6444,"Ġgebeurd":6445,"Ġhigh":6446,"oelens":6447,"Ġverzekering":6448,"Ġdoelgroep":6449,"ĠVraag":6450,"curs":6451,"Ġverklaring":6452,"Ġgrenzen":6453,"Ġyou":6454,"som":6455,"Ġbanden":6456,"Ġzodra":6457,"Ġbetekenen":6458,"steun":6459,"Ġcreatieve":6460,"Ġimm":6461,"Ġmanagement":6462,"Ġhaarlem":6463,"Ġgras":6464,"vloeden":6465,"schade":6466,"Ġanalys":6467,"acter":6468,"Ġbeleg":6469,"ĠNaar":6470,"Ġchrist":6471,"loge":6472,"Omdat":6473,"wisseling":6474,"ket":6475,"eni":6476,"Ġsteken":6477,"ĠAt":6478,"noot":6479,"Ġconsumenten":6480,"Ġfilter":6481,"Ġprobeer":6482,"Ġrom":6483,"Ġexterne":6484,"Ġur":6485,"Ġbegeleiden":6486,"Ġsupermarkt":6487,"sbrief":6488,"ĠMicro":6489,"ĠBouw":6490,"vd":6491,"Ġglazen":6492,"Ġharte":6493,"ĠHieronder":6494,"Ġcontinu":6495,"100":6496,"Ġtheorie":6497,"erland":6498,"ĠSeks":6499,"Ġvreemd":6500,"plek":6501,"Ġscherp":6502,"Ġontdekt":6503,"Ġschitt":6504,"Ġmor":6505,"Ġgevel":6506,"Ġonbesch":6507,"ĠBlack":6508,"Ġdigitaal":6509,"Ġonderweg":6510,"ĠPhil":6511,"behoren":6512,"anda":6513,"keren":6514,"Ġtotdat":6515,"Ġ2007":6516,"ĠHou":6517,"Ġcollege":6518,"regeling":6519,"Ġrestaurants":6520,"Ġadvocaat":6521,"Vanaf":6522,"Ġbesteld":6523,"Ġprofessionals":6524,"atform":6525,"Ġroze":6526,"Â²":6527,"Ġ196":6528,"ĠBV":6529,"Ġverminderen":6530,"??":6531,"Ġopst":6532,"Ġtheater":6533,"unn":6534,"Ġbevoegd":6535,"sens":6536,"sector":6537,"Ġminstens":6538,"beste":6539,"Ġtelevisie":6540,"ensie":6541,"ep":6542,"Ġgeneratie":6543,"Ġdos":6544,"ĠHem":6545,"ovatie":6546,"neemt":6547,"Ġhant":6548,"Ġlukt":6549,"arde":6550,"Ġnauwkeur":6551,"Ġaansluiting":6552,"Ġkleinere":6553,"werkingen":6554,"landse":6555,"genoten":6556,"ĠSol":6557,"Zoals":6558,"Ġplaatsvinden":6559,"Ġwol":6560,"Ġtoestel":6561,"Ġverkrijgen":6562,"Ġregeling":6563,"Ġgok":6564,"Niet":6565,"Ġbusiness":6566,"ĠZonder":6567,"ĠRec":6568,"Ġspeler":6569,"Ġagenda":6570,"fst":6571,"Ġjammer":6572,"âĢ¢":6573,"Ġconclus":6574,"Ġvoegen":6575,"Ġspeelde":6576,"verkl":6577,"Ġ195":6578,"Ġonderscheiden":6579,"iber":6580,"Ġbezwaar":6581,"ustral":6582,"Ġpresident":6583,"Ġkoken":6584,"rekening":6585,"ĠItaliÃ«":6586,"Ġbrow":6587,"Ġkabinet":6588,"ĠSpec":6589,"irect":6590,"la":6591,"ING":6592,"Ġsubsidie":6593,"ize":6594,"ley":6595,"Ġonderling":6596,"undigen":6597,"iteindelijk":6598,"zam":6599,"Ġarnhem":6600,"ĠGroen":6601,"Ġsleutel":6602,"eet":6603,"ĠgeÃ¯nteress":6604,"Ġstichting":6605,"Ġprim":6606,"Ġhypotheek":6607,"gress":6608,"pels":6609,"Ġhandelen":6610,"ĠZee":6611,"Ġ36":6612,"ĠChristus":6613,"Ġprofit":6614,"Ġlandelijke":6615,"ĠHun":6616,"Ġzijde":6617,"Ġonmiddellijk":6618,"Ġbenodig":6619,"Ġno":6620,"Ġglad":6621,"Ġsa":6622,"48":6623,"Ġfinancieel":6624,"ĠJer":6625,"VD":6626,"Ġverstand":6627,"Ġ)":6628,"Ġwijzen":6629,"rijding":6630,"Ġspecialisten":6631,"Ġvereist":6632,"tw":6633,"Ġinb":6634,"Ġluid":6635,"Ġvul":6636,"ĠVolks":6637,"Ġtekort":6638,"Ġapparaten":6639,"Ġthai":6640,"su":6641,"eldoorn":6642,"schot":6643,"lucht":6644,"sje":6645,"ĠEigen":6646,"zichtig":6647,"oint":6648,"ĠChar":6649,"Ġlossen":6650,"rieken":6651,"Ġverstandig":6652,"special":6653,"Ġapart":6654,"Ġactuele":6655,"dorp":6656,"Ġbrug":6657,"ume":6658,"Ġverse":6659,"ukken":6660,"Ġgeleerd":6661,"Ġzuur":6662,"Ġbehalve":6663,"Ġpodium":6664,"retaris":6665,"mogelijkheden":6666,"inning":6667,"ĠIN":6668,"Ġuitgang":6669,"Ġgekeken":6670,"Ġvoorzieningen":6671,"31":6672,"Ġgewonnen":6673,"Ġstam":6674,"Ġcompon":6675,"Ġzagen":6676,"rs":6677,"Ġinstantie":6678,"-)":6679,"ronen":6680,"Ġbewaren":6681,"Ġvideos":6682,"Ġpraat":6683,"Ġserieus":6684,"Ġend":6685,"Ġexempl":6686,"Ġbroek":6687,"nie":6688,"valu":6689,"Ġonderhouds":6690,"Ġverhuur":6691,"Ġkale":6692,"Ġrook":6693,"ĠDaarmee":6694,"Daarnaast":6695,"Ġverandert":6696,"orde":6697,"Ġbetaalde":6698,"Ġdra":6699,"artsen":6700,"ĠGal":6701,"niveau":6702,"route":6703,"AC":6704,"ba":6705,"ruis":6706,"gewicht":6707,"Ġwilden":6708,"Ġverzekerd":6709,"ĠAmerika":6710,"ĠOff":6711,"paste":6712,"wongen":6713,"Ġselect":6714,"ĠSa":6715,"Ġdivers":6716,"irtu":6717,"Ġmagaz":6718,"Ġhoewel":6719,"ĠMuseum":6720,"Ġhomo":6721,"even":6722,"!)":6723,"bliotheek":6724,"Ġonafhankelijk":6725,"Ġmodern":6726,"Ġopgev":6727,"Ġcertific":6728,"Ġpromot":6729,"asme":6730,"Ġvaccin":6731,"Ġslaaf":6732,"Ġspanning":6733,"riter":6734,"ii":6735,"ĠTele":6736,"Ġdynam":6737,"Ġextreem":6738,"Ġwakker":6739,"Ġkwalit":6740,"perk":6741,"Ġzus":6742,"etters":6743,"Ġletterlijk":6744,"voorwaarden":6745,"Ġuniversiteit":6746,"eth":6747,"va":6748,"rad":6749,"ĠVanuit":6750,"Ġvariant":6751,"iten":6752,"Ġlangdur":6753,"Toen":6754,"ĠDav":6755,"Ġkaas":6756,"NL":6757,"indingen":6758,"ocr":6759,"Ġexpl":6760,"Ġomgaan":6761,"gy":6762,"Ġingang":6763,"oris":6764,"ĠHof":6765,"Ġvuil":6766,"ulieren":6767,"Ġwerkelijkheid":6768,"xx":6769,"Ġzekerheid":6770,"Ġvagina":6771,"Ġanalyse":6772,"Ġantwoorden":6773,"Ġbepaalt":6774,"Ġkanten":6775,"IP":6776,"Ġfisc":6777,"ĠGemeen":6778,"ĠGods":6779,"ĠRed":6780,"Ġvliegen":6781,"bescherming":6782,"Ġtegenst":6783,"Ġkrachtige":6784,"Ġgelegd":6785,"ructies":6786,"plement":6787,"Ġeiwit":6788,"ĠTechn":6789,"centage":6790,"loc":6791,"Ġboet":6792,"macht":6793,"ags":6794,"Ġsympt":6795,"Ġrivier":6796,"Ġvanavond":6797,"Ġverdachte":6798,"Ġhaalt":6799,"achel":6800,"vig":6801,"Ġopdrachten":6802,"Ġfeiten":6803,"imm":6804,"ney":6805,"36":6806,"elat":6807,"Ġaccu":6808,"obs":6809,"Ġblijf":6810,"ĠItaliaanse":6811,"Ġzaal":6812,"elder":6813,"making":6814,"Ġwon":6815,"groeid":6816,"ijns":6817,"Ġcol":6818,"Ġverdieping":6819,"Ġrelaties":6820,"Ġgecombin":6821,"Ġwaarheid":6822,"ĠBi":6823,"DE":6824,"Ġstads":6825,"car":6826,"Ġgeregistreerd":6827,"ka":6828,"Ġaanwezigheid":6829,"Ġhap":6830,"fit":6831,"ilj":6832,"Ġring":6833,"Ġnr":6834,"plein":6835,"Ġregistratie":6836,"Ġ32":6837,"Ġnergens":6838,"deur":6839,"Ġavontuur":6840,"Ġprocessen":6841,"iering":6842,"aagde":6843,"Ġvlieg":6844,"Ġregion":6845,"ern":6846,"bb":6847,"Ġverhuis":6848,"Ġklaarkomen":6849,"lamp":6850,"Ġverpleeg":6851,"Ġdur":6852,"Ġversterken":6853,"Ġcoronavirus":6854,"Ġverslag":6855,"Ġvieren":6856,"bewijs":6857,"Ġeffectie":6858,"Ġwaarschuw":6859,"34":6860,"Ġhonderd":6861,"oers":6862,"AP":6863,"Ġreparatie":6864,"ĠPost":6865,"Vandaag":6866,"Ġontdek":6867,"able":6868,"Ġarbeid":6869,"look":6870,"Ġburgemeester":6871,"Ġbanken":6872,"atiek":6873,"Ġroep":6874,"oornis":6875,"Ġflinke":6876,"Ġernstige":6877,"Ġbelgie":6878,"spunt":6879,"Ġvelen":6880,"cc":6881,"atoren":6882,"Ġdom":6883,"Ġgeschikte":6884,"fact":6885,"Ġescorte":6886,"vante":6887,"ross":6888,"hangen":6889,"sec":6890,"Ġwegens":6891,"Ġdefinitie":6892,"Ġdocumenten":6893,"mar":6894,"Ġverstrekt":6895,"Ġinformeren":6896,"asteel":6897,"Ġler":6898,"ĠZowel":6899,"stemd":6900,"raktijk":6901,"functie":6902,"Ġmode":6903,"lecht":6904,"werkings":6905,"haar":6906,"arische":6907,"Ġlagere":6908,"dijk":6909,"essen":6910,"ĠBritse":6911,"32":6912,"Ġem":6913,"Men":6914,"hebben":6915,"ild":6916,"Ġisolatie":6917,"Ġduurzaamheid":6918,"Ġafbeeldingen":6919,"Ġjas":6920,"05":6921,"Ġtalent":6922,"Ġapparatuur":6923,"Ġterm":6924,"Ġvel":6925,"redit":6926,"Ġeng":6927,"ĠJong":6928,"Ġbeurt":6929,"ĠGeile":6930,"Ġleider":6931,"malig":6932,"team":6933,"otische":6934,"laat":6935,"Ġminuut":6936,"Ġkatten":6937,"Ġkenmerken":6938,"ĠStad":6939,"Ġaanmerking":6940,"Ġhield":6941,"Ġformaat":6942,"zels":6943,"Ġgepublic":6944,"rends":6945,"maatschapp":6946,"Ġkoper":6947,"Ġdroge":6948,"igend":6949,"ĠLeg":6950,"Ġafger":6951,"02":6952,"39":6953,"Ġrecente":6954,"Ġkoude":6955,"lief":6956,"Ġschoonmaak":6957,"Ġfa":6958,"Ġrijke":6959,"Ġuitvaart":6960,"Ġsuccesvolle":6961,"beer":6962,"ĠEchter":6963,"Ġbeperking":6964,"Ġaantrekkelijk":6965,"Ġvervolg":6966,"vakantie":6967,"Ġtelefonisch":6968,"Ġ2006":6969,"Ġonmogelijk":6970,"ĠHans":6971,"Ġtegenstelling":6972,"ĠDaardoor":6973,"ĠProdu":6974,"Ġbenen":6975,"Ġtip":6976,"iver":6977,"Ġmaaltijd":6978,"Ġhuisarts":6979,"Ġverschijnen":6980,"Ġinrichting":6981,"ĠVandaag":6982,"pad":6983,"Ġpresentatie":6984,"Ġkijkje":6985,"Ġkoers":6986,"ĠRo":6987,"ofilm":6988,"ongen":6989,"Ġdiam":6990,"ĠNo":6991,"Ġjaarlijkse":6992,"pap":6993,"Ġplots":6994,"Ġavonds":6995,"stenen":6996,"iser":6997,"Ġevenals":6998,"Ġgroeps":6999,"Ġaansluiten":7000,"Ġ,,":7001,"ory":7002,"Ġmissen":7003,"ferentie":7004,"Ġonlangs":7005,"vorming":7006,"oefen":7007,"ĠMac":7008,"Ġoverijssel":7009,"elligen":7010,"Ġtwijfel":7011,"Ġpublie":7012,"eleinden":7013,"Ġtaf":7014,"Ġmast":7015,"ooster":7016,"ĠâĢĭâĢĭ":7017,"brug":7018,"Ġramen":7019,"ĠgeÃ«":7020,"ĠZoek":7021,"Ġspuitende":7022,"Ġvogels":7023,"Ġkwestie":7024,"Ġvertrek":7025,"fect":7026,"Ġtient":7027,"Ãª":7028,"kenning":7029,"ontwikkeling":7030,"ĠKortom":7031,"Ġaanrader":7032,"ĠWal":7033,"ĠAlgemene":7034,"Of":7035,"500":7036,"Ġgetrouw":7037,"Ġondernemen":7038,"onom":7039,"ĠefficiÃ«nt":7040,"agers":7041,"ĠGez":7042,"rook":7043,"ĠWord":7044,"Ġkok":7045,"Ġslaapkamers":7046,"Ġsan":7047,"Ġontbreken":7048,"Ġbevinden":7049,"Ġvertelde":7050,"ĠHotel":7051,"Ġnee":7052,"arande":7053,"Ġspannend":7054,"Ġfas":7055,"Ġbesloot":7056,"isje":7057,"Ġbeton":7058,"akelaar":7059,"ants":7060,"Ġaspecten":7061,"78":7062,"asie":7063,"cast":7064,"urn":7065,"tende":7066,"Ġdoll":7067,"colle":7068,"ball":7069,"Ġauthent":7070,"Ġcapaciteit":7071,"Ġgeproduc":7072,"Ġonbeschadigd":7073,"aaid":7074,"Ġonbedrukte":7075,"Ġbedre":7076,"Ġzonnepanelen":7077,"Ġcy":7078,"ĠParijs":7079,"zaamheid":7080,"ht":7081,"neden":7082,"zu":7083,"Ġbeurs":7084,"Ġgouden":7085,"Ġinternationaal":7086,"leerd":7087,"Ġondertussen":7088,"Ġfrisse":7089,"soft":7090,"Ġalmere":7091,"Ġinkomsten":7092,"Gro":7093,"Ġinzichten":7094,"aving":7095,"Ġgroenten":7096,"ĠNL":7097,"Ġindrukwekken":7098,"Ġnuru":7099,"ĠChe":7100,"woon":7101,"vriendelijk":7102,"Ġverzameld":7103,"Ġveroorzaken":7104,"Ġdeels":7105,"IL":7106,"ĠSan":7107,"Ġbroer":7108,"Ġomtrent":7109,"Ġhouding":7110,"imeter":7111,"Ġvracht":7112,"Ġspeelgoed":7113,"Ġep":7114,"Ġinterne":7115,"haal":7116,"project":7117,"Ġinstalleren":7118,"risten":7119,"Ġlot":7120,"49":7121,"Ġspier":7122,"oul":7123,"%.":7124,"ĠBus":7125,"lessen":7126,"ossier":7127,"Ġtoekomstige":7128,"cu":7129,"ĠHa":7130,"Ġgedragen":7131,"Ġkg":7132,"Ġventil":7133,"Ġexamen":7134,"Ġverhogen":7135,"Ġopvol":7136,"aalf":7137,"Meer":7138,"ĠcliÃ«nten":7139,"ochtend":7140,"hulp":7141,"Ġjar":7142,"video":7143,"Ġpik":7144,"Ġdui":7145,"anderen":7146,"neming":7147,"ĠcliÃ«nt":7148,"Ġï":7149,"Ġgunst":7150,"Ġdiagno":7151,"Ġtablet":7152,"Ġwijziging":7153,"Ġkabel":7154,"oniem":7155,"daar":7156,"Ġlet":7157,"Ġdeden":7158,"indust":7159,"Ġheft":7160,"II":7161,"ĠTijd":7162,"Ġcirca":7163,"US":7164,"Ġbesluiten":7165,"Ġvoormalige":7166,"Ġwaarden":7167,"pectief":7168,"Ġverpl":7169,"Ġonvoldoende":7170,"oeiende":7171,"hoofd":7172,"rac":7173,"Ġpil":7174,"VO":7175,"Ġherkennen":7176,"Ġklin":7177,"ward":7178,"Ġapps":7179,"kr":7180,"Ġ@":7181,"Laat":7182,"Ġorganiseert":7183,"Ġgevoelens":7184,"Ġrollen":7185,"Ġbovenstaande":7186,"Ġschriftelijk":7187,"bestuur":7188,"Ġplaf":7189,"ĠSP":7190,"vergoed":7191,"UR":7192,"Ġduizenden":7193,"standen":7194,"Ġuitgerust":7195,"Ġbeschouwd":7196,"IC":7197,"Ġbreda":7198,"armen":7199,"opper":7200,"ĠST":7201,"Ġfol":7202,"Ġvoorbereiding":7203,"dheid":7204,"Ġdeelnemen":7205,"Ġaparte":7206,"vere":7207,"Ġverniet":7208,"ronden":7209,"Ġveert":7210,"ulde":7211,"phen":7212,"reedt":7213,"gaven":7214,"ograaf":7215,"Ġtraject":7216,"Ġsollicit":7217,"Ġopgebouwd":7218,"waliteit":7219,"ĠBas":7220,"Ġbeantwoorden":7221,"37":7222,"antische":7223,"Ġhetgeen":7224,"Ġslimme":7225,"Ġrep":7226,"Vl":7227,"Ġnage":7228,"atuurlijk":7229,"Ġhuishouden":7230,"Ġbegrijp":7231,"Ġfactuur":7232,"osof":7233,"Ġverboden":7234,"Ġschrijver":7235,"ĠCons":7236,"rÃ¨me":7237,"istiek":7238,"Ġvoert":7239,"install":7240,"stat":7241,"ĠBerg":7242,"Ġhemel":7243,"ĠGu":7244,"activiteiten":7245,"Ġtekenen":7246,"Ġpraktisch":7247,"85":7248,"ĠEm":7249,"ĠVerg":7250,"Ġkussen":7251,"ĠNee":7252,"Ġbeschad":7253,"regels":7254,"Ġelektriciteit":7255,"liggende":7256,"oploss":7257,"Ġstimuleren":7258,"Ġbehalen":7259,"ĠTerwijl":7260,"basis":7261,"amin":7262,"OO":7263,"ilt":7264,"dier":7265,"brand":7266,"Ġdaten":7267,"Ġuitzondering":7268,"MS":7269,"ĠIP":7270,"ĠHaarlem":7271,"orf":7272,"Ġrecepten":7273,"Ġeraan":7274,"Ġwijzigingen":7275,"oring":7276,"Ġbuitenlandse":7277,"teur":7278,"zuur":7279,"Ter":7280,"Ġknie":7281,"Ġbalk":7282,"opvang":7283,"ooft":7284,"Ġafloop":7285,"mmel":7286,"Ġlijf":7287,"etische":7288,"Ġonafhankelijke":7289,"Ġtrainen":7290,"uster":7291,"iro":7292,"Ġgezel":7293,"ĠEle":7294,"ĠLang":7295,"Ġcondoom":7296,"Ġkwaad":7297,"Ġnoemt":7298,"Ġambitie":7299,"range":7300,"ogel":7301,"Ġleerling":7302,"Ġbijk":7303,"03":7304,"Ġgroeit":7305,"Ġlijnen":7306,"Ġbod":7307,"uts":7308,"Ġgloed":7309,"Ġziel":7310,"heim":7311,"ĠPlay":7312,"Ġverre":7313,"eeland":7314,"Ġtarieven":7315,"Ġspir":7316,"geleid":7317,"Ġ65":7318,"ĠAchter":7319,"Ġnoch":7320,"Ġprogram":7321,"Ġverkeerde":7322,"ano":7323,"Ġaflevering":7324,"ĠNijmegen":7325,"Ġhoreca":7326,"Ġvergroten":7327,"Ġspons":7328,"ptie":7329,"anal":7330,"NA":7331,"Ġvriendelijk":7332,"Ġsamenwerken":7333,"ĠBrabant":7334,"Ġerotic":7335,"Ġdieet":7336,"Ġbevestigd":7337,"Ġfantastisch":7338,"Ġdiepe":7339,"ĠLeeuw":7340,"Bel":7341,"Ġauteur":7342,"ĠTom":7343,"Ġrem":7344,"Ġsensuele":7345,"Ġaardapp":7346,"Ġmosl":7347,"Lees":7348,"Ġ55":7349,"Ġaangebracht":7350,"Â»":7351,"gier":7352,"Ġ250":7353,"ĠCal":7354,"Ġmatch":7355,"Ġwaarb":7356,"ĠAv":7357,"Ġbezorgen":7358,"uizing":7359,"Ġproduceren":7360,"ĠBal":7361,"Ġfestival":7362,"Tot":7363,"ĠIde":7364,"onderwijs":7365,"Ġlikken":7366,"stroom":7367,"Ġafscheid":7368,"ĠPlus":7369,"Ġlabels":7370,"Ġlosse":7371,"ijsten":7372,"weten":7373,"Ġnieuwsbrief":7374,"Ġlullen":7375,"Ġoefeningen":7376,"2020":7377,"ĠBosch":7378,"ĠMaria":7379,"ĠCommissie":7380,"Nieuw":7381,"schillen":7382,"ĠSurin":7383,"Ġfantastische":7384,"ĠAss":7385,"ĠMark":7386,"Ġzilver":7387,"Ġbranche":7388,"Ġheu":7389,"diend":7390,"Ġthaise":7391,"di":7392,"Ġgames":7393,"AG":7394,"ĠLeiden":7395,"Ġafbeelding":7396,"Ġopgesteld":7397,"Ġoverlijden":7398,"ĠHol":7399,"ading":7400,"Ġwenst":7401,"Ġ48":7402,"bor":7403,"besten":7404,"Ġvaat":7405,"atte":7406,"Ġkleiner":7407,"Ġgeraakt":7408,"Ġbuurvrouw":7409,"ĠâĨ":7410,"Ġconfl":7411,"ĠDating":7412,"sproces":7413,"46":7414,"ĠGeef":7415,"Ġgids":7416,"geh":7417,"bew":7418,"Ġkatoen":7419,"Ġgrootte":7420,"Ġschaam":7421,"text":7422,"Ġduren":7423,"ĠðŁĺ":7424,"Ġtext":7425,"Ġbezocht":7426,"dre":7427,"Ġback":7428,"sprekend":7429,"ĠMaas":7430,"ipt":7431,"eeds":7432,"Ġleveranciers":7433,"Ġwijzigen":7434,"stein":7435,"itaal":7436,"Ġvoorjaar":7437,"essies":7438,"Ġhobby":7439,"ijft":7440,"Ġbedraagt":7441,"rig":7442,"Ġverbinden":7443,"eenkomsten":7444,"Ġinnovatie":7445,"iler":7446,"Ġcommissie":7447,"izer":7448,"ĠHy":7449,"Ġlagen":7450,"instellingen":7451,"ĠSams":7452,"ĠKoning":7453,"Ġverwachting":7454,"Ġkanker":7455,"Ġslachtoffer":7456,"Ġmann":7457,"Ġdomin":7458,"slotte":7459,"model":7460,"Ġbedenken":7461,"Ġinvesteren":7462,"uken":7463,"Ġherfst":7464,"belen":7465,"Ġaandelen":7466,"Ġmetaal":7467,"Ġfunctioneren":7468,"ĠInstagram":7469,"ĠArnhem":7470,"makers":7471,"ĠYork":7472,"Ġkinky":7473,"danig":7474,"06":7475,"Ġfouten":7476,"gaand":7477,"Ġzelfstand":7478,"Ġhierboven":7479,"Ġinnovatieve":7480,"Ġvervaard":7481,"Ġdia":7482,"ffing":7483,"Ġade":7484,"industrie":7485,"Ġaardig":7486,"Ġram":7487,"Ġoost":7488,"Ġstruct":7489,"atch":7490,"Ġprocedure":7491,"iekem":7492,"ĠWindows":7493,"ĠHiervoor":7494,"Ġislam":7495,"Ġaanvullende":7496,"mo":7497,"Elke":7498,"verklaring":7499,"ario":7500,"ĠNoor":7501,"Ġbekeken":7502,"Ġrijdt":7503,"venter":7504,"commissie":7505,"Ġbeoordeling":7506,"Ġworkshops":7507,"blik":7508,"schakeld":7509,"maals":7510,"Ġscherpe":7511,"istieke":7512,"Ġgeselect":7513,"organisaties":7514,"Ġmiddels":7515,"ksel":7516,"ita":7517,"Ġvergadering":7518,"Ġverbouw":7519,"gren":7520,"ua":7521,"Ġrelevante":7522,"ificaties":7523,"Ġmetalen":7524,"Dan":7525,"Ġ38":7526,"Ġboord":7527,"Ġverzending":7528,"Ġbeslag":7529,"ĠDoordat":7530,"Ġexpertise":7531,"Ġ400":7532,"schal":7533,"ĠDis":7534,"board":7535,"ĠHR":7536,"Bent":7537,"Ġkoelkast":7538,"weeg":7539,"ĠHD":7540,"Ġgemaakte":7541,"Ġvitamine":7542,"Ġveiligheids":7543,"opdracht":7544,"vre":7545,"Ġverbetering":7546,"onne":7547,"Ġgit":7548,"Ġomvang":7549,"pakken":7550,"47":7551,"Ġtijdelijke":7552,"ystad":7553,"Ġstreven":7554,"Ġmelding":7555,"ĠClub":7556,"time":7557,"erkl":7558,"methode":7559,"opelijk":7560,"riÃ«le":7561,"Ġweig":7562,"Ġtoenemen":7563,"Ġregistr":7564,"Ġaanbren":7565,"Ġbehoeften":7566,"Ġspellen":7567,"Ġdichtbij":7568,"advis":7569,"entje":7570,"ĠSal":7571,"Ġuitk":7572,"ĠAuto":7573,"rix":7574,"ĠEuropees":7575,"Ġwerkdagen":7576,"oordeeld":7577,"Ġoefenen":7578,"elystad":7579,"pret":7580,"Ġvolt":7581,"Ġjarenlang":7582,"ĠChinese":7583,"Ġplanning":7584,"Ġmenu":7585,"Ġsexs":7586,"order":7587,"machines":7588,"Ġmoed":7589,"moeder":7590,"ioneel":7591,"ror":7592,"Ġministerie":7593,"Ġeeuwen":7594,"pende":7595,"Ġverzorging":7596,"Ġmeerder":7597,"vriendelijke":7598,"Ġdok":7599,"ekend":7600,"ĠDuits":7601,"ilde":7602,"Ġvandaan":7603,"Ġgecombineerd":7604,"rastructuur":7605,"zeg":7606,"Ġemoties":7607,"Ġsj":7608,"Ġfotograf":7609,"Ġverrass":7610,"Ġpijpt":7611,"Ġcur":7612,"Ġkoopt":7613,"Ġbesteden":7614,"Ġoppervlakte":7615,"Ġarg":7616,"rete":7617,"Ġgezamenlijk":7618,"ĠBT":7619,"Ġaanzienlijk":7620,"ĠCre":7621,"Ġchocolade":7622,"Ġuiterst":7623,"ĠRome":7624,"Ġdatingsite":7625,"Ġgegarande":7626,"zake":7627,"cess":7628,"erman":7629,"Ġbeschermd":7630,"oets":7631,"Ġverricht":7632,"othe":7633,"Ġmenselijke":7634,"omer":7635,"Ġinbeg":7636,"way":7637,"ĠRem":7638,"uleerd":7639,"inger":7640,"Ġbewezen":7641,"Ġmaakten":7642,"ĠRuss":7643,"ĠTim":7644,"ĠOndanks":7645,"volutie":7646,".[":7647,"Ġherinn":7648,"pert":7649,"oÃ«":7650,"Ġ1000":7651,"Ġone":7652,"Ġseconden":7653,"ĠDE":7654,"ĠĠ":7655,"Ġped":7656,"ĠWeb":7657,"aaie":7658,"Ġnon":7659,"clusieve":7660,"ota":7661,"Ġuitb":7662,"Ġweergegeven":7663,"Ġconsult":7664,"wedstrijd":7665,"Ġso":7666,"Ġermee":7667,"Ġzolang":7668,"Ġspieren":7669,"lange":7670,"Ġleger":7671,"fig":7672,"assa":7673,"uilen":7674,"Ġemail":7675,"Ġnadruk":7676,"Ġrende":7677,"minste":7678,"pon":7679,"ĠcarriÃ¨re":7680,"Ġsug":7681,"Ġtelt":7682,"ĠMidden":7683,"cteur":7684,"Ġrecent":7685,"VS":7686,"ĠEngelse":7687,"Ont":7688,"Ġverhouding":7689,"Ġnieuwbouw":7690,"Ġeigendom":7691,"ĠLuc":7692,"Ġgepubliceerd":7693,"Ġcampagne":7694,"raat":7695,"Ġtoepassingen":7696,"Ġmini":7697,"MA":7698,"Ġ2005":7699,"Ġcomfortabele":7700,"ordrecht":7701,"Ġvoertuig":7702,"Ġbloot":7703,"Ġlaatst":7704,"ting":7705,"ĠBoek":7706,"opleiding":7707,"Ġhandels":7708,"advies":7709,"Ġvern":7710,"esluit":7711,"Ġtru":7712,"ĠOpdracht":7713,"down":7714,"Ġgepl":7715,"ado":7716,"vergoeding":7717,"Ġovertuigd":7718,"Ġrijst":7719,"Ġdromen":7720,"intje":7721,"fonds":7722,"Ġgoedkoper":7723,"Ġleverancier":7724,"onken":7725,"Ġverdedig":7726,"Erotische":7727,"Ġhonderden":7728,"Ġoudste":7729,"alender":7730,"Ġverkeerd":7731,"ustitie":7732,"Ġstaats":7733,"Ġfull":7734,"ifest":7735,"dieren":7736,"ordening":7737,"doek":7738,"Ġgaranderen":7739,"lok":7740,"Ġsymptomen":7741,"idde":7742,"fiets":7743,"iliteiten":7744,"Ġtom":7745,"Ġnader":7746,"ieven":7747,"ppel":7748,"Ġberoeps":7749,"Ġvlag":7750,"ĠâĨĴ":7751,"Ġverplichtingen":7752,"Ġmotiv":7753,"allig":7754,"ervices":7755,"!âĢĿ":7756,"Ġculturele":7757,"Ġboter":7758,"gesprek":7759,"ĠCap":7760,"Ġmeten":7761,"ĠMy":7762,"ĠAustral":7763,"problemen":7764,"IG":7765,"Ġtempo":7766,"athol":7767,"Ġhorloge":7768,"urb":7769,"Ġzuiden":7770,"ormd":7771,"ativiteit":7772,"Ġdipl":7773,"rid":7774,"Ġgeproduceerd":7775,"ĠPriv":7776,"ildo":7777,"Ġgezelschap":7778,"ugel":7779,"Ġadministr":7780,"Ġhotels":7781,"outer":7782,"zone":7783,"ĠJij":7784,"ĠHoofd":7785,"Ġhiel":7786,"Ġtwaalf":7787,"Ġvrucht":7788,"aagt":7789,"Ġgewend":7790,"Ġprevent":7791,"Ġveelal":7792,"Ġbetrouwbaar":7793,"mpel":7794,"ĠDu":7795,"ao":7796,"Ġhoof":7797,"elletjes":7798,"Ġklopt":7799,"Ġgedachte":7800,"Ġappartementen":7801,"ĠVis":7802,"gedrag":7803,"ĠMod":7804,"Ġbesproken":7805,"Ġburen":7806,"Ġhttp":7807,"Ġreclame":7808,"Ġwassen":7809,"roe":7810,"ĠMot":7811,"Ġdrukken":7812,"bedrag":7813,"Ġbedragen":7814,"Ġtrainer":7815,"Ġflexibel":7816,"Ġbra":7817,"schappelijke":7818,"angrijk":7819,"Ġstuks":7820,"Ġsterker":7821,"Ġvakman":7822,"Ġvoortdurend":7823,"Ġpublieke":7824,"Ġmarktplaats":7825,"Ġaangeven":7826,"ĠTilburg":7827,"Ġbiologische":7828,"Ġgecontrole":7829,"anke":7830,"orens":7831,"Ġvoorzichtig":7832,"Ġondersteunt":7833,"systemen":7834,"Ġmedicijnen":7835,"ĠÃ©cht":7836,"Ġbedacht":7837,"ĠPet":7838,"Ġminimum":7839,"Ġbeperken":7840,"ĠHart":7841,"Ġjuridische":7842,"warming":7843,"blok":7844,"Ġwelzijn":7845,"ĠElk":7846,"Ġlokaal":7847,"55":7848,"ĠUiteindelijk":7849,"igende":7850,"Ġbehandelingen":7851,"Ġhof":7852,"Ġconcurrentie":7853,"Ġleerk":7854,"Ġoproep":7855,"Ġbeslist":7856,"vatten":7857,"mas":7858,"son":7859,"Ġmeth":7860,"rump":7861,"Ġtijde":7862,"Ġmech":7863,"Ġvolks":7864,"bsite":7865,"Ġzest":7866,"Ġvergader":7867,"Ġbeschikbare":7868,"ooid":7869,"Ġregelgeving":7870,"Ġminer":7871,"ĠMad":7872,"ĠVeil":7873,"ĠMeest":7874,"coach":7875,"wijfeld":7876,"Ġsexfilms":7877,"ary":7878,"Ġondergrond":7879,"Ġveelzijd":7880,"annes":7881,"fot":7882,"Ġcompetitie":7883,"meld":7884,"Ġonderzocht":7885,"Ġvoorstelling":7886,"Ġvloe":7887,"ilis":7888,"ĠSpaanse":7889,"Ġessentieel":7890,"ieso":7891,"haling":7892,"sing":7893,"wagens":7894,"genoemde":7895,"ĠefficiÃ«n":7896,"Ġbeen":7897,"Ġrustige":7898,"Ġverdwijnen":7899,"spire":7900,"Ġkrant":7901,"orpen":7902,"Ġernstig":7903,"asser":7904,"Ġbesteed":7905,"Ġverwachtingen":7906,"Ġoplossen":7907,"Ġtick":7908,"Ġploeg":7909,"vlees":7910,"Ġgetest":7911,"Ġgarage":7912,"ave":7913,"Ġpeper":7914,"Ġverdriet":7915,"utte":7916,"Ġgevuld":7917,"Ġbund":7918,"ellingen":7919,"afspraak":7920,"Ġspiegel":7921,"icap":7922,"ierd":7923,"Ġdollar":7924,"akantie":7925,"Ġsoepel":7926,"RE":7927,"voort":7928,"LE":7929,"Ġfinale":7930,"verzorg":7931,"schikt":7932,"Ġjurk":7933,"Ġreguliere":7934,"irk":7935,"afstand":7936,"kings":7937,"Ġvergunning":7938,"Ġspe":7939,"Ġtanden":7940,"ĠNieuws":7941,"Ġtilburg":7942,"owieso":7943,"Ġtijdst":7944,"ĠSer":7945,"07":7946,"Ġaangek":7947,"Ġgirl":7948,"oere":7949,"ĠICT":7950,"Ġwiel":7951,"Ã¯ne":7952,"ĠStand":7953,"orgd":7954,"Ġ33":7955,"Ġkrediet":7956,"Ġgedeelt":7957,"aver":7958,"Ġverschijnt":7959,"Ġbronnen":7960,"Ġverzend":7961,"duidelijk":7962,"Ġaanleg":7963,"Ġruimtes":7964,"ĠWas":7965,"Ġvingert":7966,"anks":7967,"opers":7968,"ĠRus":7969,"anner":7970,"Ġ120":7971,"Ġbesm":7972,"Ġeentje":7973,"eesten":7974,"Ġafzonder":7975,"Ġgrijs":7976,"teit":7977,"Ġzoektocht":7978,"88":7979,"ĠRijn":7980,"ĠAlex":7981,"Ġinstelling":7982,"ĠWill":7983,"Ġsprak":7984,"Ġontste":7985,"Ġsamengesteld":7986,"ira":7987,"ĠFe":7988,"ĠEÃ©n":7989,"wijde":7990,"09":7991,"ienst":7992,"Ġinvestering":7993,"ĠArch":7994,"laten":7995,"Ġbeoordelen":7996,"Ġmachines":7997,"Ex":7998,"Ġnegen":7999,"iefd":8000,"Ġkindje":8001,"kru":8002,"actieve":8003,"Ġair":8004,"Ġbol":8005,"Ġklikken":8006,"Ġberoemde":8007,"Ġonderzoekers":8008,"Ġtarief":8009,"Ġverzorgd":8010,"gas":8011,"Ġwijs":8012,"Ġlieve":8013,"Ġpornofilm":8014,"hands":8015,"Ġkoppel":8016,"Ġgekopp":8017,"Ġleukste":8018,"Ġopvang":8019,"Geb":8020,"Ġstatus":8021,"itco":8022,"Ġoperatie":8023,"los":8024,"Ġzaten":8025,"klasse":8026,"Ġbenad":8027,"oter":8028,"ĠbeÃ«":8029,"ĠOu":8030,"klachten":8031,"Ġblijken":8032,"ago":8033,"Ġgroente":8034,"ĠDrie":8035,"Ġbv":8036,"ĠVel":8037,"Ġvrouwelijke":8038,"Ġtoetsen":8039,"Ġgewenst":8040,"Ġtechnisch":8041,"Me":8042,"Ġpuur":8043,"ĠAD":8044,"verlies":8045,"nooi":8046,"Euro":8047,"OP":8048,"Ġbatterij":8049,"ĠEngeland":8050,"Ġtevoren":8051,"Ġzulke":8052,"ĠSw":8053,"inks":8054,"ÃŃ":8055,"Ġmisbruik":8056,"Ġtherapie":8057,"Ġboodschappen":8058,"anische":8059,"Ġpassend":8060,"Ġtherm":8061,"Ġvette":8062,"04":8063,"gemoet":8064,"ĠPiet":8065,"Ġuitdagingen":8066,"Ġstenen":8067,"ĠMiddel":8068,"ros":8069,"Ġaccommodatie":8070,"Ġonrecht":8071,"iveren":8072,"Ġeleg":8073,"key":8074,"Ġbijbehoren":8075,"Ġmissie":8076,"eep":8077,"ijdt":8078,"Ġaanwij":8079,"ersport":8080,"Ġrecre":8081,"acrisis":8082,"OT":8083,"Ġexperiment":8084,"aming":8085,"Ġrace":8086,"uma":8087,"Ġgrapp":8088,"eigen":8089,"Ġmochten":8090,"ĠNadat":8091,"Ġgloednieuw":8092,"ĠMooie":8093,"Ġ$":8094,"Ġkampioen":8095,"aliseerde":8096,"ups":8097,"ĠPersoon":8098,"Ġgegarandeerd":8099,"ĠAs":8100,"Ġingesteld":8101,"Ġschermen":8102,"ĠService":8103,"Ġconstructie":8104,"ctoren":8105,"Ġmoeilijke":8106,"Ġzingen":8107,"Ġinch":8108,"Ġonth":8109,"Ġdoek":8110,"blauw":8111,"ĠgeÃ¯nteresseerd":8112,"verband":8113,"Ġkunstenaars":8114,"rond":8115,"Ġomvat":8116,"Ġmake":8117,"ĠPS":8118,"ĠInmiddels":8119,"Ġbenodigde":8120,"ael":8121,");":8122,"Ġaanbev":8123,"âĢĶ":8124,"Ġimplement":8125,"Ġzwak":8126,"aamd":8127,"Ġsalaris":8128,"angezien":8129,"ades":8130,"woningen":8131,"OL":8132,"waren":8133,"ariteit":8134,"ureel":8135,"Ġvoorlopig":8136,"Ġafwerking":8137,"Ġomgev":8138,"nee":8139,"stalige":8140,"Ġvreemde":8141,"Ġstudio":8142,"Ġkritiek":8143,"Ġbewaard":8144,"ĠKinder":8145,"ĠKun":8146,"ĠMedia":8147,"Ġmist":8148,"Ġrac":8149,"Ġgebeurtenissen":8150,"enthe":8151,"Ġopleidingen":8152,"ooth":8153,"Ġkilo":8154,"arn":8155,"Ġartie":8156,"Ġseni":8157,"ommigen":8158,"bra":8159,"inge":8160,"ates":8161,"Ġaanmelden":8162,"Ġerger":8163,"edia":8164,"Ġtocht":8165,"ll":8166,"komende":8167,"etisch":8168,"Ġbuitensex":8169,"ieks":8170,"Ġspannende":8171,"Ġverdient":8172,"Ġschen":8173,"Ġdet":8174,"ĠBB":8175,"voc":8176,"bei":8177,"ondheid":8178,"enservice":8179,"Ġvoorkomende":8180,"ĠSam":8181,"Ġgij":8182,"ĠKerst":8183,"aturen":8184,"ĠGed":8185,"versie":8186,"Ġnamens":8187,"Ġ<":8188,"Ġhip":8189,"ĠPC":8190,"Ġbrowser":8191,"meting":8192,"camp":8193,"ĠgeÃ¯nteg":8194,"Ġbeveiliging":8195,"Hoewel":8196,"ava":8197,"ĠMarkt":8198,"Ġbaas":8199,"Ġkip":8200,"08":8201,"ĠKunst":8202,"ĠFilm":8203,"Ġeerdere":8204,"ĠZaken":8205,"?âĢĿ":8206,"cellen":8207,"Ġexperts":8208,"Ġzwemmen":8209,"ĠMaat":8210,"ĠSamsung":8211,"Ġauteurs":8212,"atal":8213,"uring":8214,"ĠDeel":8215,"rap":8216,"Mar":8217,"Ġaanbrengen":8218,"Ġwekelijk":8219,"getrokken":8220,"»¿":8221,"Ġstelde":8222,"bericht":8223,"arokk":8224,"Ġgebleven":8225,"Ġdringen":8226,"ĠZodra":8227,"Ġretour":8228,"ape":8229,"ĠNationale":8230,"Ġfund":8231,"Ġbeperkte":8232,"eerst":8233,"ĠBon":8234,"ĠÃł":8235,"desk":8236,"Ġprom":8237,"Ġmuren":8238,"meu":8239,"ules":8240,"Ġ34":8241,"Ġnek":8242,"Ġdertig":8243,"ĠKN":8244,"ĠÂ«":8245,"Ġvirtu":8246,"Ġmeldt":8247,"Ġslap":8248,"Ġtegemoet":8249,"ĠMicrosoft":8250,"Ġmaatwerk":8251,"Ġmaag":8252,"ĠCV":8253,"ibr":8254,"ĠCentrum":8255,"Ġbewonder":8256,"MW":8257,"udi":8258,"Net":8259,"Ġmedi":8260,"ĠVi":8261,"ieerd":8262,"anningen":8263,"Ġbakken":8264,"zoekers":8265,"scher":8266,"Ġvertrekken":8267,"ermate":8268,"Ġsteek":8269,"Ġspaar":8270,"Ġwetgeving":8271,"Ġnederlands":8272,"Ġdoeleinden":8273,"Ġconclusie":8274,"spelen":8275,"Ġachteraf":8276,"Maak":8277,"Ġfeed":8278,"mes":8279,"gemaakte":8280,"ĠLonden":8281,"Ġevenwicht":8282,"droid":8283,"han":8284,"ĠCamp":8285,"Ġvoldaan":8286,"ĠTwitter":8287,"Ġtijdig":8288,"ience":8289,"leidingen":8290,"AD":8291,"Ġvoorop":8292,"zenden":8293,"Ġdoorgaans":8294,"Ġgenoten":8295,"Ġconcert":8296,"ĠGreen":8297,"Ġschakelen":8298,"Ġsloten":8299,"aller":8300,"Ġoverheids":8301,"Ã§":8302,"isie":8303,"glas":8304,"Ġbonus":8305,"ĠindustriÃ«le":8306,"Ġdegelijk":8307,"ĠOud":8308,"Natuurlijk":8309,"Ġvrolijk":8310,"Ġlanc":8311,"Ġheldere":8312,"Ġverschenen":8313,"Ġschepen":8314,"Ġuitdagen":8315,"Samen":8316,"plex":8317,"Ġverborgen":8318,"Ġfeestje":8319,"Ġ2004":8320,"Ġverlopen":8321,"ĠFre":8322,"Ġspreek":8323,"igr":8324,"antel":8325,"Ġstrip":8326,"ĠcommerciÃ«le":8327,"send":8328,"Ġgezinnen":8329,"names":8330,"Ġinz":8331,"Ġaftrekken":8332,"ĠcafÃ©":8333,"gener":8334,"Ġtientallen":8335,"kingen":8336,"!!!":8337,"Ġgeel":8338,"waart":8339,"roll":8340,"ĠAB":8341,"leer":8342,"Ġtoevoeg":8343,"Dank":8344,"mens":8345,"platen":8346,"jaars":8347,"itis":8348,"auze":8349,"Ġ37":8350,"juist":8351,"ĠZwolle":8352,"aim":8353,"ilic":8354,"voudig":8355,"inchem":8356,"Ġgeldig":8357,"Ġbijeenkomst":8358,"Ġverscheen":8359,"Ġbestuurs":8360,"Ġgeheugen":8361,"Ġframe":8362,"dekt":8363,"szins":8364,"ĠMus":8365,"Ġspect":8366,"Ġlijden":8367,"**":8368,"Ġboerderij":8369,"Ġgeste":8370,"ĠStel":8371,"vanc":8372,"ĠHend":8373,"scholen":8374,"Ġvliegtuig":8375,"Ġcomplexe":8376,"Ġbanen":8377,"ĠKoophandel":8378,"Ġaanmeld":8379,"iano":8380,"Ġdrink":8381,"ĠLes":8382,"?âĢĻ":8383,"vankelijk":8384,"ypen":8385,"ĠAV":8386,"massage":8387,"gestuurd":8388,"Ġbem":8389,"pomp":8390,"uister":8391,"raft":8392,"Ġbehandel":8393,"alf":8394,"rechter":8395,"Ġvilla":8396,"Ġforum":8397,"raven":8398,"Ġinzake":8399,"Ġlezer":8400,"Ġvastgoed":8401,"Ġinstrument":8402,"ĠRijks":8403,"Ġblijkbaar":8404,"iff":8405,"ĠJaar":8406,"Ġcou":8407,"Ġnoorden":8408,"Ġstrakke":8409,"Ġkwaliteits":8410,"ĠBart":8411,"Ġappl":8412,"Ġreinigen":8413,"ĠHor":8414,"voeding":8415,"iveerd":8416,"ikkel":8417,"Ġkonink":8418,"stijds":8419,"Ġupdate":8420,"probeerd":8421,"ĠBijbel":8422,"gevallen":8423,"Ġglim":8424,"verlichting":8425,"bec":8426,"Ġeffectieve":8427,"pressie":8428,"Ġreiz":8429,"Ġgekleur":8430,"Ġrichtlijnen":8431,"voerder":8432,"ainer":8433,"utch":8434,"Ġintelligen":8435,"Ġexclusief":8436,"gevonden":8437,"Ġlogisch":8438,"Ġbestanden":8439,"Ġhoofdstad":8440,"Ġstage":8441,"ĠwÃ©l":8442,"Ġwijnen":8443,"Ġarmen":8444,"ĠEerste":8445,"Ġbeiden":8446,"kkers":8447,"Ġmaximum":8448,"Ġmeegenomen":8449,"Ġbijge":8450,"Ġontmoeting":8451,"bond":8452,"Ġbereiden":8453,"zijnen":8454,"Ġtoepassen":8455,"ĠMont":8456,"ikelen":8457,"Ġwild":8458,"Ġroman":8459,"Ġhaak":8460,"management":8461,"ĠAN":8462,"alisme":8463,"ĠMal":8464,"Via":8465,"Ġgecertific":8466,"blog":8467,"AB":8468,",âĢĿ":8469,"gelijke":8470,"Ġwijst":8471,"Ġverloop":8472,"alisering":8473,"Ġlevensduur":8474,"Ġelast":8475,"ingt":8476,"Ġspuit":8477,"ĠNou":8478,"Ġbacter":8479,"stelsel":8480,"Ġwal":8481,"Ġanaal":8482,"42":8483,"Ġalarm":8484,"eff":8485,"Ġgestuurd":8486,"Ġverdwenen":8487,"ĠRecht":8488,"Ġgebeurde":8489,"roepen":8490,"ĠKat":8491,"Ġevalu":8492,"Ġhaast":8493,"Ġkunstenaar":8494,"tendeels":8495,"Ġbijbehorende":8496,"ĠSchool":8497,"eeuwse":8498,"Ġvoeg":8499,"lid":8500,"Ġrenovatie":8501,"Ġcan":8502,"Ġspre":8503,"mus":8504,"Ġhumor":8505,"Ġstukjes":8506,"Ġtreden":8507,"Ġgemeenter":8508,"Ġvolgde":8509,"Ġsubt":8510,"Ġvastgelegd":8511,"Ġbrieven":8512,"43":8513,"Ġsporen":8514,"inqu":8515,"ormen":8516,"Ġopbreng":8517,"keurd":8518,"Ġbelangrijker":8519,"ĠZwits":8520,"ĠCity":8521,"oute":8522,"Ġcoronacrisis":8523,"qui":8524,"Ġverkiezingen":8525,"ĠGemeente":8526,"erma":8527,"ense":8528,"ĠBreda":8529,"Ġcorrect":8530,"Ġliteratuur":8531,"Ġmontage":8532,"oedt":8533,"Ġstudent":8534,"dates":8535,"Ġgetroffen":8536,"ijp":8537,"Ġopgelost":8538,"ĠDavid":8539,"ĠMooi":8540,"Ġtentoonstelling":8541,"vormen":8542,"Ġgig":8543,"kaarten":8544,"Ġtaart":8545,"Ġperspectief":8546,"Ġinvullen":8547,"Ġindividu":8548,"Ġmus":8549,"getwijfeld":8550,"ĠSchip":8551,"grote":8552,"IM":8553,"Ġpatroon":8554,"roting":8555,"Ġleverbaar":8556,"Ġplafond":8557,"ĠCorona":8558,"Ġdemon":8559,"ĠEcht":8560,"ĠAndroid":8561,"aliteiten":8562,"Ġloodg":8563,"Ġreal":8564,"Ġuitkomst":8565,"Ġwetenschappelijke":8566,"kasten":8567,"Ġvissen":8568,"vant":8569,"Ġhierop":8570,"Ġweerstand":8571,"ban":8572,"ĠUnie":8573,"Ġnaa":8574,"Ġbekijk":8575,"Ġovert":8576,"ĠHil":8577,"Ġwaaraan":8578,"ĠbeÃ«ind":8579,"Ġchau":8580,"Ġregionale":8581,"Ġnieuwsgier":8582,"Ġoranje":8583,"bos":8584,"ifi":8585,"ĠHome":8586,"verkeer":8587,"Ġminste":8588,"Ġfotos":8589,"volen":8590,"Ġuitbreiding":8591,"Ġsexdating":8592,"Ġero":8593,"gewoon":8594,"ĠPorno":8595,"ĠMaastricht":8596,"iller":8597,"Ġdegene":8598,"Ġhon":8599,"ĠTrump":8600,"Ġschoonheid":8601,"Ġwaterd":8602,"verleners":8603,"anta":8604,"ĠAct":8605,"Ġperman":8606,"Ġdiner":8607,"Ġperc":8608,"odigd":8609,"Ġhoorde":8610,"Ġleeuw":8611,"Ġzeep":8612,"Ġbag":8613,"tube":8614,"ettingen":8615,"Ġgerealiseerd":8616,"ademie":8617,"Ġorigineel":8618,"verf":8619,"Ġmeid":8620,"ĠBrug":8621,"boot":8622,"pele":8623,"eester":8624,"Ġbreedte":8625,"Ġalkmaar":8626,"fra":8627,"gelo":8628,"Amerik":8629,"wiel":8630,"ĠWit":8631,"ĠOne":8632,"enis":8633,"Ã¢":8634,"Ġschuif":8635,"Ġambten":8636,"wonen":8637,"steld":8638,"Ġpomp":8639,"Ġcrimin":8640,"Ġmeng":8641,"Ġwed":8642,"Ġafgewerkt":8643,"Ġgekoppeld":8644,"alings":8645,"ĠLog":8646,"rikaanse":8647,"ĠOostenrijk":8648,"kante":8649,"Ġgemakkelijker":8650,"Ġkrachtig":8651,"ĠAz":8652,"Ġmeerderheid":8653,"ĠEerst":8654,"Ġbedankt":8655,"doc":8656,"Ġunivers":8657,"Ġvogel":8658,"ookt":8659,"Ġverplichting":8660,"banden":8661,"Ġstiekem":8662,"Ġverspreid":8663,"Ġwees":8664,"rong":8665,"ichte":8666,"ĠWorld":8667,"sper":8668,"Ġachterkant":8669,"Ġrendement":8670,"ĠðŁĻ":8671,"morgen":8672,"Ġbladeren":8673,"Ġban":8674,"...]":8675,"neu":8676,"Ġaanbieders":8677,"Ġvacatures":8678,"ĠLen":8679,"Ġdatab":8680,"Ġgewijz":8681,"Ġverval":8682,"fase":8683,"iloft":8684,"Ġovergang":8685,"Ġopzet":8686,"Ġplaatse":8687,"Ġverklaard":8688,"namen":8689,"ĠMarokk":8690,"rug":8691,"Verder":8692,"for":8693,"ipatie":8694,"Ġlente":8695,"Ġgrotendeels":8696,"ĠFil":8697,"omas":8698,"Ġgetoond":8699,"ĠAnders":8700,"oeders":8701,"Ġwederom":8702,"Ġmeedoen":8703,"omb":8704,"Ġml":8705,"Ġverteld":8706,"Ġletten":8707,"Ġsat":8708,"laan":8709,"Ġconcrete":8710,"pak":8711,"ĠBeide":8712,"ĠLou":8713,"Ġbeleids":8714,"aardige":8715,"Ġlening":8716,"Ġslachtoffers":8717,"rice":8718,"Ġmes":8719,"giÃ«":8720,"VID":8721,"ĠRusland":8722,"ĠAndere":8723,"OM":8724,"azz":8725,"Ġsowieso":8726,"ias":8727,"Ġproeven":8728,"lev":8729,"Ġverzonden":8730,"tot":8731,"Ġstreek":8732,"bestand":8733,"Ġverstel":8734,"Gel":8735,"Ġbevestigen":8736,"Ġvermoed":8737,"Sc":8738,"Ġgenot":8739,"eerder":8740,"iool":8741,"uinen":8742,"ĠIedere":8743,"Ġfilosof":8744,"Ġroepen":8745,"Ġboos":8746,"ĠSec":8747,"card":8748,"elier":8749,"ĠRon":8750,"azing":8751,"Ġwerkgevers":8752,"Ġdocent":8753,"gegaan":8754,"Ġcreativiteit":8755,"rypt":8756,"Ġcommuniceren":8757,"Ġgeble":8758,"Ġkasteel":8759,"Ġbevestiging":8760,"Ġvoordelig":8761,"aud":8762,"ĠcoÃ¶rdin":8763,"Ġdarm":8764,"ĠLeer":8765,"GB":8766,"Ġseksuele":8767,"Ġinspireren":8768,"Ġhelp":8769,"was":8770,"Ġafsluiten":8771,"iaste":8772,"ĠTo":8773,"Ġaangewezen":8774,"Ġlinker":8775,"Ġschaduw":8776,"Ġdrenthe":8777,"aj":8778,"ution":8779,"Ġafmetingen":8780,"aatregelen":8781,"Ġbeschrijving":8782,"Ġbegrepen":8783,"Ġvlot":8784,"Ġspot":8785,"stro":8786,"ĠFC":8787,"wal":8788,"wol":8789,"2021":8790,"Ġnak":8791,"Ġongeluk":8792,"istent":8793,"ĠUSB":8794,"Ġstren":8795,"ky":8796,"mate":8797,"Ġvermijden":8798,"gelegenheid":8799,"orven":8800,"Ġdaarover":8801,"Ġteleur":8802,"Ġaanvulling":8803,"service":8804,"ĠVereniging":8805,"publ":8806,"adel":8807,"Ã©r":8808,"Ġtijdstip":8809,"iol":8810,"ĠGo":8811,"Dus":8812,"akkelijke":8813,"Ġgecontroleerd":8814,"Ġverkregen":8815,"ĠHeil":8816,"Ġbruin":8817,"Ġinh":8818,"Ġlo":8819,"Waarom":8820,"Ġzeden":8821,"hebber":8822,"ĠAL":8823,"Ġopstellen":8824,"Ġexclusieve":8825,"OC":8826,"oker":8827,"asy":8828,"Ġ09":8829,"terrein":8830,"Ġtoeristen":8831,"schakelen":8832,"Ġsnap":8833,"zil":8834,"Ġtenminste":8835,"Ġtraditie":8836,"Ġlock":8837,"Ġbes":8838,"Ġcreatief":8839,"ĠDrent":8840,"eelt":8841,"sels":8842,"Ġonderzoeks":8843,"rekers":8844,"ulair":8845,"Ġschouder":8846,"duizen":8847,"wikk":8848,"aravan":8849,"drecht":8850,"Ġkopje":8851,"stocht":8852,"Ons":8853,"ertje":8854,"Ġwaaruit":8855,"Ġspring":8856,"Ġmisd":8857,"Ġmits":8858,"Ġafgesproken":8859,"Ġraads":8860,"imaat":8861,"ual":8862,"Ġbezoeker":8863,"Ġmeubels":8864,"Ġoren":8865,"Ġoorsprong":8866,"Ġgehand":8867,"Ġdiepte":8868,"centra":8869,"ida":8870,"betaling":8871,"unde":8872,"Ġbestuurder":8873,"Ġ%":8874,"Ġbetaalbare":8875,"Ġophalen":8876,"begele":8877,"ĠAP":8878,"Ġgedeeld":8879,"Ġzuigen":8880,"eugd":8881,"design":8882,"Ġdomein":8883,"atering":8884,"umn":8885,"yk":8886,"EC":8887,"geschreven":8888,"ĠHam":8889,"fe":8890,"Ġdeelname":8891,"Hel":8892,"Ġvloeren":8893,"Ġopgezet":8894,"Ġlift":8895,"ping":8896,"jax":8897,"Ġkomst":8898,"Ġvrede":8899,"Ġaanschaf":8900,"App":8901,"Ġlekkerste":8902,"Ġmem":8903,"Ġaankomst":8904,"ĠGoede":8905,"Ġhoofdstuk":8906,"Ġpenis":8907,"Ġvaren":8908,"ĠDesign":8909,"Nog":8910,"41":8911,"Ġcruc":8912,"Ġfel":8913,"ĠRoy":8914,"afe":8915,"gids":8916,"ĠDelft":8917,"tek":8918,"Ġ2003":8919,"ero":8920,"nav":8921,"amelijke":8922,"Ġalsmede":8923,"ĠBusiness":8924,"Ġrelax":8925,"leding":8926,"Ġkwartaal":8927,"ĠJo":8928,"blijf":8929,"ming":8930,"ĠKoninkrijk":8931,"ĠBron":8932,"weegt":8933,"kanker":8934,"ĠEN":8935,"ĠVoeg":8936,"verst":8937,"Ġklantenservice":8938,"Ġlim":8939,"handelingen":8940,"Ġhuisvrouw":8941,"Ġgegeten":8942,"ituatie":8943,"Ġbeoordeeld":8944,"Ġonderaan":8945,"Ġsimpele":8946,"vindt":8947,"Ġzette":8948,"bur":8949,"Ġstraten":8950,"mom":8951,"Ġhersenen":8952,"Ġveer":8953,"Ġwinnaar":8954,"voorstel":8955,"Ġhome":8956,"Ġonderbouw":8957,"ĠWereldoorlog":8958,"neuken":8959,"gedragen":8960,"Ġluister":8961,"itcoin":8962,"ĠRuim":8963,"kent":8964,"Ġfabriek":8965,"Ġcontext":8966,"kunst":8967,"ĠBTW":8968,"ĠBol":8969,"Ġofwel":8970,"icker":8971,"Ġfysiek":8972,"erker":8973,"ĠFinanc":8974,"Ġzelden":8975,"aria":8976,"Ġdrugs":8977,"Ġcomment":8978,"Ġlampen":8979,"Ġgevaarlijk":8980,"Ġwetenschappelijk":8981,"ches":8982,"verbruik":8983,"daten":8984,"Ġgepland":8985,"ĠKinderen":8986,"Ġzakken":8987,"ĠMc":8988,"Ġil":8989,"lymp":8990,"zeer":8991,"ballen":8992,"Ġmedisch":8993,"enario":8994,"alloze":8995,"ĠÂ·":8996,"IA":8997,"ĠPale":8998,"Ġitems":8999,"ĠRu":9000,"osk":9001,"oodse":9002,"vels":9003,"Ġmotivatie":9004,"Ġdildo":9005,"Ġgedetail":9006,"ĠBent":9007,"Ġtrends":9008,"Ġnormen":9009,"ores":9010,"Ġuitnodig":9011,"Ġpuz":9012,"Ġdossier":9013,"Brabant":9014,"Ġnegerinnen":9015,"Ġzodanig":9016,"ĠGar":9017,"ategie":9018,"Ad":9019,"Ġcentimeter":9020,"Ġmalen":9021,"ĠAg":9022,"inquenten":9023,"Ten":9024,"uleert":9025,"Ġvanzelfsprekend":9026,"Ġï»¿":9027,"Ġenthousiaste":9028,"Ġroept":9029,"zakken":9030,"Ġdestijds":9031,"Ġonmis":9032,"Ġbepalingen":9033,"ffeur":9034,"Ġket":9035,"Ġvacature":9036,"tekening":9037,"MC":9038,"Ġtools":9039,"Ġplaatst":9040,"Ġsimpelweg":9041,"Ġklussen":9042,"Ġbehoeve":9043,"ĠBank":9044,"uls":9045,"Binnen":9046,"sprogramma":9047,"erden":9048,"Ġversterkt":9049,"Ġprestatie":9050,"Ġinschrijven":9051,"Ġbrandweer":9052,"ĠUnivers":9053,"Ġverstrekken":9054,"Ġdoorheen":9055,"77":9056,"Ġvingers":9057,"iswaar":9058,"boer":9059,"Ġwisten":9060,"Ġbtw":9061,"Ġoverd":9062,"waardigheden":9063,"Ġopent":9064,"wijder":9065,"Ġvoertuigen":9066,"Goed":9067,"Ġzijk":9068,"Ġschijn":9069,"Nee":9070,"Ġgift":9071,"uch":9072,"Ġovereengekomen":9073,"ĠArab":9074,"Ġsur":9075,"ureaus":9076,"Ġplas":9077,"acc":9078,"ĠHoud":9079,"Ġbijv":9080,"ocratie":9081,"Ġdebat":9082,"Ġsom":9083,"lein":9084,"stell":9085,"spireerd":9086,"Ġadviezen":9087,"Ga":9088,"Ġstoere":9089,"Ġduik":9090,"ĠPieter":9091,"Ġmerkt":9092,"lee":9093,"Ġneut":9094,"atorium":9095,"Ġparticulieren":9096,"Ġsingle":9097,"Ġchristelijke":9098,"Ġschijf":9099,"schouw":9100,"Ġprivate":9101,"Ġgeprobeerd":9102,"Art":9103,"Ġklok":9104,"ommel":9105,"Ġfeedback":9106,"Ġdaartoe":9107,"Ġmand":9108,"zetting":9109,"Ġopmerkingen":9110,"serie":9111,"Ġtrainings":9112,"ĠCollege":9113,"Ġstralen":9114,"Ġstok":9115,"hier":9116,"ĠZeeland":9117,"Ġporte":9118,"Ġopleveren":9119,"Ġdecenn":9120,"Ġrefle":9121,"aille":9122,"kennis":9123,"Ġpresenteren":9124,"Ġgehoor":9125,"Ġinschrijving":9126,"streek":9127,"ray":9128,"Ġgezamenlijke":9129,"Ġaanpassingen":9130,"Ġgereden":9131,"Ġparlement":9132,"hor":9133,"Ġdoch":9134,"ml":9135,"Ġdoden":9136,"Ġinlog":9137,"VA":9138,"Ġvennoot":9139,"Ġcursussen":9140,"Ġprins":9141,"ilveren":9142,"Ġvierkante":9143,"Ġbeheren":9144,"Ġzanger":9145,"Ġontwikkelde":9146,"Vrouw":9147,"Ġroest":9148,"ĠMartin":9149,"hard":9150,"spart":9151,"VC":9152,"Ġafgerond":9153,"gebouwde":9154,"Press":9155,"Ġgeslaagd":9156,"ruikt":9157,"vergunning":9158,"ĠGoud":9159,"Ġolijf":9160,"Ġfir":9161,"Uw":9162,"Ġvijfde":9163,"ĠUl":9164,"ammen":9165,"iam":9166,"Ġschijnt":9167,"ĠFriesland":9168,"Ġbestond":9169,"ĠðŁĻĤ":9170,"Ġgauw":9171,"alisten":9172,"Ġbeziens":9173,"ĠVerm":9174,"voorzitter":9175,"Ġondernemingen":9176,"Ġlaad":9177,"Ġzoetermeer":9178,"ĠVind":9179,"Ġabsolute":9180,"itatie":9181,"Ġsamenstelling":9182,"alth":9183,"muziek":9184,"ĠMinister":9185,"Ġgeren":9186,"Ġverwarming":9187,"Ġkopie":9188,"hydr":9189,"Ġpremie":9190,"ĠPrijs":9191,"Ġongetwijfeld":9192,"Ġfrequ":9193,"halte":9194,"Ġcontra":9195,"Ġerotik":9196,"Ġelders":9197,"tieme":9198,"ref":9199,"Ġontwikkelt":9200,"Ġstalen":9201,"gin":9202,"productie":9203,"Ġkrachten":9204,"Ġbelangstelling":9205,"erings":9206,"Ġdrukke":9207,"Ġbeperkingen":9208,"Ġstopt":9209,"Ġsw":9210,"Ġsperma":9211,"ĠOranje":9212,"ata":9213,"Ġdoorb":9214,"ĠBor":9215,"Ġdiagnose":9216,"Let":9217,"Ġsmaken":9218,"Ġfaill":9219,"Ġherinneringen":9220,"Ġsieraden":9221,"Ġgestelde":9222,"ĠGG":9223,"Ġconditie":9224,"geling":9225,"Ġgedeeltelijk":9226,"Ġontspanning":9227,"Ġligging":9228,"onn":9229,"ompen":9230,"netwerk":9231,"Ġtegels":9232,"Ġinitiatieven":9233,"Ġknuff":9234,"Ġgewe":9235,"Ġda":9236,"Gen":9237,"Ġfen":9238,"Ġlandelijk":9239,"ateur":9240,"Ġgevormd":9241,"ĠâĢĿ":9242,"Ġstort":9243,"Ġcontactformulier":9244,"ĠBeste":9245,"Ġbevorderen":9246,"Ġwith":9247,"ĠVeen":9248,"Ġic":9249,"ĠTeam":9250,"ĠCentraal":9251,"Ġtoestand":9252,"Ġ39":9253,"Ġtrok":9254,"Ġduizend":9255,"Ġgetuigen":9256,"entjes":9257,"Ġafk":9258,"Ġkoek":9259,"ownload":9260,"fte":9261,"Ġverrichten":9262,"Ġmanager":9263,"Ġbond":9264,"geschiedenis":9265,"Ġcamper":9266,"Ġspl":9267,"Ġopname":9268,"ĠDam":9269,"Ġjournalist":9270,"Ġkwalitatief":9271,"seizoen":9272,"Ġkandidaat":9273,"Ġobs":9274,"ĠOut":9275,"Ġbeschermt":9276,"prijzen":9277,"gerichte":9278,"Ġspoedig":9279,"Ġverlangen":9280,"Ġvergoed":9281,"Ġnegatief":9282,"vlie":9283,"ights":9284,"Ġgemot":9285,"Ġpitt":9286,"Ġhanteren":9287,"Ġslijt":9288,"Ġpoging":9289,"Ġlezers":9290,"har":9291,"Ġslaat":9292,"Ġnotaris":9293,"ĠIdeaal":9294,"Ġvriendelijke":9295,"buiten":9296,"ĠTour":9297,"Ġbedienen":9298,"Ġkeek":9299,"Ġmeenemen":9300,"bestendig":9301,"ĠAfrika":9302,"Ġgelukt":9303,"imp":9304,"Ġdefinitief":9305,"ĠMeestal":9306,"oriteiten":9307,"Ġgenaamd":9308,"hen":9309,"Ġ42":9310,"Ġgo":9311,"Ġerkend":9312,"Ġzang":9313,"Ġbrandstof":9314,"ĠRT":9315,"ĠSEO":9316,"Ġingediend":9317,"hart":9318,"Ã©Ã©n":9319,"Ġsupport":9320,"bijvoorbeeld":9321,"Ġschulden":9322,"Ġverstaan":9323,"egelijk":9324,"Ġ2001":9325,"yd":9326,"Ġcv":9327,"Ġverdie":9328,"abl":9329,"Ġtalloze":9330,"Ġmassa":9331,"Ġdeskundige":9332,"ĠVor":9333,"Ġontw":9334,"Ġplaten":9335,"any":9336,"Ġsessie":9337,"mperatuur":9338,"ĠAlbert":9339,"Ġgedwongen":9340,"manager":9341,"ĠPap":9342,"besp":9343,"Ġhoo":9344,"Ġaanbevolen":9345,"ĠMob":9346,"Ġwereldwijde":9347,"Ġvermoeden":9348,"Ġpoes":9349,"ĠVerd":9350,"koming":9351,"Ġgetrouwd":9352,"Ġmama":9353,"gename":9354,"ĠTussen":9355,"Ġhals":9356,"Ġgepresent":9357,"ĠVert":9358,"Ġinse":9359,"ĠNS":9360,"ĠDaarvoor":9361,"Ġbeslissen":9362,"Ġnachts":9363,"ĠOntdek":9364,"ĠPower":9365,"Cl":9366,"zonden":9367,"arium":9368,"''":9369,"fsel":9370,"Ġjarenlange":9371,"bosch":9372,"une":9373,"ĠCB":9374,"Ġrits":9375,"ĠRos":9376,"avin":9377,"secretaris":9378,"Ġdeelt":9379,"Ġaangenaam":9380,"Ġboekje":9381,"mensen":9382,"allo":9383,"Ġwisselen":9384,"Ġbeslissingen":9385,"rekte":9386,"Ġ2002":9387,"Ġschoen":9388,"keuring":9389,"Zelf":9390,"velden":9391,"Ġjacht":9392,"Ġautomatische":9393,"inders":9394,"Ġbalkon":9395,"Ġuiteenlopende":9396,"Ġarchitectuur":9397,"onderd":9398,"Ġvoorbereid":9399,"Ġwettelijk":9400,"riteria":9401,"Ġviss":9402,"ĠErot":9403,"ĠMede":9404,"Ġverloopt":9405,"omende":9406,"Ġketting":9407,"Ġgescheiden":9408,"Ġschone":9409,"kest":9410,"lu":9411,"Ġwaardevolle":9412,"ĠStar":9413,"Ġkerken":9414,"Ġdrankje":9415,"Ġbruiloft":9416,"Ġmedicijn":9417,"ĠTex":9418,"stoornis":9419,"Ġartsen":9420,"oegt":9421,"fum":9422,"ĠRober":9423,"Ġleuker":9424,"Ġstoelen":9425,"Ġredden":9426,"Ġpercentage":9427,"Ġaantrekkelijke":9428,"Ġvon":9429,"Ġuitgebracht":9430,"Ġgevangenis":9431,"Ġvervanging":9432,"zaamheden":9433,"erveerd":9434,"Ġontslag":9435,"Ġbewerken":9436,"OW":9437,"set":9438,"DF":9439,"Ġvergeet":9440,"dit":9441,"Ġfiguur":9442,"Ġzeld":9443,"ĠToe":9444,"tewel":9445,"iekte":9446,"Ġadvocaten":9447,"slid":9448,"ĠJohan":9449,"Ġkapot":9450,"ĠOoster":9451,"vlucht":9452,"Ġprote":9453,"Ġzoiets":9454,"ague":9455,"sprodu":9456,"Ġconstant":9457,"Ġmonument":9458,"Ġvinger":9459,"ĠMor":9460,"Ġondersteund":9461,"const":9462,"Ġaansprakelijkheid":9463,"ersp":9464,"Ġvervelend":9465,"aterialen":9466,"reÃ«":9467,"jectie":9468,"Ġpromotie":9469,"Ġbewijzen":9470,"Ġgaven":9471,"Ġverplaatsen":9472,"Ġdiploma":9473,"ĠMarc":9474,"Ġbibliotheek":9475,"Ġcel":9476,"Ġhorm":9477,"Ġcoaching":9478,"Ġhoriz":9479,"Ġgoedge":9480,"usie":9481,"plicaties":9482,"ĠWell":9483,"lach":9484,"ĠCD":9485,"ĠCam":9486,"98":9487,"ĠWar":9488,"Ġmooier":9489,"ĠJeugd":9490,"entrum":9491,"Ġlichaams":9492,"Ġverzorgt":9493,"Ġverscheiden":9494,"ijnse":9495,"ĠJos":9496,"ĠWester":9497,"Ġultieme":9498,"thans":9499,"ĠKamp":9500,"avanc":9501,"Ġaansp":9502,"Ġschitterende":9503,"oeit":9504,"Ġparkeren":9505,"nu":9506,"iche":9507,"iseurs":9508,"Ġzorgde":9509,"76":9510,"ĠTri":9511,"mann":9512,"Ġoptimaliseren":9513,"keuren":9514,"Ġopger":9515,"Ġtalenten":9516,"Ġfran":9517,"Ġwets":9518,"Ġvroege":9519,"ĠJapanse":9520,"Ġbediening":9521,"ĠKleur":9522,"Ġreageert":9523,"veiligheid":9524,"nelheid":9525,"Ġverkennen":9526,"Ġdocenten":9527,"knop":9528,"Ġvoorwerpen":9529,"Ġzevent":9530,"ĠLu":9531,"ĠBoer":9532,"Ġcredit":9533,"Ġrijtje":9534,"ĠIJssel":9535,"ĠGroup":9536,"Ġonverm":9537,"ĠVlaams":9538,"Ġinner":9539,"oneel":9540,"Ġreserveren":9541,"unicatie":9542,"Ġuitzending":9543,"Ġuitermate":9544,"Ġzitting":9545,"Geen":9546,"Ġverkeers":9547,"Ġverlenen":9548,"papier":9549,"ĠInternational":9550,"dent":9551,"alistisch":9552,"ondsen":9553,"Ġverschuldig":9554,"Ġspringen":9555,"ĠCa":9556,"Ġoverwegen":9557,"Ġgooien":9558,"ianen":9559,"rick":9560,"Ġerover":9561,"ijpen":9562,"Ġmaatschappelijk":9563,"Ġbestrijden":9564,"Ġpu":9565,"ĠProbeer":9566,"ĠPrins":9567,"Ġpure":9568,"RC":9569,"uum":9570,"Ġoorzaken":9571,"Ġ..":9572,"Ġmiljoenen":9573,"Ġanim":9574,"Ġconcentratie":9575,"Ġactiv":9576,"Ġkanaal":9577,"Ġschat":9578,"Ġoverwinning":9579,"Ġkorter":9580,"iveaus":9581,"ĠRond":9582,"ormaal":9583,"Ġstijlvolle":9584,"stoelen":9585,"Ġbossen":9586,"verhaal":9587,"Ġinbegrepen":9588,"ystemen":9589,"leut":9590,"bels":9591,"Ġafwijk":9592,"ĠRadio":9593,"ukte":9594,"Ġpet":9595,"Ġaangenomen":9596,"Ġbegeleid":9597,"iaans":9598,"Ġformule":9599,"Ġtemperaturen":9600,"Ġbijl":9601,"isters":9602,"tert":9603,"Ġonderscheid":9604,"Ġarbeidsmarkt":9605,"volgende":9606,"Ġserv":9607,"ĠAmsterdamse":9608,"Ġovereenstemming":9609,"werkte":9610,"huur":9611,"Ġversturen":9612,"DS":9613,"Ġverhuizen":9614,"Ġsauna":9615,"aking":9616,"Ġcoc":9617,"He":9618,"ations":9619,"erklaas":9620,"Ġallebei":9621,"Ġconform":9622,"teurs":9623,"wering":9624,"projecten":9625,"ĠBestel":9626,"Ġkanalen":9627,"eger":9628,"print":9629,"Ġdemonstr":9630,"voorziening":9631,"apparaat":9632,"Ġdistrib":9633,"ĠVul":9634,"Ġirrit":9635,"Ġdeal":9636,"Ġwapen":9637,"Ġ08":9638,"ĠEconom":9639,"Ġuitkering":9640,"ondigd":9641,"gronden":9642,"BA":9643,"ĠLat":9644,"Ġsurf":9645,"Ġlichamelijke":9646,"Ġadviseur":9647,"stelveen":9648,"Ġgevarie":9649,"aterdag":9650,"Twee":9651,"andering":9652,"Ġkeih":9653,"Ġingeschreven":9654,"Ġindienen":9655,"Tube":9656,"Bek":9657,"Ġklassiek":9658,"ĠHigh":9659,"kwam":9660,"Ġeiken":9661,"Ġchec":9662,"Ġgrieks":9663,"Ġnadenken":9664,"Ġuitgen":9665,"Ġherv":9666,"Ġeieren":9667,"ĠForm":9668,"Ġgeschil":9669,"elateerde":9670,"elie":9671,"ĠVader":9672,"Ġelektronische":9673,"Ġplekje":9674,"Ġvee":9675,"Ġsletjes":9676,"Ġbewustzijn":9677,"fol":9678,"ĠDijk":9679,"ited":9680,"vertrouwen":9681,"RT":9682,"Ġreist":9683,"Ġcontactgegevens":9684,"Ġafgestemd":9685,"Ġprotest":9686,"Ġmoord":9687,"sequ":9688,"Ġevent":9689,"Ġlachen":9690,"Ġerfgoed":9691,"brief":9692,"Ġwerkwijze":9693,"cons":9694,"irkel":9695,"entegen":9696,"platform":9697,"Ġspeur":9698,"Ġzedendel":9699,"Ġverzoeken":9700,"ĠOrg":9701,"ĠTur":9702,"ĠCasino":9703,"oscoop":9704,"rub":9705,"ĠWordPress":9706,"uderen":9707,"ĠFoto":9708,"Ġprost":9709,"Ġbreng":9710,"Ġtoren":9711,"Boven":9712,"Ġzaad":9713,"Ġinvulling":9714,"Ġanoniem":9715,"Ġgereedschap":9716,"Ġclass":9717,"ĠVVD":9718,"ĠZet":9719,"anny":9720,"Bed":9721,"roog":9722,"Ġinstellen":9723,"urkse":9724,"top":9725,"Ġbetrokkenheid":9726,"ĠOpt":9727,"Ġdiversiteit":9728,"Ġvestiging":9729,"Ġspiritu":9730,"Aut":9731,"Ġonszelf":9732,"Ġnauwkeurig":9733,"yester":9734,"Sl":9735,"Ġdim":9736,"Ġafb":9737,"Ġongewen":9738,"ycle":9739,"vrijheid":9740,"ĠGrand":9741,"iven":9742,"Ġaro":9743,"ĠAM":9744,"rof":9745,"Ġvoorwaarde":9746,"Ġwort":9747,"persoons":9748,"huid":9749,"Ġvijftig":9750,"Ġvolume":9751,"Ġinbouw":9752,"Ġprec":9753,"Ġvoorgaande":9754,"2019":9755,"ĠGroep":9756,"olven":9757,"plannen":9758,"hr":9759,"Ġpotje":9760,"inaire":9761,"ĠMult":9762,"Ġnajaar":9763,"acks":9764,"Ġ600":9765,"cap":9766,"Ġenthousiasme":9767,"Ġlockdown":9768,"comp":9769,"Ġgord":9770,"behandeling":9771,"maatschap":9772,"kussen":9773,"cedures":9774,"ĠMel":9775,"ital":9776,"doel":9777,"resultaten":9778,"ÃĹ":9779,"Ġpc":9780,"melo":9781,"ĠOnderwijs":9782,"Ġwille":9783,"ato":9784,"Ġrobu":9785,"Ġfeite":9786,"ĠStuur":9787,"Ġschiet":9788,"itÃ©":9789,"Ġopeens":9790,"Ġvertaling":9791,"deelde":9792,"gangers":9793,"rec":9794,"ĠIndia":9795,"Ġrelevant":9796,"dex":9797,"ĠGrieken":9798,"Ġstree":9799,"Ġled":9800,"jaren":9801,"overen":9802,"Ġxxx":9803,"Ġverze":9804,"ĠGeest":9805,"Ġverhe":9806,"euk":9807,"Ġtrac":9808,"Ġverhoogd":9809,"iki":9810,"igratie":9811,"Ġtellen":9812,"product":9813,"dekking":9814,"Ġstoom":9815,"ĠEurope":9816,"Prive":9817,"ĠHenk":9818,"Ġonsch":9819,"idatie":9820,"elefoon":9821,"Ġhect":9822,"locatie":9823,"Ġfysiot":9824,"Ġmiss":9825,"stop":9826,"sprong":9827,"ĠbacteriÃ«n":9828,"ĠInternet":9829,"Ġ95":9830,"Ġafst":9831,"Ġkandidaten":9832,"ĠType":9833,"Ġling":9834,"ares":9835,"Ġluchthaven":9836,"Ġsexchat":9837,"Ġdol":9838,"istorie":9839,"schik":9840,"steloos":9841,"ĠIndones":9842,"ventaris":9843,"ashion":9844,"Ġtit":9845,"Ġhol":9846,"Ġplaatje":9847,"Ġvluchtelingen":9848,"].":9849,"Ġharm":9850,"Ġins":9851,"Ġfraaie":9852,"Ġbestellingen":9853,"ĠCOVID":9854,"Ġgedicht":9855,"ĠBelasting":9856,"Ġlong":9857,"ĠHu":9858,"odigen":9859,"iaan":9860,"ĠGre":9861,"ĠThomas":9862,"Ġdaaraan":9863,"ĠAmersfoort":9864,"seks":9865,"Ġgal":9866,"ĠSmart":9867,"Â´":9868,"ĠGriek":9869,"ijfer":9870,"Ġroll":9871,"ĠWi":9872,"Ġnoten":9873,"ruiken":9874,"Ġzonde":9875,"ĠZwart":9876,"Ġintensief":9877,"bes":9878,"Ġbehoud":9879,"Ġuitgenodigd":9880,"Ġdome":9881,"Ġorder":9882,"urity":9883,"ĠAnal":9884,"Ġaanwezige":9885,"Ġconflict":9886,"Ġvergelijkbaar":9887,"ĠPan":9888,"ĠRussische":9889,"Ġfaciliteiten":9890,"Ġdagje":9891,"spers":9892,"Ġho":9893,"Ġgebleken":9894,"Ġbovenop":9895,"Ġjongere":9896,"ommen":9897,"Ġkam":9898,"kijken":9899,"iedam":9900,"advert":9901,"Ġaangifte":9902,"Ġuitgesproken":9903,"Ġuitgangspunt":9904,"graaf":9905,"Ġbab":9906,"core":9907,"ĠðŁĺī":9908,"Ġmoeders":9909,"zeggen":9910,"Ġzyn":9911,"ĠgeÃ¯nstal":9912,"Ġzijne":9913,"Ġpal":9914,"Ġgetrokken":9915,"eleken":9916,"Fi":9917,"ĠAjax":9918,"Ġtenslotte":9919,"las":9920,"Ġip":9921,"Ġpiz":9922,"Ġgat":9923,"Ġlic":9924,"Ġwap":9925,"Ġbeschrijft":9926,"68":9927,"Ġ44":9928,"Ġgepresenteerd":9929,"weken":9930,"Ġtreffen":9931,"yen":9932,"Ġsco":9933,"Ġcloud":9934,"Ġmeubel":9935,"roen":9936,"Ġopdrachtgevers":9937,"Ġraakte":9938,"Ġzoete":9939,"Ġreviews":9940,"heel":9941,"Ġenigszins":9942,"idder":9943,"versum":9944,"ieder":9945,"trek":9946,"Ġbedden":9947,"Ġgevoelige":9948,"breuk":9949,"SS":9950,"cer":9951,"Ġziekenhuizen":9952,"ualiteit":9953,"Ġontstond":9954,"Ġklap":9955,"Ġflexibele":9956,"nij":9957,"Ġongeacht":9958,"Ġmevrouw":9959,"resultaat":9960,"Ġdieper":9961,"Ġaanval":9962,"Ġplug":9963,"Ġelement":9964,"Jan":9965,"Ġnagel":9966,"htt":9967,"orb":9968,"Ġkou":9969,"istof":9970,"ĠHendrik":9971,"Neem":9972,"eefd":9973,"Ġtu":9974,"axy":9975,"Ġladen":9976,"Ġdoelstellingen":9977,"Ġfantasie":9978,"mmers":9979,"Ġvangen":9980,"bloem":9981,"Ġaccepteren":9982,"uurde":9983,"Ġmust":9984,"Ġdraai":9985,"Ġballen":9986,"Ġexact":9987,"Ġkeel":9988,"verkocht":9989,"Ġindividueel":9990,"Ġdegenen":9991,"aanbod":9992,"gres":9993,"Ġfactor":9994,"Ġhecht":9995,"ĠTha":9996,"Ġbezienswaardigheden":9997,"ĠHong":9998,"Ġzekere":9999,"Ġaudio":10000,"ĠKut":10001,"denkt":10002,"Ġdurf":10003,"Ġrespectie":10004,"Ġpodcast":10005,"entijd":10006,"Ġmatras":10007,"ĠAma":10008,"Ġlelystad":10009,"ĠAlmere":10010,"horst":10011,"ĠAmer":10012,"raging":10013,"apparatuur":10014,"orter":10015,"PO":10016,"Ġ00":10017,"Gebruik":10018,"Ġplotseling":10019,"Ġuitgest":10020,"zamer":10021,"Ġharen":10022,"imenten":10023,"aandam":10024,"Ġharder":10025,"Ġschilderen":10026,"boog":10027,"ĠSuriname":10028,"Ġschriftelijke":10029,"strategie":10030,"Ġfans":10031,"Ġwijken":10032,"Ġvergroot":10033,"vdA":10034,"Ġgemeenteraad":10035,"Ġvi":10036,"Ġvakk":10037,"Ġdrukte":10038,"ues":10039,"Ġafwijken":10040,"Ġstuurt":10041,"Ġgeboden":10042,"ĠpotentiÃ«le":10043,"Ġstudies":10044,"Ġexp":10045,"Ġfru":10046,"maatschappij":10047,"Ġfle":10048,"ĠWin":10049,"ĠHoo":10050,"Ġgrip":10051,"Ġplaatselijke":10052,"ĠBrazil":10053,"vet":10054,"ĠZeer":10055,"ĠRij":10056,"spunten":10057,"Ġmolen":10058,"unction":10059,"EER":10060,"Ġtekeningen":10061,"ĠTran":10062,"rijp":10063,"Ġmaatregel":10064,"ĠPal":10065,"artikelen":10066,"ĠiPad":10067,"Ġelf":10068,"Ġinsch":10069,"wikkeld":10070,"Ġbeleving":10071,"ĠHeerlijk":10072,"Ġdoorlopen":10073,"ogels":10074,"ieker":10075,"Ġgeavanc":10076,"betes":10077,"Ġverkoopt":10078,"Ġstude":10079,"Ġschieten":10080,"Ġpapieren":10081,"Zorg":10082,"stijden":10083,"ĠMatt":10084,"ĠBody":10085,"Ġijzer":10086,"Ġbegrijpt":10087,"Ġonbekende":10088,"Ġdalen":10089,"Ġmark":10090,"ziatische":10091,"alling":10092,"ĠOP":10093,"sluis":10094,"Ġruimt":10095,"Ġzenuw":10096,"ĠbeÃ¯nvloeden":10097,"Ġopvallend":10098,"techniek":10099,"werkzaamheden":10100,"Ġoe":10101,"Ġnatura":10102,"Ġnegent":10103,"ride":10104,"Ġmoeilijker":10105,"leerde":10106,"Ġnuttig":10107,"Ġrealiteit":10108,"ĠOpdrachtgever":10109,"ietsen":10110,"VB":10111,"Zijn":10112,"rapport":10113,"Ġmaster":10114,"ĠYouTube":10115,"Ġwetten":10116,"Ġrub":10117,"ĠStart":10118,"ĠFort":10119,"ĠDou":10120,"Ġhersen":10121,"Ġmagnet":10122,"Ġprov":10123,"Ġnadeel":10124,"ĠKlant":10125,"bleem":10126,"Ġlabel":10127,"Afgelopen":10128,"ovid":10129,"rieks":10130,"Ġdader":10131,"ĠBert":10132,"lands":10133,"riÃ«n":10134,"Ġvoorheen":10135,"loopt":10136,"Ġbezorgd":10137,"Ġinterpret":10138,"Ġuitgegeven":10139,"Ġyoga":10140,"Ġvat":10141,"96":10142,"KB":10143,"Ġluist":10144,"cher":10145,"Ġconsum":10146,"Ġingrij":10147,"Ġmaalt":10148,"Ġknoop":10149,"oefenen":10150,"Ġuitgever":10151,"Ġgeestelijke":10152,"Ġbenadering":10153,"Ġbruine":10154,"Ġveget":10155,"Ġaanvaard":10156,"ĠRoo":10157,"ĠPlan":10158,"installatie":10159,"Ġplak":10160,"ĠLive":10161,"ĠMaster":10162,"itutie":10163,"Ġinvesteringen":10164,"Ġlak":10165,"Ġsamenv":10166,"artement":10167,"Ġelektrisch":10168,"Ħ¢":10169,"verlener":10170,"Ġdansen":10171,"Ġspont":10172,"ĠCle":10173,"ĠNot":10174,"Bekijk":10175,"Ġ85":10176,"Ġdurven":10177,"contract":10178,"winkels":10179,"Ġwasmachine":10180,"Ġongem":10181,"yr":10182,"Ġgitaar":10183,"Ġraadple":10184,"amilie":10185,"Ġvakantiehuis":10186,"Ġappel":10187,"Ġmobiliteit":10188,"Ġschuur":10189,"Ġvarianten":10190,"Ġslet":10191,"ĠJouw":10192,"ingssysteem":10193,"Ġsportieve":10194,"Ġdeskundig":10195,"ĠZwarte":10196,"Ġkoppelen":10197,"Ġagress":10198,"Ġintiem":10199,"Ġzedendelinquenten":10200,"ello":10201,"ĠDuur":10202,"verwarming":10203,"ms":10204,"Misschien":10205,"auty":10206,"ĠLater":10207,"ĠWaal":10208,"Ġph":10209,"Ġbranden":10210,"Ġtoevallig":10211,"Ġ46":10212,"atiet":10213,"2018":10214,"Ġdial":10215,"leraar":10216,"ady":10217,"Ġdokter":10218,"Ġobjecten":10219,"ĠLeuven":10220,"Ġkoolhydr":10221,"Iedereen":10222,"Ġontbreekt":10223,"Ġmilitaire":10224,"Ġmal":10225,"Ġboete":10226,"ĠLeuk":10227,"Ġtoevoeging":10228,"Ġindrukwekkende":10229,"Ġtalen":10230,"Ġselecteren":10231,"zoekt":10232,"Ġerachter":10233,"type":10234,"Ġvoornaam":10235,"Ġvervaardigd":10236,"Ġrechtvaard":10237,"anna":10238,"mi":10239,"Ġaanvang":10240,"Ġgewijzigd":10241,"Ġovergenomen":10242,"Ġfeestdagen":10243,"!âĢĻ":10244,"Ġjob":10245,"Ġsalon":10246,"half":10247,"rijken":10248,"Ġbruik":10249,"Ġbied":10250,"ĠZou":10251,"Ġscheiding":10252,"Ġgevoerd":10253,"Ġberekend":10254,"mende":10255,"mpath":10256,"Ġvergelijkbare":10257,"Ġstilte":10258,"Ġopvallende":10259,"Ġpatronen":10260,"oorts":10261,"raden":10262,"instru":10263,"Ġprofielen":10264,"Ġoverb":10265,"landen":10266,"Ġcookie":10267,"ĠFab":10268,"Ġverblijven":10269,"Ġvrolijke":10270,"ĠBig":10271,"Ġtank":10272,"SP":10273,"schappelijk":10274,"festival":10275,"Ġnoodzaak":10276,"Ġhuishoud":10277,"andaar":10278,"ĠFer":10279,"ogn":10280,"sted":10281,"Ġspectac":10282,"Ġeilanden":10283,"ĠBlue":10284,"weden":10285,"rongen":10286,"zett":10287,"Ġschilderij":10288,"becue":10289,"li":10290,"Ġinstallaties":10291,"Ġmr":10292,"Ġloopbaan":10293,"annings":10294,"Ġlippen":10295,"udeerd":10296,"Ġprofiteren":10297,"Ġdiens":10298,"ĠDigit":10299,"Ġoutfit":10300,"Ġalternatieve":10301,"apel":10302,"Ġweliswaar":10303,"Ġbis":10304,"Ġexemplaar":10305,"Ġattra":10306,"Ġuitslag":10307,"ays":10308,"ĠManagement":10309,"icks":10310,"Ġaangevuld":10311,"Ġgepaard":10312,"Ġgeselecteerd":10313,"ikker":10314,"Ġsne":10315,"Ġtouch":10316,"Ġdure":10317,"Ġscoren":10318,"Ġgeliefde":10319,"Ġletters":10320,"voland":10321,"Ġnest":10322,"plezier":10323,"Ġkwaliteiten":10324,"ubile":10325,"Ġoverheden":10326,"eulen":10327,"formeerd":10328,"gingen":10329,"Ġkozijnen":10330,"ĠGelderland":10331,"Ġveront":10332,"Ġconsequ":10333,"Ġmuzikale":10334,"ĠWim":10335,"ĠEigenlijk":10336,"Ġgedreven":10337,"ĠAnne":10338,"Ġverwijzen":10339,"ĠSnel":10340,"Ġbewegingen":10341,"Ġkart":10342,"Ġtoneel":10343,"isjes":10344,"legging":10345,"irurg":10346,"Ġfinish":10347,"Ġwachtwoord":10348,"Ġchemische":10349,"Ġverwezen":10350,"Ġamersfoort":10351,"ografische":10352,"Ġsymbool":10353,"Ġrun":10354,"Ġbeantwoord":10355,"EU":10356,"logen":10357,"Ġsaus":10358,"Ġtennis":10359,"zit":10360,"Ġplatte":10361,"Ġhoogtepunt":10362,"Ġoorspronkelijk":10363,"Ġpoeder":10364,"Ġbeveiligd":10365,"web":10366,"ĠAangezien":10367,"tro":10368,"ega":10369,"ĠvariÃ«ren":10370,"planten":10371,"ĠTurkije":10372,"cours":10373,"mmer":10374,"Ġwan":10375,"omt":10376,"Ġsong":10377,"ĠMex":10378,"Ġstijgen":10379,"ĠKleine":10380,"Ġreizigers":10381,"Ġauthentieke":10382,"ĠRom":10383,"Ġzakelijk":10384,"Ġaanwijzingen":10385,"jan":10386,"Ġstranden":10387,"Ġgoedkoopste":10388,"Ġerkende":10389,"ĠWeer":10390,"ĠGalaxy":10391,"last":10392,"Ġbuff":10393,"Ġbeveiligings":10394,"Ġemotionele":10395,"Ġmaastricht":10396,"onteerd":10397,"Ġdeelnemer":10398,"Ġhedendaagse":10399,"fgoed":10400,"Ġmantel":10401,"Su":10402,"itische":10403,"jas":10404,"Ġbovenaan":10405,"vas":10406,"Ġturkse":10407,"Ġroken":10408,"ontwerp":10409,"Ġhuishoudens":10410,"Ġvoorbereiden":10411,"Ġfinanciering":10412,"oph":10413,"zinnige":10414,"uwd":10415,"Ġketen":10416,"Ġilleg":10417,"Ġzorgverzeker":10418,"Ġmenselijk":10419,"schaal":10420,"rede":10421,"ologen":10422,"79":10423,"eerders":10424,"Ġinfrastructuur":10425,"ĠAC":10426,"Ġkritisch":10427,"Ġshowroom":10428,"vader":10429,"Ġadministratieve":10430,"plo":10431,"Ġspecialis":10432,"Ġpoly":10433,"Ġhoeveelheden":10434,"Ġlege":10435,"ĠVerwijder":10436,"staten":10437,"Ġontsn":10438,"bellen":10439,"Ġverzet":10440,"Ġdunne":10441,"Ġverbeterd":10442,"schip":10443,"Ġhaard":10444,"ĠOlymp":10445,"ĠgeÃ¯nspireerd":10446,"motor":10447,"Ġuitgere":10448,"Ġkende":10449,"Ġongeloof":10450,"gebonden":10451,"bladen":10452,"cho":10453,"Ġslaa":10454,"ĠMinisterie":10455,"Ġchristen":10456,"Ġpannen":10457,"ĠVin":10458,"vle":10459,"oerde":10460,"Ġpeil":10461,"ĠPop":10462,"jarig":10463,"Ġkapitaal":10464,"Com":10465,"Ġcombineert":10466,"Ġherinnering":10467,"Ġarmb":10468,"aff":10469,"afels":10470,"Ġvaart":10471,"Ġnogmaals":10472,"Ġcd":10473,"velop":10474,"Ġrespectiev":10475,"Ġverliest":10476,"Ġzijnde":10477,"ruimen":10478,"Ġpublicatie":10479,"Ġzelfde":10480,"Ġzelfstandige":10481,"59":10482,"Ġcompens":10483,"Ġstelling":10484,"Ġnetwerken":10485,"Ġgewaar":10486,"Ġgeluids":10487,"ĠGroene":10488,"Ġverzameling":10489,"Ġreligie":10490,"ĠNI":10491,"ĠContact":10492,"paal":10493,"wasser":10494,"ĠcategorieÃ«n":10495,"ĠessentiÃ«le":10496,"brengt":10497,"Ġeenheid":10498,"ĠBad":10499,"Ġanalyseren":10500,"Ġeindigt":10501,"Ġwast":10502,"ĠJans":10503,"specialist":10504,"work":10505,"avel":10506,"vecht":10507,"emand":10508,"Ġdankbaar":10509,"Ġgevaarlijke":10510,"ĠOor":10511,"Ġ[...]":10512,"beelding":10513,"ools":10514,"ministratie":10515,"heffing":10516,"Ġconne":10517,"aging":10518,"Ġhandelingen":10519,"Ġgelopen":10520,"ĠVe":10521,"Ġcellen":10522,"ĠVier":10523,"Ġbreken":10524,"Ã¼r":10525,"ĠpoÃ«":10526,"Ġgeres":10527,"Ġeerlijke":10528,"Ġoverleven":10529,"shirt":10530,"Ġduurder":10531,"Ġfile":10532,"Ġgezag":10533,"Ġstorm":10534,"Ġverrassend":10535,"Ġgevoelig":10536,"Ġverenigingen":10537,"Ġvluchten":10538,"Ġherinneren":10539,"km":10540,"tocol":10541,"iod":10542,"Ġminimale":10543,"EK":10544,"ĠVeiligheid":10545,"Vor":10546,"icale":10547,"Ġseksfilm":10548,"Ġjury":10549,"Ġtoename":10550,"gings":10551,"uun":10552,"ĠApeldoorn":10553,"ĠBMW":10554,"ĠUr":10555,"Ġmaaltijden":10556,"Ġwegge":10557,"beveil":10558,"Ġpolitici":10559,"ĠTegelijk":10560,"itting":10561,"Ġreinig":10562,"Ġagent":10563,"drukt":10564,"Ġgezorgd":10565,"Ġillustr":10566,"Ġverzendkosten":10567,"gelegde":10568,"ĠEgy":10569,"Toch":10570,"ĠInstituut":10571,"Ġsuggest":10572,"Ġwaarover":10573,"Ġpostcode":10574,"Ġsteunen":10575,"Ġchronische":10576,"Ġinstructies":10577,"Ġinsecten":10578,"Ġleidde":10579,"Ġontwer":10580,"rog":10581,"ï¼Į":10582,"actief":10583,"Ġartiesten":10584,"Ġkeus":10585,"Ġgiet":10586,"ĠKr":10587,"Ġdorpen":10588,"Ġlangdurige":10589,"stij":10590,"meth":10591,"schoten":10592,"ĠFree":10593,"Beste":10594,"Ġextreme":10595,"Ġwerkplek":10596,"ificeren":10597,"Ġtol":10598,"Ġgroeiende":10599,"eleens":10600,"ĠNV":10601,"ĠPrem":10602,"hi":10603,"comfort":10604,"Ġtreedt":10605,"iking":10606,"Ġlaagste":10607,"stud":10608,"istieken":10609,"ĠLux":10610,"Ġstandpunt":10611,"ĠWeten":10612,"ositie":10613,"Ġbekl":10614,"ĠBern":10615,"Ġvijand":10616,"Ġkleurrijke":10617,"Ġbestuurders":10618,"ĠVers":10619,"sterren":10620,"aleis":10621,"hoogte":10622,"hoorn":10623,"Ġroom":10624,"ĠNationaal":10625,"ĠKru":10626,"Ġhaalde":10627,"Ġdef":10628,"ĠSexdate":10629,"Ġgezondheidszorg":10630,"LA":10631,"Ġid":10632,"ae":10633,"ĠRobert":10634,"Ġvennootschap":10635,"Ġonthouden":10636,"Ġnavig":10637,"Ġaangelegd":10638,"Ġachterzijde":10639,"ĠPre":10640,"ĠgecreÃ«":10641,"vor":10642,"Ġgezins":10643,"UT":10644,"Ġgrijze":10645,"Ġhek":10646,"Ġopbrengst":10647,"ĠNic":10648,"rang":10649,"Ġgarant":10650,"Ġuitgelegd":10651,"Ġoplopen":10652,"ĠGriekse":10653,"ĠSchiphol":10654,"Ġaqu":10655,"RM":10656,"rokk":10657,"ĠThuisontvangst":10658,"Ġhonger":10659,"ĠFranc":10660,"Ġscenario":10661,"\"]":10662,"usea":10663,"ĠSS":10664,"Ġbinnenkant":10665,"Ġsenioren":10666,"Ġverklaren":10667,"Ġlatere":10668,"Ġes":10669,"erzijds":10670,"Ġenzo":10671,"Ġoverle":10672,"etre":10673,"Ġsexafspraak":10674,"Ġdiscipl":10675,"Ġwink":10676,"gevend":10677,"lende":10678,"Ġcab":10679,"ĠcreÃ«ert":10680,"Ġopzetten":10681,"Huis":10682,"Ġpasvorm":10683,"oppervlak":10684,"Ġincass":10685,"ĠIets":10686,"enter":10687,"Ġberekenen":10688,"Ġaandoening":10689,"Mensen":10690,"complex":10691,"Ġvlakbij":10692,"keten":10693,"ĠEt":10694,"Ġstabiel":10695,"ny":10696,"deringen":10697,"Ġingevuld":10698,"oeiend":10699,"Mocht":10700,"iÃ«rs":10701,"ĠDikke":10702,"ĠRab":10703,"Ġwaan":10704,"udenten":10705,"ĠTal":10706,"wegingen":10707,"Ġkloppen":10708,"Ġgelijke":10709,"Ġonrust":10710,"Ġslagen":10711,"Ġweleens":10712,"CHT":10713,"Ġkalender":10714,"ĠIII":10715,"erotische":10716,"wijzing":10717,"ĠcrÃ¨me":10718,"Ġmouwen":10719,"assade":10720,"cul":10721,"Ġflexibiliteit":10722,"Ġpoort":10723,"RI":10724,"Ġfotograaf":10725,"Ġrijbewijs":10726,"Ġschol":10727,"Ġbeschadigd":10728,"vi":10729,"Ġinspirerende":10730,"Ġsignaal":10731,"Ġmonteren":10732,"akes":10733,"Ġcrypt":10734,"Ġsfeervolle":10735,"ĠRich":10736,"Beg":10737,"ĠBaby":10738,"Ġï¼Į":10739,"Ġtegel":10740,"Ġuni":10741,"Ġdaarentegen":10742,"Ġinzien":10743,"Ġbehoudt":10744,"Ġspelletjes":10745,"Ġredactie":10746,"ĠgeÃ¯nstalleerd":10747,"vezel":10748,"Ġambacht":10749,"elletje":10750,"Ġparkeerplaats":10751,"Ġvergeleken":10752,"Ġkippen":10753,"Ġgestopt":10754,"Ġoosten":10755,"ategorieÃ«n":10756,"Ġverrassing":10757,"adressen":10758,"online":10759,"ĠCast":10760,"vee":10761,"ugde":10762,"Ġpauze":10763,"ĠVO":10764,"schalige":10765,"account":10766,"kundig":10767,"zende":10768,"UN":10769,"been":10770,"Ġvid":10771,"Ġwetenschappers":10772,"Soms":10773,"Ġmeegemaakt":10774,"ĠMoet":10775,"okt":10776,"Ġ01":10777,"anceerd":10778,"atholieke":10779,"ubileum":10780,"ators":10781,"Ġfitness":10782,"ĠBerlijn":10783,",âĢĻ":10784,"Ġhoogst":10785,"Ġregistreren":10786,"Ġkaartje":10787,"meter":10788,"Ġmunt":10789,"Ġapplicatie":10790,"ĠLicht":10791,"Nadat":10792,"aadjes":10793,"Ġafsch":10794,"Ġham":10795,"Ġvertrouwde":10796,"Ġhuisvrouwen":10797,"Ġbou":10798,"Ġgetu":10799,"Ġverdwijnt":10800,"Ġkeert":10801,"Ġafwiss":10802,"moed":10803,"plekken":10804,"ĠLie":10805,"Ġstijging":10806,"Ġkal":10807,"58":10808,"Ġspijt":10809,"ĠSteen":10810,"kaartje":10811,"unnel":10812,"sproblemen":10813,"Ġbezoekt":10814,"Ġoverdag":10815,"ooks":10816,"schop":10817,"analyse":10818,"ieters":10819,"Ġserver":10820,"Man":10821,"ĠÂ°":10822,"Ġlap":10823,"ils":10824,"Ġverzenden":10825,"hebbende":10826,"Ġverspreiden":10827,"Ġ180":10828,"ĠTro":10829,"Ġjongste":10830,"itecten":10831,"Ġhondjes":10832,"Ġ43":10833,"ĠEst":10834,"igden":10835,"Ġmasse":10836,"Ġmagazijn":10837,"Ġstijve":10838,"voeren":10839,"dij":10840,"Ġkids":10841,"Ġstor":10842,"ainment":10843,"Ġaff":10844,"ĠHierin":10845,"ĠMichael":10846,"Ġonbekend":10847,"atsapp":10848,"reizen":10849,"Ġhoning":10850,"Ġpred":10851,"Ġonaan":10852,"Ġverbruik":10853,"Ġnaartoe":10854,"Ġjarige":10855,"Ġmyster":10856,"ĠhÃ©":10857,"SC":10858,"ĠEnschede":10859,"Ġprofessional":10860,"Ġmuis":10861,"Ġgemeld":10862,"Ġovereenkomsten":10863,"Ġantwerpen":10864,"Ġisol":10865,"Ġkenn":10866,"ĠTurkse":10867,"Ġtour":10868,"mag":10869,"aafd":10870,"ĠJohannes":10871,"ĠHout":10872,"Ġfeder":10873,"Ġmer":10874,"Ġsectoren":10875,"Ġverwar":10876,"Ġinstrumenten":10877,"Ġft":10878,"Ġzuurstof":10879,":ï¼ļ":10880,"72":10881,"Ġarmoede":10882,"Ġkeram":10883,"ya":10884,"wart":10885,"Ġcheck":10886,"Ġelektron":10887,"tage":10888,"Ġmeren":10889,"Ġvoorziet":10890,"ickers":10891,"Ġ49":10892,"Ġschrik":10893,"houdende":10894,"ĠJuist":10895,"ĠHal":10896,"dringen":10897,"matische":10898,"df":10899,"Ġcum":10900,"âĢ¦âĢ¦":10901,"ĠMas":10902,"Geplaatst":10903,"oflook":10904,"issement":10905,"ĠWordt":10906,"ĠWK":10907,"Ġexploit":10908,"Ġvoorbe":10909,"Ġvoortaan":10910,"fen":10911,"ontje":10912,"Ġwesten":10913,"Ġbasisschool":10914,"Ġwennen":10915,"ĠGewoon":10916,"Ġtegenstander":10917,"Ġnadelen":10918,"speler":10919,"Ġziekten":10920,"Ġintroductie":10921,"oir":10922,"eers":10923,"pect":10924,"uning":10925,"Ġbenader":10926,"Ġcertificaat":10927,"maatregelen":10928,"ellect":10929,"ĠJacob":10930,"Ġvoorkant":10931,"ĠGeniet":10932,"Or":10933,"Ġkranten":10934,"Ġuiterste":10935,"reeuw":10936,"Ġwaardering":10937,"Ġbedrijfsleven":10938,"Ġvitam":10939,"ĠAfhankelijk":10940,"Ġbedoelde":10941,"Ġpay":10942,"¿½":10943,"ĠMol":10944,"utting":10945,"ĠEC":10946,"ĠTuin":10947,"Ġschilderijen":10948,"Ġbetalings":10949,"pal":10950,"Ġverbrand":10951,"Ġkring":10952,"osmet":10953,"Ġbeschikbaarheid":10954,"Ġhoorn":10955,"ĠAmb":10956,"âĦ¢":10957,"Ġuitgaven":10958,"Ġverkle":10959,"Ġfotografie":10960,"Ġwork":10961,"MO":10962,"Ġaanslag":10963,"afdeling":10964,"Ġredelijke":10965,"Ġeiwitten":10966,"Ġkantoren":10967,"Ġgewaarde":10968,"ilit":10969,"ĠBestuur":10970,"ĠClass":10971,"Ġbiologisch":10972,"oedel":10973,"tocht":10974,"ĠEnkele":10975,"Ġlui":10976,"ondition":10977,"gebroken":10978,"verbinding":10979,"berichten":10980,"Ġgoedgekeurd":10981,"vaar":10982,"EP":10983,"Ġdatingsites":10984,"Ġprettige":10985,"Ġfilme":10986,"tr":10987,"osting":10988,"Sh":10989,"ĠProduct":10990,"Ġbijeenkomsten":10991,"Ġgrondstoffen":10992,"Ġhitte":10993,"fronteerd":10994,"gehalte":10995,"spir":10996,"oci":10997,"Ġarchief":10998,"ĠWeet":10999,"gebruikers":11000,"volution":11001,"ards":11002,"ĠFit":11003,"ĠGeert":11004,"Ġstuderen":11005,"sta":11006,"Ġpasta":11007,"Ġreserv":11008,"Ġschouders":11009,"FC":11010,"ĠWall":11011,"oga":11012,"Ġzuiver":11013,"lementen":11014,"Ġkaal":11015,"Ġlezing":11016,"ĠAustraliÃ«":11017,"ĠSpeel":11018,"Ġliedjes":11019,"Ġpersoonlijkheid":11020,"Ġmaatje":11021,"nummers":11022,"ĠVN":11023,"Cont":11024,"Ġfront":11025,"Ġkoos":11026,"Ġingeschakeld":11027,"schat":11028,"cedes":11029,"Ġmineralen":11030,"nieuws":11031,"Ġwillekeur":11032,"pend":11033,"ĠHum":11034,"dis":11035,"Ġopricht":11036,"ytics":11037,"adviseur":11038,"groei":11039,"Ġschuim":11040,"Ġgeleverde":11041,"giÃ«ne":11042,"Ġdeeg":11043,"Ġverwel":11044,"camera":11045,"Ġbewegings":11046,"reur":11047,"ekra":11048,"Ġparticuliere":11049,"pleegd":11050,"Ġkraan":11051,"Ġdiameter":11052,"Ġmedicatie":11053,"Ġwaarborgen":11054,"bit":11055,"ĠBrugge":11056,"Ġmisl":11057,"fabriek":11058,"euten":11059,"sproducten":11060,"Vrij":11061,"gezondheid":11062,"ful":11063,"SM":11064,"Ġlieten":11065,"WV":11066,"Ġsterven":11067,"EA":11068,"Ġprobeerde":11069,"Ġvervuil":11070,"Ġinfectie":11071,"sterk":11072,"Ġhuisje":11073,"erson":11074,"=>":11075,"Ġtrappen":11076,"meren":11077,"aait":11078,"Ġtherapeut":11079,"kanaal":11080,"ĠTegenwoordig":11081,"Ġaanhang":11082,"Ġtermen":11083,"bereik":11084,"Ġmilitair":11085,"Ġmarkten":11086,"Ġradi":11087,"Ġpassag":11088,"vocht":11089,"adijs":11090,"Ġwerkdag":11091,"Ġspuitend":11092,"Ġgods":11093,"Ġbenoemd":11094,"ĠRutte":11095,"Ġdownload":11096,"Ġfavoriet":11097,"waarts":11098,"Ġaanvallen":11099,"Th":11100,"73":11101,"Ġnoodzakelijke":11102,"krant":11103,"ĠBox":11104,"Ġplaatsing":11105,"agnes":11106,"ĠPvdA":11107,"Ġslavin":11108,"Ġkra":11109,"Ġervaart":11110,"ela":11111,"Ġlenen":11112,"iving":11113,"aks":11114,"Ġachteruit":11115,"rode":11116,"Ġzy":11117,"Ġkit":11118,"Ġbril":11119,"Ġbeoordelingen":11120,"Ġcontrast":11121,"Ġtweedehands":11122,"Ġclubs":11123,"Ġcompacte":11124,"immel":11125,"ĠPlaats":11126,"Ġaspect":11127,"Ġalsook":11128,"oofde":11129,"Ġglimlach":11130,"vergadering":11131,"Ġverleend":11132,"beurs":11133,"Ġintroduc":11134,"rint":11135,"Ġscore":11136,"leen":11137,"ĠJack":11138,"ĠDec":11139,"ijer":11140,"Ġoprecht":11141,"ziekte":11142,"eleid":11143,"Ġongeval":11144,"orge":11145,"Ġkinderopvang":11146,"Ġgebonden":11147,"Ġaangekondigd":11148,"Ġmodule":11149,"Ġaanpakken":11150,"ogingen":11151,"zwem":11152,"Ġpersonages":11153,"ĠDutch":11154,"Ġaandoeningen":11155,"Ġgeconfronteerd":11156,"show":11157,"aatsen":11158,"Ġuitgaan":11159,"wachting":11160,"ula":11161,"ĠGet":11162,"Ġopmerking":11163,"zine":11164,"Ġkutten":11165,"Hieronder":11166,"schema":11167,"Zoek":11168,"Ġdosis":11169,"ĠJoden":11170,"Ġtoets":11171,"Ġlidmaatschap":11172,"Ġmakelaar":11173,"ĠDub":11174,"Ġhaha":11175,"Ġonverget":11176,"Ġast":11177,"aaier":11178,"bezoek":11179,"stelt":11180,"Ġkwartier":11181,"Ġtrendy":11182,"irecteur":11183,"ĠSchoon":11184,"bomen":11185,"Ġsamenwerkings":11186,"Ġagen":11187,"Ġstaande":11188,"Ġmore":11189,"Ġoefening":11190,"arisch":11191,"pop":11192,"Ġsommigen":11193,"demie":11194,"Ġoverdracht":11195,"Ġcart":11196,"ĠgecreÃ«erd":11197,"ofte":11198,"untain":11199,"droom":11200,"chtends":11201,"TM":11202,"Ġrespectievelijk":11203,"obe":11204,"sole":11205,"56":11206,"aps":11207,"Ġrepareren":11208,"Ġernaar":11209,"ideos":11210,"ĠWitte":11211,"Ġ(âĤ¬":11212,"sturen":11213,"Ġgrondig":11214,"AND":11215,"Ġraadplegen":11216,"TC":11217,"Afrika":11218,"ĠKing":11219,"Ġtaxi":11220,"Ġhinder":11221,"Ġamper":11222,"immen":11223,"Ste":11224,"spiegel":11225,"stok":11226,"materialen":11227,"Ġzeil":11228,"Ġest":11229,"Ġvertel":11230,"ĠLange":11231,"Ġvruchten":11232,"Ġinkt":11233,"Ġbehaald":11234,"Ġstring":11235,"Ġras":11236,"Ġapeldoorn":11237,"ecties":11238,"ateurs":11239,"Ġduit":11240,"ĠVanwege":11241,"aadt":11242,"structuur":11243,"indelijke":11244,"Ġcoll":11245,"Ġverliefd":11246,"genoeg":11247,"Ġkalk":11248,"Ġglans":11249,"oetsen":11250,"Ġfiscale":11251,"fa":11252,"rollen":11253,"house":11254,"Ġsoft":11255,"IF":11256,"Ġli":11257,"Ġonderstaand":11258,"IVM":11259,"ĠProvinc":11260,"Ġbosch":11261,"Ġwekelijks":11262,"ĠHele":11263,"Ġkortings":11264,"OV":11265,"Ġev":11266,"Ġvormgeving":11267,"ĠLok":11268,"Ġgemen":11269,"Ġverschijn":11270,"Ġopgegeven":11271,"roef":11272,"Ġopbouwen":11273,"verancier":11274,"Ġmondkap":11275,"Ġgeneesmiddelen":11276,"eloze":11277,"Ġmedium":11278,"veringen":11279,"Ġintensieve":11280,"Ġresol":11281,"keuze":11282,"ĠShop":11283,"Ġomst":11284,"ĠTwente":11285,"bestaan":11286,"ĠEnergie":11287,"ĠDrenthe":11288,"technologie":11289,"ĠMeester":11290,"Ġverdu":11291,"book":11292,"Ġverbazing":11293,"Ġvertalen":11294,"Ġbruid":11295,"Ġtomaten":11296,"wijzer":11297,"Ġtypische":11298,"Ġversterk":11299,"ĠVeg":11300,"Ġschakel":11301,"ated":11302,"Ġgemeenschappelijke":11303,"Ġuitspraken":11304,"insel":11305,"ĠCultuur":11306,"isser":11307,"Ġhoopt":11308,"ĠUV":11309,"wood":11310,"Ġnas":11311,"ulering":11312,"ĠSj":11313,"Ġcomputers":11314,"Ġzelfvertrouwen":11315,"kopp":11316,"Ġvoormalig":11317,"orpor":11318,"isseur":11319,"Ġchar":11320,"Ġinteractie":11321,"Ġverrast":11322,"site":11323,"meisje":11324,"akkoord":11325,"ĠDirect":11326,"Ġkenteken":11327,"ĠLeague":11328,"ĠKlein":11329,"ĠBedrijf":11330,"Ġduidelijkheid":11331,"MI":11332,"treding":11333,"ĠSing":11334,"Ġzone":11335,"Ġbleven":11336,"onische":11337,"bronnen":11338,"neuzen":11339,"Ġfacebook":11340,"ĠLight":11341,"ĠVandaar":11342,"uge":11343,"uitje":11344,"digen":11345,"Ġwis":11346,"Ġvermoeid":11347,"Ġtong":11348,"cert":11349,"Ġverschillend":11350,"Ġpsychische":11351,"orinchem":11352,"ĠBlauw":11353,"Ġbarbecue":11354,"ationele":11355,"ĠMat":11356,"Ġgeavanceerde":11357,"ĠEP":11358,"Ġkraam":11359,"ugels":11360,"beweging":11361,"Ġlangdurig":11362,"Ġhandleiding":11363,"Ġonderb":11364,"Ġknoflook":11365,"Ġfundament":11366,"Ġaangename":11367,"verzorging":11368,"Ġsexe":11369,"Ġherkenbaar":11370,"Ġtoelichting":11371,"etsen":11372,"igranten":11373,"ally":11374,"Ondanks":11375,"Ġaanschaffen":11376,"utter":11377,"Ġkilometers":11378,"Ġomgevings":11379,"olo":11380,"Ġsnij":11381,"ĠAnna":11382,"kampioen":11383,"Ġeigenaren":11384,"Wh":11385,"ĠEUR":11386,"uldige":11387,"hes":11388,"Ġintegratie":11389,"Home":11390,"Ġbuis":11391,"formance":11392,"Ġafwez":11393,"2017":11394,"Ġplaatsvindt":11395,"gn":11396,"gein":11397,"ĠBa":11398,"ĠCDA":11399,"Ġcaravan":11400,"ĠJeroen":11401,"Ġpakt":11402,"Ġtime":11403,"ves":11404,"ranken":11405,"inda":11406,"Ġdemocratie":11407,"Ġdisplay":11408,"Ġbrein":11409,"Ġuurtje":11410,"abon":11411,"Per":11412,"Ġhuisartsen":11413,"Ġuitzien":11414,"Ġtoenemende":11415,"slot":11416,"iland":11417,"Mooie":11418,"Ġkolon":11419,"ĠAnton":11420,"71":11421,"Ġwifi":11422,"schillende":11423,"Ġfi":11424,"Ġuitdrukkelijk":11425,"ĠStudio":11426,"ĠTrans":11427,"Ġgreep":11428,"proef":11429,"aamse":11430,"Ġende":11431,"Ġpolyester":11432,"museum":11433,"Ġuitgave":11434,"Ġhoven":11435,"utphen":11436,"Ġaangepaste":11437,"74":11438,"verhalen":11439,"Ġcontainer":11440,"Ġroer":11441,"Ġknappe":11442,"Ġmenig":11443,"iseerd":11444,"Ġerom":11445,"Ġvijftien":11446,"Ġmotoren":11447,"antisch":11448,"Dankzij":11449,"Ġoppervl":11450,"ĠZweden":11451,"flix":11452,"jo":11453,"Ġbeland":11454,"Ġbeschrijven":11455,"Ġuitzend":11456,"ussentijd":11457,"Ġvoorafgaand":11458,"Kijk":11459,"partijen":11460,"Ġgekleurde":11461,"Ġpakketten":11462,"anisme":11463,"Ġhyper":11464,"Ġvermelden":11465,"Ġshirt":11466,"athon":11467,"itters":11468,"Ġgetal":11469,"Ġwielen":11470,"Ġexemplaren":11471,"aanden":11472,"ĠRest":11473,"drat":11474,"ĠPrivacy":11475,"Ġgaande":11476,"Ġstijgt":11477,"ĠCenter":11478,"Ġgedichten":11479,"Ġgebakken":11480,"Ġtouw":11481,"Ġaud":11482,"ĠBurger":11483,"Ġvriendschap":11484,"prest":11485,"Ġcadeaut":11486,"Ġwijd":11487,"Ġmeerwaarde":11488,"Ġsnijden":11489,"Ġbespaart":11490,"Ġminst":11491,"Ġasiel":11492,"ktail":11493,"Ġbinnenstad":11494,"Ġwissel":11495,"Ġuiteindelijke":11496,"Ġletsel":11497,"ĠTor":11498,"Ġbio":11499,"lose":11500,"Ġuitnodiging":11501,"Ġdekking":11502,"ĠProject":11503,"Ġlip":11504,"honderd":11505,"Ġ99":11506,"Ġtussendoor":11507,"Ġvie":11508,"aters":11509,"Ġtuinen":11510,"Ġinkoop":11511,"Ġmoslims":11512,"ĠStr":11513,"Ġolijfolie":11514,"Ġscala":11515,"arken":11516,"Ġedel":11517,"Gem":11518,"Ġkwetsbare":11519,"ĠMuziek":11520,"Ġfunctionaliteit":11521,"Ġinteractieve":11522,"Ġbescheiden":11523,"Ġsexcam":11524,"ificeerd":11525,"Ġgezelligheid":11526,"__":11527,"Ġbijstand":11528,"drukken":11529,"Ġcall":11530,"Ġdecennia":11531,"Ġtrop":11532,"isa":11533,"ĠEg":11534,"ĠPalest":11535,"ĠExtra":11536,"Ġbillen":11537,"Ġlooptijd":11538,"elpen":11539,"Ġdanken":11540,"Ġgecertificeerd":11541,"mannen":11542,"Ġbeker":11543,"Helaas":11544,"fan":11545,"llen":11546,"irts":11547,"Ġ800":11548,"geveer":11549,"Ġ[\"":11550,"Ġstal":11551,"attingen":11552,"Ġconcreet":11553,"Ġplakken":11554,"ĠMore":11555,"Ġbuitenkant":11556,"mmingen":11557,"?)":11558,"itje":11559,"86":11560,"issaris":11561,"ques":11562,"Ġschoonmaken":11563,"spot":11564,"ĠWagen":11565,"ĠGeschikt":11566,"Ġcalorie":11567,"ampoo":11568,"verkoop":11569,"\"]=>":11570,"Ġwethouder":11571,"Ġlijstje":11572,"Ġoverheer":11573,"Ġplay":11574,"Ġzocht":11575,"Ġverhuizing":11576,"celona":11577,"Ġvoortvl":11578,"Ġovernacht":11579,"wekkend":11580,"Ġkleed":11581,"Ġ41":11582,"eerste":11583,"ĠMichel":11584,"ĠJean":11585,"Ġdergelijk":11586,"Ġdiabetes":11587,"ĠRode":11588,"Ġcomponenten":11589,"Ġrisic":11590,"Ġruil":11591,"profession":11592,"Ġgemeten":11593,"izoenen":11594,"ĠSand":11595,"Ġnaad":11596,"Ġtoernooi":11597,"Ġnut":11598,"ĠRVS":11599,"publiek":11600,"Ġkelder":11601,"ĠHoll":11602,"asselt":11603,"Ġuitgewerkt":11604,"weed":11605,"straf":11606,"accept":11607,"Ġsluiting":11608,"ĠDJ":11609,"Ġkosteloos":11610,"Ġsig":11611,"banen":11612,"geschikt":11613,"Ġdebuut":11614,"lag":11615,"trekken":11616,"Ġrechte":11617,"ĠCheck":11618,"oefening":11619,"Ġtoegevoegde":11620,"Ġbinden":11621,"Ġaanleggen":11622,"Ġaftrek":11623,"perkt":11624,"ĠLi":11625,"Ġvoorgeschreven":11626,"mend":11627,"Ġboel":11628,"Ġnieuwsgierig":11629,"Ġbetaalbaar":11630,"vreden":11631,"baden":11632,"inderd":11633,"ĠErg":11634,"Ġgespecialiseerde":11635,"----":11636,"ĠHan":11637,"itz":11638,"Ġantib":11639,"Ġcriteria":11640,"zinnig":11641,"ĠTien":11642,"Ġbrouw":11643,"Ġsessies":11644,"Ġcover":11645,"Ġdorpje":11646,"Ġdwang":11647,"wachte":11648,"Ġatt":11649,"Ġ56":11650,"Ġjonger":11651,"54":11652,"samen":11653,"Ġdirectie":11654,"Ġvegan":11655,"Ġindic":11656,"Ġincl":11657,"oplossingen":11658,"edte":11659,"Ġaangetoond":11660,"Ġ1999":11661,"Ġuitgek":11662,"Ġverhoogde":11663,"automatis":11664,"Ġvertaald":11665,"Ġherk":11666,"ĠLaten":11667,"Kort":11668,"shuis":11669,"ĠWees":11670,"Ġcongres":11671,"ĠHard":11672,"Ġeduc":11673,"umm":11674,"ĠZoekt":11675,"ĠDa":11676,"Ġverspreiding":11677,"Ġfunctionele":11678,"acteur":11679,"Ġverwen":11680,"cursus":11681,"sjech":11682,"Ġoftewel":11683,"Ġbovenste":11684,"ĠPhilips":11685,"Ġsterkte":11686,"Ġwebwinkel":11687,"ĠCanada":11688,"onte":11689,"Ã©e":11690,"ĠBro":11691,"ĠInf":11692,"ĠFestival":11693,"Ġingebouwde":11694,"ziekten":11695,"ieleden":11696,"ĠUp":11697,"Ġperceel":11698,"Ġglan":11699,"Uiter":11700,"Ġverwijst":11701,"Ġtruc":11702,"geveen":11703,"Ġaccountant":11704,"Ġinzage":11705,"isolatie":11706,"Ġomschreven":11707,"ijne":11708,"eringen":11709,"Ġmonitor":11710,"uip":11711,"Ġgekl":11712,"Ġaanpassing":11713,"ĠSinterklaas":11714,"schaft":11715,"Ġertoe":11716,"oke":11717,"Ġserieuze":11718,"ĠTem":11719,"Ġplaatsgevonden":11720,"ills":11721,"Ġdeventer":11722,"Ġaanraking":11723,"Ġwoonde":11724,"Ġgetra":11725,"ext":11726,"diening":11727,"Ġmijzelf":11728,"elementen":11729,"ĠCit":11730,"deuren":11731,"Ġerkenning":11732,"Ġhil":11733,"ancy":11734,"ector":11735,"ĠVoet":11736,"scheiding":11737,"Ġtextiel":11738,"%)":11739,"Ġontwikkelings":11740,"ios":11741,"Ġslotte":11742,"Ġpizza":11743,"bied":11744,"ronde":11745,"oundat":11746,"Ġoverzichtelijk":11747,"orth":11748,"Ġheilige":11749,"atalog":11750,"Ġcarnav":11751,"oplossing":11752,"tertainment":11753,"ĠDNA":11754,"Ġslip":11755,"oelt":11756,"stru":11757,"mos":11758,"boel":11759,"Ġduo":11760,"Ġtypisch":11761,"adden":11762,"ĠRIVM":11763,"ĠLib":11764,"Ġstimuleert":11765,"ĠRock":11766,"Ġgemonteerd":11767,"Ġverant":11768,"geleverde":11769,"Ġadverteren":11770,"ĠZand":11771,"Ġonderkant":11772,"Ġspecificaties":11773,"2016":11774,"Ġlesbo":11775,"CC":11776,"Ġlosl":11777,"ellant":11778,"Ġintellect":11779,"ĠPay":11780,"sbetre":11781,"Ġverschilt":11782,"Ġtijdschrift":11783,"Ġvertrokken":11784,"Ġtoonaan":11785,"Ġvriendinnen":11786,"Lekker":11787,"Vanuit":11788,"ubsid":11789,"bat":11790,"hoewel":11791,"arbe":11792,"vormige":11793,"Ġwanden":11794,"hanger":11795,"Ġonderlinge":11796,"ko":11797,"Ġmasker":11798,"Ġraar":11799,"Ġwaardevol":11800,"Ġvordering":11801,"Heel":11802,"OD":11803,"ertjes":11804,"Ġmusea":11805,"Ġbevalling":11806,"lijsten":11807,"ĠJava":11808,"Ġchamp":11809,"icten":11810,"ĠMercedes":11811,"lechts":11812,"Ġvoortgezet":11813,"fch":11814,"Ġdesbetre":11815,"âĢ¦)":11816,"Ġovertuigen":11817,"Ġ1998":11818,"Ġlopende":11819,"menu":11820,"olden":11821,"wust":11822,"ĠLeeuwarden":11823,"ĠNaam":11824,"Ġmiddelbare":11825,"derde":11826,"tekeningen":11827,"Ġleerkrachten":11828,"binden":11829,"Ġinnerlijke":11830,"Ġchauffeur":11831,"ĠChamp":11832,"ĠzÃ³":11833,"Ġtak":11834,"WS":11835,"aux":11836,"Ġkers":11837,"AK":11838,"Ġnationaal":11839,"urm":11840,"Ġeconomisch":11841,"angbang":11842,"Ġvervallen":11843,"Ġdatabase":11844,"Ġvolkomen":11845,"ĠgeÃ¯sole":11846,"ĠBelastingdienst":11847,"Naar":11848,"Ġsmalle":11849,"ĠGriekenland":11850,"Ġroutes":11851,"wa":11852,"ĠKoninklijke":11853,"reinig":11854,"Ġzilveren":11855,"Ġ52":11856,"Ġfractie":11857,"ffer":11858,"bakken":11859,"Un":11860,"Ġdealer":11861,"Ġexport":11862,"Ġzolder":11863,"ĠRel":11864,"Ġhistorisch":11865,"essor":11866,"TE":11867,"Ġnar":11868,"Ġgeduld":11869,"Ġbless":11870,"Ġwou":11871,"bep":11872,"ĠWebsite":11873,"iels":11874,"LI":11875,"Ġrock":11876,"Ġcams":11877,"Ġafz":11878,"itieve":11879,"kerij":11880,"</":11881,"ĠManu":11882,"Ġbesef":11883,"Ġwaarderen":11884,"Ġgroote":11885,"Ġjubileum":11886,"Ġgoedkeuring":11887,"Ġleraar":11888,"Ġafvoer":11889,"Ġaanbieder":11890,"Ġpiano":11891,"rachtige":11892,"Ġondergaan":11893,"Tegen":11894,"ogens":11895,"Ġduiken":11896,"89":11897,"Ġink":11898,"bedden":11899,"Ġgunstig":11900,"Ġsollicitatie":11901,"Ġdwars":11902,"ĠBat":11903,"Ġleverde":11904,"Ġgemeentelijke":11905,"Ġonzekerheid":11906,"lezen":11907,"Ġwaterv":11908,"Ġlabor":11909,"Ã¼n":11910,"temperatuur":11911,"Ġintussen":11912,"Ġsilic":11913,"Ġkruid":11914,"Ġnal":11915,"Ġmarokk":11916,"how":11917,"Ġgebeurtenis":11918,"Ġbijpassen":11919,"Ġveertig":11920,"ĠSil":11921,"Ġgeregistreerde":11922,"Ġcolumn":11923,"zig":11924,"Ġafsluit":11925,"Ġduurde":11926,"ĠSant":11927,"Ġontving":11928,"Ġ64":11929,"Ġgeneraties":11930,"Ġexacte":11931,"Ġgrappig":11932,"agog":11933,"ĠWoon":11934,"ugal":11935,"Ġasbest":11936,"Ġsin":11937,"Ġblonde":11938,"Ġinspanning":11939,"agin":11940,"Ġgemist":11941,"Ġdief":11942,",.":11943,"klok":11944,"Ġverplichte":11945,"Ġschema":11946,"Ġverzekerings":11947,"weven":11948,"Ġlux":11949,"Ġvertrekt":11950,"ĠJonge":11951,"Ġbijwerkingen":11952,"Ġhopelijk":11953,"Ġdemocr":11954,"ĠOnderzoek":11955,"Ġhoogwaardig":11956,"Ġingevoerd":11957,"Ġregister":11958,"zoon":11959,"pporten":11960,"Ġliefhebbers":11961,"eeg":11962,"Ġzuin":11963,"Ġparfum":11964,"Ġbehang":11965,"Ġverlagen":11966,"Ġbekendste":11967,"groot":11968,"Ġpanelen":11969,"Ġdesbetreffende":11970,"Ġtreft":11971,"Ġnagels":11972,"Ġregie":11973,"Ġdrogen":11974,"uet":11975,"Ġschadelijke":11976,"Ġkoor":11977,"Ã¶per":11978,"Ġgun":11979,"ochters":11980,"Ġblogs":11981,"Ã©Ã©r":11982,"Ġinschrij":11983,"filter":11984,"poeder":11985,"Ġalthans":11986,"wille":11987,"Ġkalm":11988,"Ġgezonder":11989,"Ġprikk":11990,"ĠBeach":11991,"ĠNational":11992,"groen":11993,"Ġpall":11994,"Ġafspreken":11995,"Ġeindeloos":11996,"ĠVideo":11997,"Ġtur":11998,"Ġuitleggen":11999,"class":12000,"53":12001,"overd":12002,"Ġfilters":12003,"ĠAltijd":12004,"Ġopzoek":12005,"sende":12006,"Ġwier":12007,"ho":12008,"Ġmassagesalon":12009,"Ġdaaruit":12010,"Inter":12011,"Ġrecord":12012,"Ġlegde":12013,"vorens":12014,"ili":12015,"Ġuitkomt":12016,"Ġvakken":12017,"ockey":12018,"bas":12019,"zamen":12020,"face":12021,"Ġmaagd":12022,"girl":12023,"zuiger":12024,"Ġliepen":12025,"isende":12026,"Ġontl":12027,"Ġvoorzijde":12028,"besluit":12029,"aya":12030,"jobs":12031,"Ġloun":12032,"Ġimport":12033,"Ġrichtlijn":12034,"Ġdoelstelling":12035,"ĠHot":12036,"bodem":12037,"Ġapplicaties":12038,"Ġoplevert":12039,"Ġcha":12040,"AV":12041,"ĠTr":12042,"Ġdeksel":12043,"Ġstrenge":12044,"Ġuitbreiden":12045,"oire":12046,"omeen":12047,"Ġtransparant":12048,",...":12049,"Ġschaffen":12050,"ĠAlkmaar":12051,"wedstrijden":12052,"ĠTel":12053,"Ġopgeleverd":12054,"Ġkocht":12055,"ĠMaarten":12056,"Ġairco":12057,"shop":12058,"ials":12059,"Ġtabel":12060,"Ġhardlopen":12061,"Ġanale":12062,"uiker":12063,"illon":12064,"Ġdepressie":12065,"Ġrestaur":12066,"ĠGraag":12067,"ERS":12068,"oundation":12069,"Ġminim":12070,"Ġopgave":12071,"certific":12072,"ppels":12073,"Ġreligieuze":12074,"ĠVast":12075,"gord":12076,"matisch":12077,"ĠVeld":12078,"Ġsignalen":12079,"dak":12080,"banken":12081,"verwege":12082,"nieuwe":12083,"Ġaangehouden":12084,"nep":12085,"Ġmannelijke":12086,"Ġsingles":12087,"houdingen":12088,"Ġverklaart":12089,"Ġvlekken":12090,"Ġplaneet":12091,"Ġventilatie":12092,"beveiliging":12093,"ĠGT":12094,"ĠDieren":12095,"Ġleerde":12096,"molen":12097,"ĠBarcelona":12098,"ronken":12099,"Ġrecreatie":12100,"Ġvertraging":12101,"Ġgeleidelijk":12102,"Ġvolgorde":12103,"ĠSter":12104,"Ġrubber":12105,"Ġvloei":12106,"Ġcirkel":12107,"sbel":12108,"Ġknip":12109,"zy":12110,"Ġtussentijd":12111,"Ġsloot":12112,"Ġgestaan":12113,"Ġvoorkeuren":12114,"ĠMeld":12115,"ĠAnder":12116,"ĠMech":12117,"ĠLos":12118,"Ġambul":12119,"pool":12120,"Ġcontro":12121,"lampen":12122,"wijn":12123,"Ġautomatis":12124,"Ġbetrouwbaarheid":12125,"Ġprocedures":12126,"Ġhierna":12127,"ĠDirk":12128,"Ġbesmet":12129,"Ġvoorsprong":12130,"Ġarrest":12131,"Ġopslaan":12132,"verslag":12133,"ĠDom":12134,"Ġmill":12135,"Ġkwetsbaar":12136,"uel":12137,"Ġverlang":12138,"regio":12139,"ĠVergelijk":12140,"ĠBou":12141,"gras":12142,"Ġschadevergoeding":12143,"CA":12144,"ĠGold":12145,"Ġroy":12146,"Ġleraren":12147,"ragers":12148,"apping":12149,"ĠSo":12150,"Ġvelden":12151,"gedeelte":12152,"Ġdement":12153,"Ġstijlvol":12154,"Ġverzekeren":12155,"Ġverbetert":12156,"Ġpreventie":12157,"ĠTon":12158,"Ġvoeden":12159,"Ġgebroken":12160,"Ġconcl":12161,"Ġvervelende":12162,"iana":12163,"scont":12164,"Ġvrachtwagen":12165,"elings":12166,"ĠInformatie":12167,"ĠbeÃ¯nvloed":12168,"Ġseries":12169,"olang":12170,"Ġok":12171,"Ġvirtuele":12172,"Ġweers":12173,"reking":12174,"folie":12175,"Ġwortel":12176,"Ġmg":12177,"verandering":12178,"ĠLab":12179,"ondersteun":12180,"Ġplein":12181,"cus":12182,"cultuur":12183,"Ġgelooft":12184,"Ġimplementatie":12185,"Ġgebruikelijke":12186,"Ġleiderschap":12187,"ĠXL":12188,"Ġaardbe":12189,"69":12190,"quÃª":12191,"Ġgeldende":12192,"ĠIV":12193,"dachte":12194,"Ġvervaldatum":12195,"ĠBegin":12196,"po":12197,"Ġtar":12198,"Ġ47":12199,"Ġexplic":12200,"51":12201,"omstandigheden":12202,"Ġsnelweg":12203,"Ġentree":12204,"Ġbaar":12205,"noten":12206,"oepass":12207,"eerlijk":12208,"standaard":12209,"Amerika":12210,"ĠBob":12211,"Ġverste":12212,"Ġopkomst":12213,"BI":12214,"zorgen":12215,"Daarom":12216,"Ġoprichting":12217,"Ġhoes":12218,"ta":12219,"rijving":12220,"ĠNov":12221,"bu":12222,"ketel":12223,"ski":12224,"Ġopleidings":12225,"oordeling":12226,"ĠElekt":12227,"winst":12228,"partner":12229,"ility":12230,"Ġrouw":12231,"Ġongewenste":12232,"Ġindicatie":12233,"Ġdruiven":12234,"stappen":12235,"Ġmentale":12236,"ichaam":12237,"Ġbeoog":12238,"Ġverbindt":12239,"ĠWol":12240,"capaciteit":12241,"64":12242,"Ġthans":12243,"Ġloodgieter":12244,"Ġuitdagende":12245,"Ġalternatieven":12246,"ĠZoet":12247,"Ġomgek":12248,"Ġstaten":12249,"ĠHarry":12250,"Ġverloor":12251,"ĠHoek":12252,"akelaars":12253,"Ġreceptie":12254,"Ġsupp":12255,"afval":12256,"maatje":12257,"ĠLaur":12258,"CD":12259,"NV":12260,"riÃ«nt":12261,"ranen":12262,"Ġtum":12263,"wei":12264,"azine":12265,"steken":12266,"ĠErik":12267,"Ġschooljaar":12268,"ĠBreng":12269,"Ġaangeeft":12270,"Ġschild":12271,"Ġnale":12272,"Ġkroon":12273,"Ġonverwacht":12274,"matiek":12275,"Ġvermen":12276,"Ġstudente":12277,"Ġtafels":12278,"Ġopgehaald":12279,"kundigen":12280,"Ġcul":12281,"Ġverschrik":12282,"ĠMini":12283,"Ġbelastingen":12284,"lippen":12285,"verenigingen":12286,"Ġtekening":12287,"ĠMach":12288,"Ġtabl":12289,"ĠHollandse":12290,"Ġdordrecht":12291,"kope":12292,"Ġkond":12293,"Ġhaat":12294,"Ġstik":12295,"ĠBergen":12296,"ĠJustitie":12297,"Ġgrondslag":12298,"Ġworst":12299,"ĠHeeren":12300,"Ġtoestellen":12301,"Ġgroeide":12302,"Ġdefinitieve":12303,"Ġindeling":12304,"Ġbom":12305,"Ġservices":12306,"Ġborden":12307,"ĠProfession":12308,"werf":12309,"aliseert":12310,"Ġgewassen":12311,"vige":12312,"Ġpoten":12313,"iscipl":12314,"Ġhieraan":12315,"Ġbepaling":12316,"treffen":12317,"Ġautover":12318,"Ġlastige":12319,"Ġzestig":12320,"feu":12321,"Ġochtends":12322,"ope":12323,"ĠAndr":12324,"Ġgeroepen":12325,"Ġmanifest":12326,"Ġverstuurd":12327,"iÃ«r":12328,"ĠDaarin":12329,"ijkenisse":12330,"Ġverrassende":12331,"Ġvoorgesteld":12332,"ĠGeld":12333,"ĠCat":12334,"?!":12335,"elaars":12336,"Ġak":12337,"Ġkritische":12338,"Ġbewaar":12339,"Ġklooster":12340,"300":12341,"ĠTru":12342,"Ġbetrekken":12343,"iva":12344,"Ġvs":12345,"Ġsprook":12346,"Ġnachten":12347,"Ġhuisdier":12348,"Even":12349,"ceaan":12350,"Ġrok":12351,"Ġhandmatig":12352,"Ġfabrikanten":12353,"ĠLas":12354,"Ġsint":12355,"Ġleeuwarden":12356,"geest":12357,"Ġvermelding":12358,"Ġkleinste":12359,"Ġterror":12360,"Ġhuurder":12361,"Ġwerkplaats":12362,"Ġflessen":12363,"ĠWhite":12364,"NS":12365,"Ġparas":12366,"Ġrobot":12367,"ĠFrie":12368,"Ġblond":12369,"Ġtoeristische":12370,"Ġreserve":12371,"Ġproduceert":12372,"Vlaanderen":12373,"gebruikt":12374,"Ġimmuun":12375,"rage":12376,"briek":12377,"Ġanderzijds":12378,"Ġgenezen":12379,"Ġstreng":12380,"Ġmarokkaanse":12381,"hu":12382,"Ġpersoneels":12383,"weedse":12384,"Ġfrustr":12385,"Ġaankond":12386,"Ġwerkende":12387,"Ġkortingen":12388,"ĠSun":12389,"ĠMarketing":12390,"leiders":12391,"Ġpower":12392,"ĠVit":12393,"Ġkoeien":12394,"ĠLam":12395,"Ġverbod":12396,"ĠoliÃ«n":12397,"Ġaand":12398,"XL":12399,"Ġbetrokkenen":12400,"agn":12401,"brood":12402,"Ġfiguren":12403,"Ġschok":12404,"ĠSchot":12405,"Ġnagenoeg":12406,"Ġpornofilms":12407,"Ġcity":12408,"overzicht":12409,"Ġinventaris":12410,"Ġvo":12411,"Ġstabiliteit":12412,"ĠefficiÃ«nte":12413,"Ġfilosofie":12414,"Ġgelaten":12415,"Ġvrees":12416,"ĠKwaliteit":12417,"zuren":12418,"ogram":12419,"duceerd":12420,"67":12421,"stechn":12422,"melden":12423,"ĠNij":12424,"Ġgeboekt":12425,"Ġtypen":12426,"ops":12427,"Ġinloggen":12428,"ĠMari":12429,"Duit":12430,"Ġrusten":12431,"opte":12432,"weld":12433,"Ġbijen":12434,"ĠHP":12435,"Ġkro":12436,"bestemming":12437,"agel":12438,"Ġoverlast":12439,"ĠBay":12440,"collectie":12441,"Ġgeacht":12442,"ĠOndertussen":12443,"via":12444,"Ġschot":12445,"Ġadviseert":12446,"ĠBitcoin":12447,"97":12448,"ĠMerk":12449,"Ġlevensl":12450,"Ġparticulier":12451,"Ġafspraakjes":12452,"Ãĥ":12453,"Ġbundel":12454,"Ġmantelzorg":12455,"ingsvermogen":12456,"Ġkunstwerk":12457,"ĠJas":12458,"osta":12459,"Ġafl":12460,"Ġwell":12461,"ĠPolen":12462,"gevol":12463,"Ġramp":12464,"Ġhorizont":12465,"veer":12466,"EE":12467,"Ġcruciaal":12468,"Ġnul":12469,"NC":12470,"ĠBijna":12471,"iekenhuis":12472,"87":12473,".:":12474,"Ġtickets":12475,"Ġbenadrukt":12476,"Ġtoegekend":12477,"Ġschoot":12478,"ĠVictor":12479,"Ġjuridisch":12480,"ĠIm":12481,"bride":12482,"Ġvereiste":12483,"ronk":12484,"TV":12485,"Ġvertrouwd":12486,"kool":12487,"Ġkoffer":12488,"ĠWellicht":12489,"woud":12490,"Ġupdates":12491,"itiek":12492,"ĠKees":12493,"Bet":12494,"Ġaankopen":12495,"ĠWO":12496,"Ġniveaus":12497,"Ġafgest":12498,"Ġoverk":12499,"ĠFle":12500,"Ġbenaderen":12501,"ĠOverijssel":12502,"routes":12503,"Ġwrijven":12504,"Wor":12505,"Ġkokos":12506,"Ġburn":12507,"Sommige":12508,"ĠDem":12509,"Ġoraal":12510,"Ġvaatwasser":12511,"Ġopeningstijden":12512,"dad":12513,"wind":12514,"ĠKor":12515,"ĠNetflix":12516,"atteland":12517,"Ġelektro":12518,"jon":12519,"ĠRol":12520,"Ġversies":12521,"Ġultra":12522,"gment":12523,"Ġwapens":12524,"betaald":12525,"unk":12526,"ĠPaulus":12527,"Ġluchtvaart":12528,"Ġelegante":12529,"rande":12530,"eeuwen":12531,"Ġperiod":12532,"Ġdrijven":12533,"Ġhoed":12534,"reert":12535,"Ġonmisbaar":12536,"Ġmest":12537,"artikel":12538,"Ġgebruikelijk":12539,"Ġparo":12540,"jet":12541,"ĠPen":12542,"Ġnew":12543,"Ġlukken":12544,"ĠHall":12545,"Ġvres":12546,"Ġhengelo":12547,"ĠRomein":12548,"Ġvoedingsstoffen":12549,"oerden":12550,"52":12551,"staal":12552,"ĠSaint":12553,"LM":12554,"Ġschuil":12555,"Ġsnoep":12556,"ĠKruis":12557,"uilding":12558,"gehouden":12559,"Ġarbeiders":12560,"Ġverzekeraar":12561,"Ġmengsel":12562,"lereerst":12563,"Ġgluten":12564,"figur":12565,"Ġlevende":12566,"ĠDisney":12567,"Ġline":12568,"vanger":12569,"Ġhulpmiddelen":12570,"Ġvariatie":12571,"gangen":12572,"Ġdess":12573,"Ġkeihard":12574,"ĠSon":12575,"Ġtoed":12576,"lor":12577,"don":12578,"Ġovereenkomstig":12579,"Ġdecoratie":12580,"Ġveroordeeld":12581,"ĠZwitserland":12582,"geer":12583,"Ġpaspoort":12584,"Eer":12585,"],":12586,"Ġhoogleraar":12587,"Ġbegroting":12588,"ĠMotor":12589,"ĠStandaard":12590,"Ġmassaal":12591,"ault":12592,"Alles":12593,"uiting":12594,"mob":12595,"Ġopgelegd":12596,"Ġwinkelen":12597,"Ġonduidelijk":12598,"Ġstemming":12599,"cal":12600,"ĠAnn":12601,"beur":12602,"ĠLot":12603,"Ġlasten":12604,"Ġdikte":12605,"duizend":12606,"vings":12607,"rente":12608,"elta":12609,"Zij":12610,"Ġrozen":12611,"ĠGi":12612,"HD":12613,"itch":12614,"Ġstartte":12615,"ĠDordrecht":12616,"uddy":12617,"ĠLinke":12618,"Ġconserv":12619,"Ġvaststellen":12620,"praktijk":12621,"Ġdialoog":12622,"Con":12623,"Ġdocumentaire":12624,"Ġvijver":12625,"onderdelen":12626,"parken":12627,"oÃ¯":12628,"Ġzijkant":12629,"Ġorganisator":12630,"procedure":12631,"ĠIl":12632,"merce":12633,"Ġstrategische":12634,"Ġfood":12635,"ĠWilders":12636,"iseren":12637,"Ġontdekking":12638,"Ġhersteld":12639,"ĠHo":12640,"Ġlichten":12641,"Ġlicentie":12642,"Ġjal":12643,"Ġwerkelijke":12644,"Ġgeluiden":12645,"Ġkennelijk":12646,"leiden":12647,"Ġschatt":12648,"mech":12649,"Ġallerg":12650,"Ġgezeten":12651,"issies":12652,"ĠefficiÃ«nter":12653,"Ġsted":12654,"Ġverlicht":12655,"Ġbegraven":12656,"Ġwoonplaats":12657,"Ġseizoenen":12658,"Ġcard":12659,"ĠGener":12660,"Ġvoorafgaande":12661,"lazen":12662,"Ġaangetroffen":12663,"Ġagr":12664,"kommer":12665,"Ġpremier":12666,"voudige":12667,"Ġintervent":12668,"ĠTantra":12669,"uiver":12670,"ĠIemand":12671,"Ġplank":12672,"round":12673,"94":12674,"tim":12675,"Ġinschakelen":12676,"Ġgedetailleerde":12677,"nemingen":12678,"Ġomgezet":12679,"Ġwarmtepomp":12680,"wend":12681,"verblijf":12682,"Ġaangekomen":12683,"Ġgaar":12684,"Ġfenomeen":12685,"Ġkoppeling":12686,"ingsmiddelen":12687,"Ġuitkomen":12688,"ĠAqu":12689,"ĠRam":12690,"ature":12691,"ĠOverigens":12692,"ĠWalter":12693,"Ġvoegt":12694,"ĠVAN":12695,"oordelen":12696,"ĠLin":12697,"Ġheerlen":12698,"utjes":12699,"ask":12700,"ouse":12701,"Ġvorming":12702,"Ġstijlen":12703,"ruise":12704,"eeling":12705,"Online":12706,"Ġstoot":12707,"Ġaankomen":12708,"92":12709,"Ġvoorbije":12710,"graad":12711,"aminaat":12712,"Ġmailen":12713,"AF":12714,"Ġzonnige":12715,"gor":12716,"Zie":12717,"Ġvrijblijvende":12718,"Ġopsp":12719,"Ġui":12720,"ĠJoodse":12721,"ĠTest":12722,"vesting":12723,"ĠVerh":12724,"borg":12725,"Ġportemon":12726,"antal":12727,"Ġsamenstellen":12728,"verter":12729,"Ġsalade":12730,"Ġnodigen":12731,"Ġopberg":12732,"Ġblack":12733,"ĠAmateur":12734,"Ġscript":12735,"Ġvermindert":12736,"Ġnoemde":12737,"Ġlens":12738,"Ġrolstoel":12739,"Ġwaterk":12740,"ird":12741,"ĠtechnologieÃ«n":12742,"somstandigheden":12743,"bewust":12744,"Ġvloeistof":12745,"Ġvuurwerk":12746,"ĠGolf":12747,"ĠOrganis":12748,"Ġverwijzing":12749,"Ġfamilies":12750,"Ġvooruitgang":12751,"ĠVerenigd":12752,"HO":12753,"Ã´":12754,"2015":12755,"Ġgedrukt":12756,"ĠhÃ©t":12757,"Ġbloeddruk":12758,"Ġgewaardeerd":12759,"rekenen":12760,"Ġuzelf":12761,"Ġdress":12762,"ijke":12763,"ĠState":12764,"ĠHerman":12765,"Ġannuleren":12766,"Ġeenvoudiger":12767,"Ġkostuum":12768,"Ġontvanger":12769,"graven":12770,"Ġmac":12771,"istan":12772,"Ġhoever":12773,"ĠMS":12774,"ĠDeventer":12775,"Ġjustitie":12776,"reem":12777,"Ġtoegenomen":12778,"stemmen":12779,"Ġactueel":12780,"Ġweigeren":12781,"Ġambtenaren":12782,"Ġeth":12783,"verantwoord":12784,"hav":12785,"less":12786,"Ġstapel":12787,"gelen":12788,"BC":12789,"ĠSociale":12790,"erwijs":12791,"appe":12792,"advertenties":12793,"Ġverplaatst":12794,"Ġromantische":12795,"kruid":12796,"appel":12797,"pand":12798,"ĠWijn":12799,"Ġclaim":12800,"ican":12801,"aret":12802,"Ġ:)":12803,"Ġambassade":12804,"ainers":12805,"Ġberoemd":12806,"Ġverzuim":12807,"Ġending":12808,"Ġfolie":12809,"Ġvintage":12810,"Ġurine":12811,"dal":12812,"Ġticket":12813,"hoes":12814,"Ġaroma":12815,"Ġuitgesloten":12816,"tuÃ¯":12817,"ĠMoeder":12818,"prem":12819,"verkie":12820,"ensies":12821,"Ġklank":12822,"Ġvereen":12823,"ĠCur":12824,"Ġparty":12825,"ĠMateriaal":12826,"Ġaangaan":12827,"Ġtassen":12828,"ĠVries":12829,"Ġprie":12830,"Ġautor":12831,"ĠBehalve":12832,"ĠOV":12833,"ĠNederlander":12834,"Ġhu":12835,"ollige":12836,"oever":12837,"ietjes":12838,".-":12839,"Ġwortels":12840,"besl":12841,"Ġfeesten":12842,"gewone":12843,"grens":12844,"Ġfraai":12845,"Ġgoo":12846,"spellen":12847,"Ġreiniging":12848,"ootjes":12849,"ĠHulp":12850,"ĠTegelijkertijd":12851,"leveren":12852,"Ġbijeen":12853,"Ġpotentieel":12854,"Ġkleren":12855,"Ġopsch":12856,"ĠKem":12857,"ĠJur":12858,"Ġwastafel":12859,"Ġzesde":12860,"Ġdynamische":12861,"amma":12862,"ĠDo":12863,"Ġprotocol":12864,"Â«":12865,"Ġsteekt":12866,"vru":12867,"Ġongedragen":12868,"opslag":12869,"Ġwoest":12870,"ĠgeÃ¯ntegreerde":12871,"Ġvreugde":12872,"Ġdram":12873,"instelling":12874,"cur":12875,"stede":12876,"ilinder":12877,"Ġlam":12878,"Ġbreiden":12879,"obal":12880,"Ġvroegere":12881,"angere":12882,"Ġtrouwen":12883,"Ġrefer":12884,"Ġschrijvers":12885,"Ġopvolger":12886,"Ġgeslagen":12887,"cover":12888,"modellen":12889,"ĠPortugal":12890,"Ġinspanningen":12891,"Ġpassagiers":12892,"meel":12893,"ĠÃ¼":12894,"Ġnadere":12895,"ĠWinter":12896,"geboren":12897,"Ġverbaas":12898,"eler":12899,"ĠISO":12900,"Ġgan":12901,"schoen":12902,"woorde":12903,"Ġvestigingen":12904,"Ġverlengd":12905,"Eigen":12906,"Ġvoorschriften":12907,"lon":12908,"lek":12909,"nest":12910,"Ġbetalingen":12911,"Ġ130":12912,"Ġuitgezonden":12913,"Ġ05":12914,"sle":12915,"slam":12916,"Ġraak":12917,"Uiteraard":12918,"83":12919,"deelt":12920,"Ġmaandelijks":12921,"prive":12922,"Ġaanger":12923,"Ġaansluitingen":12924,"ĠAdvies":12925,"ĠUniversity":12926,"ĠNiemand":12927,"oordt":12928,"erts":12929,"putatie":12930,"Ġvliegveld":12931,"medewerkers":12932,"dekte":12933,"kleurige":12934,"Ġpa":12935,"Ġeis":12936,"ior":12937,"Ġfascin":12938,"ĠKim":12939,"ĠRoyal":12940,"Ġcommentaar":12941,"Ġverzekeringen":12942,"TS":12943,"Ġverdeling":12944,"Ġmethoden":12945,"gerekend":12946,"ailand":12947,"inrichting":12948,"ĠUWV":12949,"Ġgoeie":12950,"Ġblanke":12951,"Ġpaniek":12952,"Ġdin":12953,"ĠVerb":12954,"onomie":12955,"ĠSens":12956,"ĠAmazon":12957,"gewerkt":12958,"roming":12959,"Ġ54":12960,"ĠSen":12961,"Ġvraagstukken":12962,"Ġverwarmen":12963,"Ġheftig":12964,"Ġtandarts":12965,"Ġverbindingen":12966,"Ġgronden":12967,"ĠAcadem":12968,"register":12969,"kenden":12970,"iÃ¨re":12971,"varen":12972,"Werk":12973,"Ġfraude":12974,"Ġevaluatie":12975,"!\"":12976,"ĠLeven":12977,"inners":12978,"liefhebbers":12979,"vincies":12980,"ology":12981,"Kom":12982,"ĠPak":12983,"Ġtim":12984,"84":12985,"accin":12986,"ouche":12987,"Ġarmband":12988,"Ġveronder":12989,"Ġkoolhydraten":12990,"zegd":12991,"Ne":12992,"Ġzinnen":12993,"tem":12994,"eind":12995,"outh":12996,"eemt":12997,"ĠJammer":12998,"Klik":12999,"Ġinrichten":13000,"Ġdoorgeven":13001,"Ġversp":13002,"Kan":13003,"ijpt":13004,"Ġwiens":13005,"ĠLim":13006,"WB":13007,"stromen":13008,"ondanks":13009,"Ġontdekte":13010,"tafel":13011,"Ġsymbol":13012,"Ġconcentr":13013,"bro":13014,"Ġaannemer":13015,"ĠNiets":13016,"Co":13017,"Ġ110":13018,"yer":13019,"garantie":13020,"Ġherzien":13021,"Ġbocht":13022,"LO":13023,"mix":13024,"Ġprop":13025,"Ġafgenomen":13026,"Ġoptredens":13027,"raafplaats":13028,"Ġverbouwing":13029,"Ġovertuiging":13030,"zeren":13031,"uetooth":13032,"Ġcitroen":13033,"Ġsexfilmpjes":13034,"bestrijding":13035,"ĠBedankt":13036,"Ġspeed":13037,"Ġaanvankelijk":13038,"Ġtweet":13039,"Ġeg":13040,"rooms":13041,"Ġpick":13042,"ĠJames":13043,"ĠPVC":13044,"Ġong":13045,"Ġschapen":13046,"Ġplaatjes":13047,"lust":13048,"ibel":13049,"Zw":13050,"vlies":13051,"Ġduiven":13052,"Ġbitter":13053,"Ġvechten":13054,"Ġgelov":13055,"Ġloopafstand":13056,"Ġtrainers":13057,"omet":13058,"Ġfirma":13059,"Ġanderhalf":13060,"ijker":13061,"ĠTheater":13062,"vliet":13063,"Ġvarkens":13064,"PC":13065,"Ġ360":13066,"Ġbagage":13067,"Ġ140":13068,"risico":13069,"Ġafvallen":13070,"Ġtape":13071,"Ġuitmaken":13072,"Ġhardware":13073,"gelicht":13074,"Ġzoom":13075,"Ġschilders":13076,"Ġchef":13077,"63":13078,"Ġarrange":13079,"arning":13080,"Ġcontinue":13081,"Ġbatterijen":13082,"Ġborstel":13083,"Ġatelier":13084,"Ġverschuldigd":13085,"klaar":13086,"Stel":13087,"ĠBu":13088,"roerend":13089,"Ġbedanken":13090,"ĠMolen":13091,"Ġconfront":13092,"Ġnaald":13093,"Ġaanmaken":13094,"ondheids":13095,"Ġdiscrimin":13096,"medewerker":13097,"Ġverhoogt":13098,"Ġ(âĢĺ":13099,"oeide":13100,"agra":13101,"Ġstrikt":13102,"pper":13103,"verwerking":13104,"Ġchirurg":13105,"Ġuitziet":13106,"Ġopget":13107,"untry":13108,"Ġhistorie":13109,"ĠSchrijf":13110,"Ġslijtage":13111,"Ġschroef":13112,"ative":13113,"sendaal":13114,"Ġstadium":13115,"ĠAnalytics":13116,"Ġleiders":13117,"Ġbovenkant":13118,"Ġgodsdienst":13119,"Ġonjuist":13120,"ĠOma":13121,"ĠDienst":13122,"rijders":13123,"82":13124,"enst":13125,"dende":13126,"ison":13127,"oli":13128,"ĠWand":13129,"Ġgemotiveerd":13130,"bedekking":13131,"Ġadult":13132,"Ġfietsp":13133,"Ġrijp":13134,"oederen":13135,"gemeenschap":13136,"Ġtransitie":13137,"Ġstels":13138,"endaal":13139,"ĠgeÃ¯nformeerd":13140,"Ġcreditcard":13141,"gh":13142,"ĠgeÃ¯ntegreerd":13143,"maand":13144,"unct":13145,"Ġbetoog":13146,"cijfers":13147,"Ġstaart":13148,"ĠRh":13149,"Ġgewezen":13150,"ĠPot":13151,"Ġblind":13152,"ply":13153,"Ġafzonderlijke":13154,"Ġhectare":13155,"training":13156,"Ġseksueel":13157,"combin":13158,"Ġopvoeding":13159,"Ġfotograferen":13160,"gat":13161,"strand":13162,"olens":13163,"zz":13164,"sal":13165,"geeft":13166,"ĠOb":13167,"rijkt":13168,"hotel":13169,"bische":13170,"Ġafnemen":13171,"Ġschuiven":13172,"gelezen":13173,"digheid":13174,"Ġambities":13175,"ĠPVV":13176,"ĠWeek":13177,"ĠPerfect":13178,"Ġelect":13179,"Ġoverleed":13180,"journ":13181,"bureaus":13182,"Ġinvoering":13183,"ĠLeid":13184,"Ġcontracten":13185,"Ġglij":13186,"Ġinspectie":13187,"ĠKap":13188,"Ã³g":13189,"ĠVolg":13190,"Ġdaken":13191,"Ġbeleggen":13192,"Super":13193,"Ġtransparante":13194,"ĠBureau":13195,"Ġtheor":13196,"ganger":13197,"Ġgarande":13198,"Ã¶n":13199,"57":13200,"Ġdode":13201,"Ġdraadloze":13202,"UM":13203,"Ġvezels":13204,"Ġcorrecte":13205,"Ġ51":13206,"Ġstream":13207,"Ġheleboel":13208,"Ġplatteland":13209,"quid":13210,"Hand":13211,"hau":13212,"Ġvakgebied":13213,"Ġlading":13214,"81":13215,"ĠHoorn":13216,"Ġcompact":13217,"Ġvooraan":13218,"ĠDay":13219,"Ġbijlage":13220,"ĠMail":13221,"ĠLouis":13222,"groeien":13223,"ĠLife":13224,"Ġtraditioneel":13225,"hoop":13226,"rict":13227,"ĠĠĠĠ":13228,"Ġbehaalde":13229,"Ġscheiden":13230,"Ġaardappel":13231,"Ġheuvel":13232,"Ġrots":13233,"ĠBelgisch":13234,"rachtig":13235,"Ġbewonderen":13236,"Ġafmeting":13237,"Ġrondje":13238,"Ġweersomstandigheden":13239,"ĠMaur":13240,"loosheid":13241,"Ġgeact":13242,"data":13243,"ĠFlor":13244,"specialisten":13245,"Ġgebeld":13246,"Ġadviseurs":13247,"ĠInt":13248,"Ġpijl":13249,"Ġuitoefenen":13250,"Ġpant":13251,"Ġpapa":13252,"Ġgestegen":13253,"Ġpjes":13254,"Ġargument":13255,"Ġuitdrukking":13256,"etitie":13257,"Ġschaamlippen":13258,"wijst":13259,"alem":13260,"Ġcocktail":13261,"Ġinbraak":13262,"Ġ04":13263,"ĠArbe":13264,"Ġpresenteert":13265,"ĠRomeinse":13266,"wards":13267,"Ġtus":13268,"izar":13269,"ĠMA":13270,"ĠOffice":13271,"por":13272,"ĠAS":13273,"Ġbroers":13274,"ĠMater":13275,"rusting":13276,"Ġlevensstijl":13277,"begeleiding":13278,"unic":13279,"Ġspraak":13280,"Ġdrum":13281,"Ġmeneer":13282,"ilair":13283,".....":13284,"Ġbouwt":13285,"Ġomgang":13286,"Ġvult":13287,"Ġmaandelijkse":13288,"Ġvisuele":13289,"Ġuitstap":13290,"Ġberoepen":13291,"ĠData":13292,"Ġincident":13293,"pakketten":13294,"Ġrealisatie":13295,"Ġfocussen":13296,"ĠSystem":13297,"ffect":13298,"ĠÃ³":13299,"ĠPass":13300,"Ġspeci":13301,"Ġstoer":13302,"Ġpin":13303,"Ġgeweten":13304,"Neuken":13305,"agon":13306,"Ġ1997":13307,"Ġingewikkeld":13308,"ĠIC":13309,"bie":13310,"Ġscheelt":13311,"Ġportret":13312,"ĠKennis":13313,"ĠFord":13314,"Ġstudeerde":13315,"Ġvakkundig":13316,"uta":13317,"Ġbeest":13318,"kleed":13319,"volging":13320,"itjes":13321,"ĠVergeet":13322,"Ġmilie":13323,"ĠSocial":13324,"vit":13325,"Ġgeautomatis":13326,"Ġuitgeschakeld":13327,"Ġmind":13328,"esten":13329,"ĠNacht":13330,"ĠDor":13331,"Ġcosmet":13332,"Ġeenige":13333,"Ġdomeinn":13334,"Ġzoekmachine":13335,"want":13336,"conde":13337,"EV":13338,"dens":13339,"ĠoriÃ«nt":13340,"Ġlust":13341,"Ġmerkte":13342,"iteiten":13343,"Ġkrist":13344,"uteur":13345,"Ġkasten":13346,"ĠHeu":13347,"Ġbu":13348,"Ġbroodjes":13349,"Ġbezuin":13350,"Ġgunstige":13351,"Ġtijds":13352,"lip":13353,"estivals":13354,"Ġaanstaande":13355,"Ġritme":13356,"odra":13357,"Ã©s":13358,"profiel":13359,"Ġgevierd":13360,"oedd":13361,"witch":13362,"ĠRichard":13363,"alte":13364,"Ġdiezelfde":13365,"uiken":13366,"Ġgerichte":13367,"93":13368,"oeger":13369,"Ġvernieuwde":13370,"Ġfacturen":13371,"arings":13372,"ĠFood":13373,"Ġoverstap":13374,"Vrouwen":13375,"Ġoss":13376,"genees":13377,"ĠVoordat":13378,"Ġzaandam":13379,"Ġgesneden":13380,"Ġstorten":13381,"iften":13382,"blig":13383,"ijten":13384,"oonde":13385,"Ġontpl":13386,"Ġverfijn":13387,"ĠReal":13388,"Ġsek":13389,"Ġaantallen":13390,"Want":13391,"Ġhoofdrol":13392,"Ġintake":13393,"ns":13394,"illing":13395,"ĠBall":13396,"oots":13397,"Ġtimmer":13398,"Ġveelzijdige":13399,"Ġindrukwekkend":13400,"Ġrubriek":13401,"Ġoverhand":13402,"ivisie":13403,"Ġvervullen":13404,"IR":13405,"klimaat":13406,"ĠModel":13407,"ĠRoer":13408,"ĠHouse":13409,"Ġzu":13410,"energie":13411,"aanvraag":13412,"raagde":13413,"bril":13414,"dicht":13415,"spectie":13416,"Ġgran":13417,"iensten":13418,"ĠGaat":13419,"uisteren":13420,"Ġvaar":13421,"Ġjazz":13422,"Ġeindigde":13423,"Ġverbeteringen":13424,"patroon":13425,"aandag":13426,"Ġtof":13427,"iox":13428,"draaien":13429,"vallend":13430,"ĠPink":13431,"alsnog":13432,"not":13433,"Ġpuzzel":13434,"aza":13435,"ĠAndre":13436,"ĠHoeveel":13437,"Ġsamenhang":13438,"Ġregelt":13439,"ĠintuÃ¯":13440,"herapeuten":13441,"Ġgetekend":13442,"Ġare":13443,"Bovendien":13444,"ĠAdvoc":13445,"kok":13446,"tevreden":13447,"Ġklikt":13448,"Ġ1995":13449,"annab":13450,"issingen":13451,"eering":13452,"Ġvaccinatie":13453,"ĠFot":13454,"orgel":13455,"orr":13456,"ĠCovid":13457,"Ġwebin":13458,"vaten":13459,"ouver":13460,"blokken":13461,"ĠGrond":13462,"schoon":13463,"Ġemmen":13464,"Ġleerkracht":13465,"Ġvermogens":13466,"inair":13467,"Ġbijkomende":13468,"Ġgelukk":13469,"Ġklassen":13470,"Doe":13471,"Ġbedekt":13472,"Ġ03":13473,"Ġbijhouden":13474,"Ġoogst":13475,"Ġov":13476,"circ":13477,"Ġretail":13478,"Ġalvorens":13479,"Ġkwalitatieve":13480,"Ġcollectieve":13481,"branche":13482,"Ġbloei":13483,"zaad":13484,"ĠSpelen":13485,"Hallo":13486,"Ġservers":13487,"Ġvenster":13488,"Ġshoppen":13489,"ĠCornel":13490,"Ġterugkeer":13491,"boekje":13492,"selen":13493,"Ġdiefstal":13494,"giÃ«n":13495,"Ġcijfer":13496,"Ġgym":13497,"Ġgedroog":13498,"ĠAch":13499,"Ġverderop":13500,"Ġcircuit":13501,"hug":13502,"ickets":13503,"Ġwein":13504,"werkende":13505,"Ġ700":13506,"Ġverminderd":13507,"ĠHeilige":13508,"Ġnuttige":13509,"jur":13510,"TA":13511,"Ġingen":13512,"Ġyour":13513,"netjes":13514,"ĠAlgemeen":13515,"Ġdaling":13516,"Ġbroch":13517,"ĠFun":13518,"ĠAal":13519,"Ġbenzine":13520,"Ġpret":13521,"ĠOh":13522,"beheerder":13523,"Ġpion":13524,"-/":13525,"ĠPR":13526,"Ġkeurig":13527,"IK":13528,"Ġrang":13529,"Reg":13530,"Ġriool":13531,"orps":13532,"ĠÃ¡":13533,"Ġautoriteiten":13534,"zuin":13535,"zijdig":13536,"ĠGerrit":13537,"Ġdijk":13538,"korting":13539,"Ġdwingen":13540,"ï¿½":13541,"Ġonzicht":13542,"Ġverdediging":13543,"bol":13544,"Ġovername":13545,"instituut":13546,"aardig":13547,"Ġbuurman":13548,"videos":13549,"reed":13550,"ĠMr":13551,"Ġkoste":13552,"ĠCong":13553,"Ġresolutie":13554,"Ġberekening":13555,"Ġgeuren":13556,"ĠJord":13557,"Ġkenmer":13558,"grade":13559,"Ġeigentijd":13560,"Nieuwe":13561,"Ġpijnlijk":13562,"61":13563,"Ġhoeken":13564,"Ġopzeg":13565,"Ġverdiepen":13566,"Ġafdelingen":13567,"Ġdichtst":13568,"Ġverdelen":13569,"Ġbegane":13570,"handeld":13571,"Ġpermanente":13572,"Ġverstelbare":13573,"oda":13574,"Ġgeken":13575,"keuken":13576,"Ġtakken":13577,"ĠAirport":13578,"Ġbreder":13579,"Ġpsychiat":13580,"ĠOper":13581,"Ġenerzijds":13582,"Ġhoofdpijn":13583,"bike":13584,"Ġsla":13585,"Ġindex":13586,"ogie":13587,"62":13588,"Ġopenings":13589,"Ġvervoeren":13590,"Links":13591,"idge":13592,"Ġnature":13593,"ocus":13594,"ĠParlement":13595,"ĠMomenteel":13596,"spen":13597,"Ġtube":13598,"Ġairc":13599,"ĠLove":13600,"Ġbeweegt":13601,"Ġlate":13602,"denking":13603,"optim":13604,"Ġaanraden":13605,"emburg":13606,"Ġgedoe":13607,"ify":13608,"Ġag":13609,"ĠAziÃ«":13610,"Ġuitkleden":13611,"ĠRef":13612,"Ġaangevraagd":13613,"ĠpoÃ«zie":13614,"ĠMul":13615,"Ġaannemen":13616,"elux":13617,"âĢ¦..":13618,"stations":13619,"handelen":13620,"Ġbijpassende":13621,"Nou":13622,"rain":13623,"ĠBak":13624,"ĠAutom":13625,"Ġprovincies":13626,"Ġfeitelijk":13627,"allenge":13628,"Ġmagazine":13629,"ĠAllemaal":13630,"ĠEgypte":13631,"Ġmega":13632,"Ġvonnis":13633,"Ġprinter":13634,"administratie":13635,"Ġseconde":13636,"esc":13637,"atures":13638,"Ġmovies":13639,"ati":13640,"Ġschuldig":13641,"Ġonverwachte":13642,"Ġ125":13643,"scentrum":13644,"Ġexcurs":13645,"zakelijk":13646,"ĠWijk":13647,"ffeurs":13648,"Ġbig":13649,"urmerend":13650,"ĠAudi":13651,"Ġkabels":13652,"Ġgenereren":13653,"Ġ07":13654,"Kies":13655,"Ġuitstoot":13656,"Ġmoslim":13657,"Ġgedr":13658,"ĠGerard":13659,"Ġhippe":13660,"ĠServ":13661,"Dag":13662,"Ġriep":13663,"Ġlik":13664,"Ġherhaald":13665,"Ġpaal":13666,"Ġlijm":13667,"Ġharmonie":13668,"Ġbelt":13669,"ĠHad":13670,"bouwen":13671,"Ġprimaire":13672,"Ġachterhalen":13673,"Ġhapjes":13674,"stap":13675,"Ġbeur":13676,"Gelukkig":13677,"zitten":13678,"ĠPier":13679,"spanning":13680,"Ġvermoedelijk":13681,"Ġhydrat":13682,"Mooi":13683,"Ġsloop":13684,"Ġbijbel":13685,"financier":13686,"Ġdee":13687,"rade":13688,"Ġuitstek":13689,"termijn":13690,"Ġsecret":13691,"Ġstaatssecretaris":13692,"kleuren":13693,"constructie":13694,"Ġelkaars":13695,"ĠMij":13696,"Ġpubliceren":13697,"Ġwesterse":13698,"erten":13699,"Ġvakmanschap":13700,"ĠBlok":13701,"ungal":13702,"Ġsales":13703,"ingers":13704,"Ġschitterend":13705,"cade":13706,"weefsel":13707,"West":13708,"Ġgevaren":13709,"ĠSteeds":13710,"ĠArtikel":13711,"atalogus":13712,"Ġafzonderlijk":13713,"ĠcalorieÃ«n":13714,"Ġstier":13715,"start":13716,"Ġverhoging":13717,"Ġontsteking":13718,"ipedia":13719,"praat":13720,"Ġschroeven":13721,"ĠFlex":13722,"norm":13723,"waarschijnlijk":13724,"Ġdurft":13725,"Ġdakk":13726,"kabel":13727,"Ġfacilit":13728,"Ġdiesel":13729,"Ġwijng":13730,"amboe":13731,"Ġbeseffen":13732,"usters":13733,"Ġvaststelling":13734,"91":13735,"Ġvertonen":13736,"riel":13737,"Ġwaterdicht":13738,"Ken":13739,"ĠCirc":13740,"spelers":13741,"Ġellende":13742,"Ġsap":13743,"geef":13744,"Ġzogeh":13745,"Ġstadje":13746,"cle":13747,"Ġbenutten":13748,"Ġportemonnee":13749,"studie":13750,"Ġacteur":13751,"quiz":13752,"Ġgy":13753,"cose":13754,"oolse":13755,"Ġweergave":13756,",âĢ¦":13757,"TO":13758,"ĠRog":13759,"Ġmeldingen":13760,"Ġgerechtigd":13761,"Ġuitwerking":13762,"ĠZodat":13763,"ĠnÃ³g":13764,"Ġ350":13765,"ĠHerm":13766,"Ġadequ":13767,"ĠOvereenkomst":13768,"binnen":13769,"ormde":13770,"Ġsokken":13771,"ĠLeon":13772,"Ġtreinen":13773,"Ġreputatie":13774,"Ġpopulariteit":13775,"ĠenquÃª":13776,"ĠMogelijk":13777,"Ġstelsel":13778,"ĠPast":13779,"Ġfch":13780,"Ġbestr":13781,"ĠWik":13782,"Ġacadem":13783,"akelijk":13784,"hond":13785,"Ġzaden":13786,"avo":13787,"emarken":13788,"ĠhygiÃ«ne":13789,"aande":13790,"Ġintim":13791,"reid":13792,".).":13793,"Ġgrof":13794,"Ġ160":13795,"Ġhechten":13796,"EST":13797,"geleide":13798,"Ġdeskundigen":13799,"Ġobst":13800,"histor":13801,"Ġdementie":13802,"Spec":13803,"orry":13804,"ifunction":13805,"Ġnation":13806,"Ġzogeheten":13807,"risch":13808,"ĠAntwerp":13809,"ĠDuitsers":13810,"ĠManager":13811,"Thuis":13812,"GA":13813,"Ġwetsvoorstel":13814,"Ġsoldaten":13815,"Ġtoegelaten":13816,"Ġalt":13817,"Ġblokk":13818,"Ġmensheid":13819,"Open":13820,"Ġyoutube":13821,"ĠWolf":13822,"Ġfrag":13823,"2014":13824,"ĠTre":13825,"ontste":13826,"gebouwen":13827,"ĠCare":13828,"ĠRand":13829,"Ġinstanties":13830,"Ġverdedigen":13831,"delijke":13832,"Ġfer":13833,"reekbaar":13834,"Terwijl":13835,"ĠHond":13836,"schad":13837,"Ġvermoeidheid":13838,"ĠSterker":13839,"Ġspeurders":13840,"Ġonbet":13841,"ls":13842,"Ġwijsheid":13843,"Pers":13844,"Ġkampen":13845,"Ġaccent":13846,"Ġ1996":13847,"igment":13848,"Ġonde":13849,"iance":13850,"Ġopende":13851,"Ġwc":13852,"Ġgeschenk":13853,"Ġeindresultaat":13854,"ĠHug":13855,"Ġhuisdieren":13856,"Ġexplos":13857,"Ġveranderde":13858,"ĠAVG":13859,"Ġvuist":13860,"Ġgeaccept":13861,"Ã¨ne":13862,"Ġketel":13863,"album":13864,"Ġuitgegroeid":13865,"alitie":13866,"Ġvoornaamste":13867,"Ġinvloeden":13868,"Ġrondleiding":13869,"Ġbedrijfsp":13870,"Ġgarandeert":13871,"stoot":13872,"Ġaar":13873,"Ġprincipes":13874,"Ġwandelingen":13875,"ĠWaarschijnlijk":13876,"Ġsteeg":13877,"tijdig":13878,"inie":13879,"Ġknoppen":13880,"Ġvorst":13881,"Ġtram":13882,"Ġherhaling":13883,"bach":13884,"ĠJose":13885,"dsm":13886,"hugow":13887,"coratie":13888,"ĠSimon":13889,"Ġlelijke":13890,"Ġgevecht":13891,"ĠMKB":13892,"Ġgolven":13893,"Ġdrijf":13894,"haus":13895,"Ġgekenmerkt":13896,"Ġmeters":13897,"Ġcogn":13898,"Ġmeditatie":13899,"Ġ1990":13900,"%,":13901,"Ġbub":13902,"ermijn":13903,"ĠDoes":13904,"apport":13905,"urger":13906,"Ġtoeval":13907,"Ġoneind":13908,"kol":13909,"rome":13910,"ĠBezoek":13911,"Ġopgedaan":13912,"ĠSU":13913,"Ġ53":13914,"vervoer":13915,"Ġlidstaten":13916,"abeth":13917,"ĠZal":13918,"Ġverbeterde":13919,"aalden":13920,"EGO":13921,"ĠLem":13922,"Ġlaminaat":13923,"Ġweert":13924,"Ġonn":13925,"muur":13926,"eleg":13927,"BB":13928,"zichten":13929,"oefend":13930,"ĠVoed":13931,"itst":13932,"iforn":13933,"ĠID":13934,"Ġbik":13935,"ĠGouda":13936,"Min":13937,"Ġfietsers":13938,"Ġbesturen":13939,"ĠCard":13940,"Ġvlek":13941,"iotica":13942,"hugowaard":13943,"ĠIt":13944,"spect":13945,"elli":13946,"Â©":13947,"Ġtepels":13948,"ĠMarcel":13949,"ieurs":13950,"Ġprostaat":13951,"EÃ©n":13952,"Ġvandaar":13953,"Ġaanbevelingen":13954,"ĠJuni":13955,"utje":13956,"loon":13957,"Ġmoois":13958,"Ġarbeidson":13959,"Ġkoe":13960,"Mich":13961,"Ġschiedam":13962,"Ġbeschouwen":13963,"rices":13964,"Ġschud":13965,"Ġtransformatie":13966,"Ġzwij":13967,"ĠHopelijk":13968,"Europa":13969,"ĠSony":13970,"Ġ72":13971,"Ġduw":13972,"dIn":13973,"ĠSD":13974,"Ġopw":13975,"Ġconstat":13976,"icaal":13977,"intjes":13978,"fietsen":13979,"Ġschimmel":13980,"folio":13981,"Ġhardcore":13982,"Ġpup":13983,"PR":13984,"Ġbadkamers":13985,"Ġderhalve":13986,"Ġprivehuis":13987,"ĠJu":13988,"schermen":13989,"ĠRa":13990,"ĠAar":13991,"Ġdekbed":13992,"ĠCook":13993,"Ġaldaar":13994,"Ġbewuste":13995,"ocatie":13996,"aarzen":13997,"apter":13998,"Ġroestvrij":13999,"Ġtitels":14000,"ĠSie":14001,"cre":14002,"itas":14003,"Ġsamenvatting":14004,"hot":14005,"Ġ66":14006,"Ġgetuige":14007,"bruin":14008,"doeken":14009,"houten":14010,"UL":14011,"ĠAward":14012,"Ġopgeleid":14013,"Ġverlengen":14014,"Ġbeweeg":14015,"Ġbeschuldig":14016,"angs":14017,"Ġeindigen":14018,"BN":14019,"Ġonderte":14020,"ĠCup":14021,"Ġinvoeren":14022,"schappij":14023,"betalen":14024,"Ġdierenarts":14025,"ancen":14026,"Alleen":14027,"Ġprij":14028,"Ġrealistisch":14029,
[...]
